#include "axis_sensor_data.h"

ai_handle ai_axis_sensor_data_weights_get(void)
{

  AI_ALIGNED(4)
  static const ai_u8 s_axis_sensor_weights[ 17200 ] = {
    0x18, 0x23, 0xbe, 0x3c, 0x05, 0xd6, 0x7b, 0xbe, 0xda, 0x69,
    0x68, 0x3e, 0x1c, 0xb1, 0x8c, 0x3e, 0x11, 0xa5, 0x93, 0xbe,
    0xde, 0x4b, 0x9e, 0x3c, 0x6f, 0x47, 0x81, 0xbd, 0xc8, 0xa9,
    0x85, 0x3d, 0xb9, 0x35, 0xe6, 0xbd, 0x2b, 0x93, 0xad, 0xbd,
    0xb6, 0x6a, 0x6c, 0x3e, 0xf9, 0xfd, 0x7e, 0xbd, 0xcf, 0x86,
    0xb8, 0x3c, 0x86, 0xea, 0x11, 0xbc, 0x59, 0x5a, 0x97, 0xbe,
    0x2a, 0x88, 0xdc, 0xbc, 0xd6, 0xbe, 0x85, 0xbc, 0x6b, 0x33,
    0x19, 0xbe, 0xd5, 0x09, 0x14, 0xbe, 0xe9, 0x13, 0x83, 0x3e,
    0x5c, 0x04, 0x9f, 0xb7, 0x3c, 0x4c, 0xee, 0xbd, 0x7b, 0xa9,
    0xdb, 0xbd, 0xb3, 0x93, 0x89, 0xbe, 0x40, 0xa9, 0x72, 0xbd,
    0x48, 0x49, 0x2e, 0x3d, 0x8f, 0x19, 0xa8, 0x3d, 0xa3, 0x76,
    0xc5, 0x3d, 0xad, 0xef, 0xbc, 0x3e, 0x9f, 0x7f, 0x99, 0x3e,
    0xb6, 0x28, 0xfc, 0x3c, 0x72, 0xea, 0xbb, 0x3c, 0xd9, 0x29,
    0x88, 0x3e, 0x79, 0xe7, 0xde, 0x3c, 0x08, 0x5e, 0x97, 0x3e,
    0x6f, 0x64, 0xf5, 0xbb, 0xb1, 0x51, 0x71, 0x3c, 0x2b, 0x4d,
    0x65, 0x3e, 0x67, 0xd5, 0x75, 0xbe, 0x25, 0x2f, 0x58, 0x3e,
    0x1d, 0x53, 0x57, 0xbd, 0xc7, 0xad, 0xc8, 0xbe, 0xde, 0xcf,
    0x43, 0x3d, 0xbe, 0xaf, 0xbd, 0xbd, 0x54, 0x57, 0x9b, 0xbd,
    0xaf, 0x6f, 0x30, 0x3d, 0x58, 0xc5, 0x21, 0x3a, 0xb6, 0xaf,
    0xcf, 0xbd, 0x43, 0xd0, 0xd7, 0x3d, 0x6d, 0x78, 0x30, 0xbe,
    0x21, 0x78, 0x47, 0x3e, 0x0f, 0x00, 0x1d, 0x3e, 0x26, 0x1a,
    0x9e, 0xbc, 0xaa, 0x10, 0x81, 0x3e, 0x32, 0x03, 0x94, 0x3e,
    0xeb, 0xb5, 0x27, 0xbe, 0xc3, 0xe2, 0x26, 0xbd, 0x0c, 0xcf,
    0xea, 0x3d, 0x15, 0x4c, 0xad, 0xbd, 0x8a, 0xaf, 0x1b, 0xbe,
    0x1f, 0x4b, 0x12, 0x3d, 0xb8, 0xb7, 0xe4, 0x3c, 0xe8, 0x06,
    0x3e, 0x3e, 0x9a, 0x58, 0x52, 0xbe, 0x24, 0x50, 0x31, 0x3d,
    0xf0, 0xf9, 0x79, 0x3e, 0x6e, 0x9f, 0x17, 0xbe, 0xb6, 0xcf,
    0x00, 0xbc, 0xcd, 0x32, 0xa4, 0x3d, 0xbb, 0x11, 0x06, 0xbe,
    0x32, 0xa6, 0xd2, 0xbc, 0x22, 0xa9, 0x86, 0x3e, 0xd7, 0xab,
    0x32, 0x3e, 0x6c, 0x21, 0xe2, 0x3d, 0xb3, 0xf3, 0x02, 0xbe,
    0x07, 0x80, 0x3a, 0x3e, 0xad, 0x43, 0x5f, 0x3d, 0xe3, 0x94,
    0x7a, 0x3c, 0x51, 0x94, 0x41, 0x3e, 0x45, 0x09, 0x88, 0x3c,
    0x53, 0xc0, 0x1a, 0xbe, 0x03, 0xb0, 0xd6, 0x3d, 0x8b, 0x47,
    0x59, 0xbd, 0xb9, 0xe9, 0xdb, 0x3d, 0x50, 0xcf, 0x29, 0x3e,
    0x62, 0xda, 0x2c, 0xbe, 0x2b, 0x22, 0x89, 0xbe, 0xcf, 0x0c,
    0x09, 0xbe, 0xa9, 0x25, 0xcb, 0xbd, 0x06, 0x7c, 0x78, 0x3e,
    0x11, 0x53, 0x9d, 0x3d, 0x34, 0xbf, 0xab, 0x3e, 0x6e, 0xf1,
    0x70, 0x3e, 0x21, 0x62, 0x01, 0x3e, 0x6c, 0xa5, 0x5b, 0x3e,
    0xc0, 0xd8, 0x71, 0x3e, 0x1e, 0xd9, 0x69, 0xbd, 0xbb, 0xd2,
    0xc6, 0x3d, 0x74, 0x7e, 0x05, 0xbf, 0xbd, 0x84, 0x4c, 0x3e,
    0x11, 0x4c, 0x98, 0xbf, 0x6d, 0x08, 0xf5, 0xbf, 0x42, 0x2a,
    0x17, 0xbf, 0xf1, 0xf6, 0x7a, 0x3e, 0x81, 0xe5, 0x97, 0xbe,
    0x78, 0x31, 0xaa, 0x3d, 0xc6, 0x1b, 0x9e, 0xbe, 0xed, 0x0b,
    0xbc, 0xbe, 0x4a, 0xfd, 0xa6, 0xbe, 0xf6, 0x33, 0x9b, 0x3d,
    0x39, 0xa9, 0x54, 0x3c, 0xdf, 0x4e, 0xf9, 0xbd, 0xd1, 0x40,
    0xb2, 0xbe, 0x1e, 0x25, 0x91, 0x3d, 0x9c, 0x5e, 0x2e, 0xbe,
    0x89, 0x6d, 0x41, 0xbe, 0x6f, 0x4f, 0x7a, 0xbd, 0x27, 0xb4,
    0x07, 0xbe, 0x80, 0xf5, 0xc4, 0xbe, 0xf2, 0x2a, 0x27, 0x3e,
    0x44, 0xe2, 0x59, 0xbe, 0xe6, 0x5f, 0x1c, 0xbb, 0xcd, 0xf2,
    0x06, 0xbe, 0x04, 0x9b, 0xcc, 0xbc, 0x40, 0x19, 0x06, 0xbe,
    0xbb, 0xdd, 0x3e, 0xbe, 0x8c, 0x64, 0x7c, 0xbd, 0xdf, 0xaa,
    0x48, 0xbe, 0xf6, 0xc4, 0x24, 0xbe, 0x59, 0x3c, 0xb0, 0xbd,
    0x4b, 0x6e, 0xb1, 0xbd, 0x0c, 0x00, 0x30, 0xbe, 0xe5, 0x9b,
    0x97, 0xbe, 0xe3, 0x55, 0x1c, 0x3e, 0xb5, 0xb8, 0xad, 0xbe,
    0x4a, 0x26, 0x81, 0x3d, 0xae, 0xb5, 0xa6, 0x3e, 0x73, 0x14,
    0x19, 0x3e, 0x3c, 0x9a, 0x91, 0xbf, 0x26, 0x72, 0xac, 0xbd,
    0xfc, 0x3a, 0x99, 0x3c, 0x4d, 0x29, 0x35, 0xbe, 0xe3, 0x5f,
    0x94, 0x3c, 0x99, 0xf7, 0xf1, 0xbe, 0x9b, 0x13, 0x3d, 0x3d,
    0xc2, 0x95, 0x38, 0x3e, 0x2b, 0xd9, 0x7b, 0xbf, 0xd0, 0xef,
    0x8a, 0xbd, 0xca, 0xbb, 0x7e, 0x3e, 0x12, 0xc2, 0x26, 0xbe,
    0x31, 0xe8, 0x3a, 0xbc, 0x01, 0x3a, 0x3b, 0xbf, 0x14, 0xfa,
    0x0d, 0xbe, 0xa7, 0xe7, 0x5c, 0x3e, 0xfa, 0xf0, 0xec, 0xbe,
    0x93, 0xec, 0x6b, 0xbe, 0x4d, 0x0c, 0xe9, 0xbd, 0x4a, 0x24,
    0x84, 0xbe, 0x56, 0x2f, 0x97, 0xbc, 0xcd, 0xa5, 0x54, 0x3e,
    0x01, 0x0c, 0x69, 0x3d, 0xa4, 0x5d, 0xf9, 0x3a, 0x4d, 0xd9,
    0xb7, 0xbd, 0x34, 0x42, 0x80, 0xbe, 0xc4, 0xec, 0xcd, 0x3d,
    0x12, 0xef, 0x8a, 0xbe, 0xef, 0x00, 0x77, 0xbe, 0x75, 0x77,
    0x44, 0xbe, 0xa3, 0x04, 0x36, 0xbe, 0x88, 0x47, 0xcb, 0xbc,
    0x00, 0x02, 0xa9, 0xbe, 0x5b, 0x0d, 0x89, 0xbe, 0x06, 0xa6,
    0xaa, 0x3e, 0x5e, 0xc1, 0x5b, 0x3e, 0xe4, 0xbf, 0x6c, 0xbd,
    0x1b, 0xed, 0x38, 0x3d, 0x1f, 0x31, 0xcd, 0x3d, 0x22, 0x98,
    0x8e, 0xbd, 0x99, 0x7f, 0xc8, 0xbe, 0x62, 0xad, 0x91, 0xbe,
    0x63, 0x2f, 0x2f, 0xbd, 0x46, 0x9e, 0x29, 0x3c, 0x07, 0x0d,
    0x65, 0x3e, 0x59, 0x6b, 0x12, 0x3e, 0xc0, 0x3b, 0x3b, 0xbd,
    0xcb, 0xbb, 0xf1, 0xbd, 0x83, 0x2e, 0xb7, 0xbe, 0xaa, 0x58,
    0x8c, 0xbe, 0xf1, 0xcc, 0x7c, 0x3e, 0xff, 0x64, 0xee, 0xbd,
    0x38, 0x6a, 0xfd, 0xbd, 0xb3, 0x61, 0xa4, 0x3c, 0xca, 0x77,
    0xde, 0x3d, 0x3f, 0x76, 0x8d, 0xbd, 0xde, 0xad, 0xa8, 0xbe,
    0x70, 0x9f, 0x82, 0xbe, 0x8c, 0xa1, 0xcb, 0xba, 0xca, 0xa5,
    0xb3, 0x3e, 0x9a, 0xfe, 0xeb, 0x3d, 0x1a, 0x31, 0xa7, 0x3d,
    0xd3, 0x52, 0x27, 0xbe, 0x77, 0x4b, 0x89, 0x3c, 0x27, 0xb9,
    0x0b, 0x3e, 0x2a, 0x3a, 0xd4, 0xbe, 0x17, 0xde, 0x89, 0xbe,
    0x93, 0xc1, 0x5a, 0xbc, 0x7a, 0xeb, 0xaa, 0xbe, 0x01, 0xfb,
    0xbe, 0xbd, 0x2c, 0x0b, 0xad, 0xbc, 0x94, 0x12, 0x30, 0x3e,
    0x22, 0xc9, 0xa5, 0xbd, 0xfd, 0x10, 0x1a, 0xbe, 0xff, 0x82,
    0xa2, 0xbe, 0x50, 0x55, 0xd6, 0x3d, 0x86, 0x9e, 0xc0, 0xbe,
    0x15, 0xbe, 0x51, 0x3d, 0x64, 0x73, 0x7b, 0xbe, 0xce, 0x3c,
    0x05, 0x3e, 0x0a, 0x18, 0x1f, 0xbe, 0x4c, 0x77, 0x57, 0xbe,
    0x2b, 0x95, 0xa6, 0xbd, 0xc3, 0x72, 0x5c, 0xbe, 0x50, 0x8a,
    0x44, 0xbe, 0x64, 0x9d, 0xdf, 0xbd, 0x42, 0xe2, 0x52, 0xbe,
    0xc6, 0x03, 0x4f, 0xbe, 0x8d, 0xee, 0x97, 0xbd, 0xfa, 0x74,
    0xac, 0xbc, 0xac, 0xf4, 0x7c, 0xbe, 0x26, 0xf4, 0x98, 0xbd,
    0x14, 0xbb, 0xf2, 0xbd, 0x86, 0x3c, 0x4e, 0xbd, 0xaa, 0x44,
    0x20, 0x3e, 0x5f, 0xfb, 0xf3, 0xbc, 0xfa, 0x1e, 0xd3, 0xbd,
    0x10, 0x99, 0xe3, 0xbe, 0x6e, 0x12, 0x5c, 0x3e, 0x6a, 0x55,
    0x7e, 0x3d, 0xa8, 0xa2, 0x3d, 0xbe, 0xbe, 0xaa, 0x54, 0xbe,
    0x2e, 0x66, 0x98, 0x3d, 0xe2, 0xd5, 0x48, 0xbe, 0x54, 0x7a,
    0x9d, 0xbe, 0x93, 0x93, 0xe2, 0xbe, 0xfe, 0x89, 0x05, 0x3e,
    0xef, 0xf9, 0xad, 0x3c, 0xc1, 0xad, 0x0a, 0x3e, 0x54, 0xc7,
    0xad, 0xbe, 0x66, 0x9a, 0xde, 0xbc, 0xac, 0x77, 0x5d, 0xbe,
    0x9c, 0x70, 0x1b, 0xbe, 0xbb, 0xc1, 0xd2, 0xbe, 0xf7, 0x6f,
    0x5b, 0xbe, 0x42, 0x8b, 0x48, 0xbe, 0x3a, 0x03, 0x4a, 0xbe,
    0xa1, 0xa7, 0x6b, 0x3c, 0xc4, 0x1d, 0x41, 0xbb, 0xbb, 0xd5,
    0x0f, 0xbe, 0xea, 0x47, 0xd5, 0x3d, 0x6f, 0xc6, 0xac, 0x3d,
    0x65, 0x9a, 0x90, 0xbe, 0xfb, 0xee, 0x70, 0xbe, 0x13, 0xbd,
    0x58, 0x3d, 0x68, 0x40, 0x21, 0xbe, 0x14, 0x00, 0x3c, 0xbe,
    0x77, 0xfb, 0xfa, 0x3d, 0x43, 0x83, 0x0a, 0xbe, 0x64, 0x4b,
    0x57, 0xbd, 0x0d, 0xfa, 0x92, 0x3a, 0xf9, 0xaf, 0x98, 0xbe,
    0xa9, 0xe4, 0x32, 0xbe, 0xc3, 0x80, 0x2e, 0x3e, 0x91, 0x37,
    0xbc, 0x3c, 0xb7, 0x25, 0x34, 0xbd, 0x65, 0x5d, 0xd1, 0x3e,
    0x67, 0x52, 0x68, 0x3d, 0x12, 0xd0, 0x63, 0x3d, 0x1a, 0x8c,
    0xa9, 0xbe, 0x24, 0xde, 0x46, 0xbe, 0x43, 0xdb, 0xf7, 0x3e,
    0x18, 0x57, 0xff, 0xbd, 0x2b, 0x23, 0xa8, 0x3e, 0xf4, 0x70,
    0x9b, 0x3e, 0xd2, 0xdc, 0xa6, 0x3e, 0x33, 0x82, 0x15, 0xbd,
    0x84, 0xf3, 0xc0, 0xbe, 0xe4, 0x1d, 0xe2, 0xbd, 0x01, 0x0e,
    0xa7, 0x3d, 0x8c, 0x38, 0x5f, 0xbd, 0x65, 0xce, 0x1d, 0xbe,
    0x78, 0xed, 0xc3, 0xbd, 0x87, 0x49, 0x37, 0x3e, 0x0f, 0xb4,
    0x2a, 0xbe, 0xbe, 0xd6, 0xbf, 0xbe, 0x01, 0x2d, 0x11, 0xbe,
    0xac, 0x9c, 0x5b, 0x3d, 0x9a, 0x74, 0xfe, 0x3c, 0x3c, 0x9a,
    0x8f, 0xbe, 0x07, 0xf7, 0xb0, 0x3d, 0x18, 0xef, 0xb9, 0x3d,
    0x0c, 0x66, 0x82, 0xbe, 0xf8, 0xc7, 0x89, 0xbe, 0xec, 0xdb,
    0x15, 0xbe, 0x6e, 0x98, 0xa0, 0x3e, 0x41, 0xa8, 0x8f, 0x3e,
    0xca, 0x9c, 0xdc, 0x3d, 0x5b, 0xf6, 0x57, 0xbd, 0xc6, 0xc2,
    0x06, 0xbe, 0xaf, 0x57, 0x2b, 0xbe, 0x6a, 0x6e, 0x7b, 0xbe,
    0xc2, 0xb7, 0x79, 0xbc, 0xcf, 0xd9, 0x26, 0xbe, 0x3e, 0x64,
    0xb5, 0xbd, 0xf4, 0x48, 0x0e, 0xbe, 0x51, 0xf4, 0x6f, 0x3b,
    0x44, 0x0f, 0xec, 0xbd, 0xe9, 0x84, 0x99, 0xbc, 0x59, 0xa8,
    0x79, 0xbe, 0xca, 0xa6, 0xae, 0xbd, 0x5e, 0x32, 0x68, 0xbe,
    0xd6, 0x7d, 0x6d, 0x3e, 0x05, 0x3b, 0x54, 0x3e, 0x82, 0xed,
    0x60, 0x3e, 0xd5, 0x9e, 0xd6, 0xbd, 0xa5, 0xb8, 0xf4, 0xbd,
    0xd1, 0x6e, 0x83, 0xbe, 0x8b, 0x41, 0x19, 0xbe, 0xde, 0x3e,
    0xa3, 0x3d, 0x2e, 0x0e, 0xd5, 0xbe, 0x7d, 0xc7, 0x33, 0xbd,
    0x02, 0x95, 0x7f, 0xbc, 0x1f, 0x85, 0xec, 0xbc, 0xa2, 0x5b,
    0x8a, 0xbe, 0xf4, 0x37, 0xe7, 0xbc, 0x27, 0xd4, 0x74, 0xbd,
    0xca, 0x50, 0xe4, 0xbc, 0xcc, 0xc0, 0xb1, 0xbe, 0x69, 0x04,
    0x08, 0xbd, 0x23, 0x7d, 0xd1, 0x3e, 0xdf, 0x63, 0xc6, 0xbc,
    0xaf, 0x5e, 0x79, 0xbe, 0x44, 0xb7, 0xeb, 0x3d, 0x03, 0x42,
    0xe2, 0xbd, 0x91, 0xc2, 0xac, 0x3e, 0xa8, 0x2d, 0x9d, 0xbe,
    0x65, 0x36, 0x10, 0x3e, 0xee, 0xe7, 0x98, 0xbd, 0x1d, 0xa4,
    0x08, 0x3e, 0x71, 0x42, 0x84, 0xbe, 0xa8, 0x45, 0xbf, 0x3d,
    0x94, 0x68, 0xfd, 0xbd, 0x7d, 0xf8, 0x8e, 0x3d, 0xf0, 0xe3,
    0xe9, 0xbe, 0xb3, 0x72, 0x0f, 0x3e, 0xbf, 0x63, 0x47, 0x3d,
    0x0a, 0x81, 0x0c, 0x3d, 0x02, 0xab, 0x85, 0xbe, 0xaa, 0xc2,
    0x8b, 0xbd, 0xf8, 0x9b, 0xb7, 0xbc, 0x8a, 0xcf, 0x2c, 0xbd,
    0x87, 0x9e, 0xc5, 0xbd, 0xec, 0xb9, 0x23, 0xbe, 0xbe, 0x09,
    0x7a, 0xbe, 0x6b, 0x50, 0x0d, 0xbe, 0x0d, 0xb8, 0x51, 0xbe,
    0x0a, 0x0b, 0x0b, 0xbe, 0xe6, 0x64, 0x08, 0x3e, 0xd5, 0x4d,
    0xbf, 0x3d, 0x41, 0xf4, 0x3b, 0x3e, 0xe8, 0xe7, 0xfd, 0xbd,
    0xfc, 0xf6, 0x67, 0xbe, 0x88, 0x11, 0x46, 0xbe, 0xed, 0xbf,
    0x18, 0xbe, 0xf8, 0xde, 0x33, 0xbe, 0x48, 0xa5, 0xa4, 0x3d,
    0xc0, 0x64, 0x91, 0xbe, 0xb8, 0x3d, 0x88, 0x3b, 0x0b, 0x8b,
    0x27, 0x3d, 0xa7, 0x8a, 0x6b, 0xbe, 0xc0, 0xaf, 0x14, 0xbe,
    0xdd, 0x6d, 0x95, 0xbe, 0xf6, 0xe8, 0x30, 0x3d, 0x4a, 0x20,
    0x99, 0x3d, 0xbe, 0xc8, 0xf3, 0xbc, 0x7d, 0xf0, 0x54, 0xbc,
    0xde, 0x2f, 0xc3, 0xbd, 0xcb, 0x32, 0xa9, 0x3d, 0xeb, 0x99,
    0x97, 0xbe, 0x48, 0x7a, 0xde, 0xbd, 0x90, 0x3e, 0x16, 0xbe,
    0x48, 0x00, 0x64, 0xbe, 0x2d, 0xbb, 0x85, 0xba, 0xf2, 0x38,
    0xde, 0xbe, 0x68, 0xd8, 0x17, 0xba, 0xbf, 0x9b, 0x0f, 0xbe,
    0xd4, 0x66, 0x5e, 0xbe, 0x67, 0x26, 0x64, 0xbe, 0xa3, 0x56,
    0xbc, 0xbd, 0xeb, 0x5a, 0x8f, 0xbd, 0x51, 0x68, 0x9d, 0xbd,
    0xb9, 0x8c, 0xa8, 0xbe, 0x4c, 0xc5, 0x38, 0x3e, 0x88, 0x05,
    0xed, 0x3c, 0xf2, 0x65, 0xd4, 0xbb, 0x6e, 0x14, 0xb6, 0xbe,
    0x5a, 0x94, 0x8e, 0xbe, 0xa5, 0x93, 0x93, 0x3c, 0x2f, 0xae,
    0xfa, 0xbd, 0x9b, 0xad, 0x93, 0x3e, 0xd7, 0x30, 0x8a, 0x3e,
    0x30, 0xb1, 0x7d, 0x3d, 0x1a, 0xa2, 0x4f, 0xbe, 0x06, 0xd3,
    0x8c, 0xbd, 0x7d, 0x46, 0xae, 0xbd, 0x0d, 0xd9, 0x18, 0xbe,
    0x45, 0x1b, 0x09, 0xbe, 0x20, 0x2f, 0x8e, 0x3d, 0x01, 0x82,
    0xbb, 0xbc, 0xa0, 0x35, 0x5f, 0xbe, 0x90, 0xc9, 0xcd, 0xbc,
    0xe7, 0x43, 0xc0, 0x3c, 0x08, 0xaf, 0xbe, 0xbd, 0x12, 0x72,
    0xf4, 0xbd, 0x25, 0x56, 0x8a, 0xbd, 0xeb, 0x3a, 0xf9, 0xbb,
    0xb2, 0xd7, 0x98, 0xbd, 0x37, 0xb5, 0x11, 0x3e, 0x44, 0x9b,
    0xd9, 0xbe, 0xdb, 0x93, 0xa5, 0x3b, 0x3c, 0x5c, 0x53, 0x3d,
    0x3e, 0xe6, 0x18, 0xbf, 0xad, 0xf8, 0xa7, 0x3a, 0xbd, 0xe6,
    0x9d, 0x3d, 0x2f, 0xe2, 0xb2, 0xbd, 0xd2, 0xd1, 0xc6, 0x3d,
    0x9d, 0xec, 0xcf, 0xbe, 0x01, 0x04, 0x9b, 0xbd, 0xd4, 0xd6,
    0x8a, 0x3e, 0x20, 0x15, 0xf9, 0xbe, 0xbf, 0x3c, 0xda, 0x3d,
    0xf1, 0xba, 0x49, 0x3e, 0xa4, 0x09, 0x99, 0xbd, 0x45, 0xc2,
    0x32, 0x3e, 0x28, 0x4a, 0xca, 0xbd, 0x10, 0xc5, 0xfc, 0xbd,
    0xbb, 0xdd, 0x23, 0xbe, 0x9a, 0x1f, 0xbe, 0xbd, 0x96, 0xae,
    0xab, 0x3e, 0x25, 0x6f, 0x06, 0xbf, 0xa7, 0x24, 0xb8, 0xbe,
    0x71, 0xcb, 0x2d, 0xbe, 0xcd, 0xee, 0xfe, 0xbe, 0x7c, 0xc9,
    0x03, 0xbf, 0xbe, 0x16, 0x72, 0xbe, 0x86, 0xd0, 0x95, 0xbe,
    0x9e, 0xa2, 0xeb, 0xbe, 0x86, 0xa0, 0xc5, 0xbe, 0xdb, 0xdb,
    0xcd, 0xbe, 0x63, 0x4e, 0x79, 0x3d, 0xf3, 0x7f, 0xcc, 0xbe,
    0x75, 0x87, 0xd3, 0xbd, 0x58, 0xfd, 0x08, 0xbf, 0x77, 0x45,
    0xdd, 0xbe, 0xa2, 0x87, 0x2d, 0xbe, 0x25, 0x19, 0x32, 0x3e,
    0x9e, 0x8f, 0x07, 0xbe, 0x2e, 0x69, 0xe5, 0xbe, 0x26, 0x32,
    0x6d, 0x3d, 0x01, 0x66, 0x83, 0x3e, 0x3d, 0x8a, 0x3a, 0xbf,
    0xca, 0xb8, 0x4a, 0xbe, 0x7a, 0x71, 0xb0, 0xbe, 0x52, 0x36,
    0x5f, 0xbe, 0x51, 0x24, 0x0b, 0x3d, 0x90, 0x83, 0x4f, 0xbe,
    0x61, 0x51, 0x36, 0x3d, 0x90, 0xe7, 0xee, 0x3c, 0xfb, 0xcc,
    0x97, 0xbd, 0x6e, 0x67, 0xf6, 0x3d, 0x4a, 0xc2, 0xac, 0xbe,
    0x58, 0x94, 0xfa, 0xbc, 0xfd, 0x0a, 0xf9, 0x3d, 0xf1, 0x75,
    0x56, 0xbe, 0x23, 0xeb, 0x27, 0xbb, 0x87, 0xc0, 0xa8, 0xbd,
    0x4f, 0xc2, 0xa8, 0xbd, 0xaf, 0x94, 0x2d, 0x3d, 0x49, 0x77,
    0x00, 0xbf, 0xaf, 0x7c, 0x20, 0xbe, 0x23, 0x4c, 0x27, 0x3d,
    0x7a, 0xbd, 0xf6, 0x3c, 0x87, 0xa8, 0xe5, 0xbb, 0x5d, 0xfd,
    0x67, 0xbe, 0xb9, 0x38, 0xa4, 0xbe, 0x45, 0x50, 0x3f, 0xbe,
    0x9f, 0x8d, 0x56, 0xbe, 0x64, 0xa4, 0xa8, 0xbe, 0xf4, 0xef,
    0x28, 0xbe, 0xfa, 0x7e, 0x6c, 0xbe, 0xbb, 0x2a, 0x23, 0xbc,
    0x95, 0x56, 0xb9, 0xbe, 0x88, 0xf2, 0xcf, 0xbd, 0x95, 0xdd,
    0x64, 0xbd, 0x2e, 0x33, 0x8b, 0xbe, 0x4e, 0x03, 0x6e, 0xbe,
    0x4b, 0x70, 0x74, 0x3c, 0x8f, 0xff, 0xcd, 0x3d, 0xdc, 0x1c,
    0x7b, 0x3c, 0xe5, 0x68, 0x82, 0xbe, 0xea, 0x10, 0x4a, 0xbe,
    0xef, 0x7b, 0x0c, 0xbe, 0x44, 0x10, 0xf8, 0x3c, 0xb9, 0x52,
    0x18, 0xbe, 0x2c, 0xb8, 0x04, 0xbd, 0xdc, 0x41, 0xb6, 0xbd,
    0x51, 0x98, 0x68, 0xbe, 0xd6, 0x3f, 0xb9, 0x3d, 0x55, 0x3b,
    0x86, 0xbe, 0x54, 0xd8, 0x53, 0x3d, 0x75, 0xea, 0x1a, 0xbe,
    0x96, 0xbe, 0x82, 0x3e, 0xbd, 0xeb, 0x51, 0x3d, 0x4f, 0x11,
    0x00, 0xbf, 0xcc, 0x25, 0x78, 0xbe, 0xff, 0xce, 0xcf, 0xbb,
    0x5a, 0xe7, 0xcc, 0xbb, 0xe6, 0x92, 0xaf, 0xbd, 0x72, 0x15,
    0xd2, 0xbe, 0x47, 0xf1, 0x09, 0x3e, 0x96, 0xf9, 0xc1, 0x3d,
    0x7d, 0xff, 0x42, 0xbf, 0xac, 0xcb, 0x95, 0xbe, 0xbe, 0x0a,
    0xdb, 0x3d, 0x68, 0x1f, 0xb5, 0x3b, 0xc0, 0x65, 0x01, 0xbe,
    0x82, 0x08, 0xc1, 0xbe, 0xf0, 0xe9, 0x5b, 0x3d, 0x56, 0x7e,
    0x2f, 0xbe, 0x0a, 0x3c, 0x06, 0xbd, 0x61, 0x9b, 0x48, 0xbd,
    0xa8, 0xd3, 0xec, 0xbe, 0xfd, 0x19, 0x21, 0xbe, 0x0a, 0xb3,
    0x8a, 0xbd, 0x01, 0xb8, 0x1f, 0xbe, 0xef, 0x04, 0x30, 0xbe,
    0xd3, 0x34, 0xb1, 0xbe, 0xa4, 0x22, 0x48, 0x3e, 0x94, 0x2a,
    0x13, 0xbe, 0xc7, 0x13, 0x9d, 0xbe, 0x45, 0x8a, 0x2b, 0xbe,
    0xf0, 0x84, 0x6a, 0xbe, 0x65, 0xcb, 0x09, 0xbe, 0x95, 0xd7,
    0xe3, 0xbd, 0xde, 0xbd, 0x67, 0xbf, 0xfa, 0xdb, 0x6a, 0x3e,
    0x7f, 0x29, 0x45, 0xbc, 0xbd, 0xaa, 0xc9, 0xbc, 0xdd, 0xf6,
    0x4d, 0x3d, 0x39, 0xd0, 0x50, 0xbb, 0x3d, 0x17, 0x21, 0x3e,
    0xb7, 0x6e, 0x3a, 0xbe, 0x25, 0x10, 0x56, 0xbf, 0x96, 0x45,
    0x57, 0xbd, 0x19, 0x17, 0x4a, 0xbd, 0x81, 0x21, 0x4e, 0xbd,
    0xf9, 0x0e, 0x0b, 0xbb, 0x95, 0x14, 0xe2, 0x3c, 0x85, 0x4d,
    0x1d, 0x3c, 0x6c, 0x39, 0x90, 0xbe, 0x23, 0x68, 0x42, 0xbf,
    0x9f, 0x3a, 0x5b, 0x3e, 0xc2, 0xfc, 0xa1, 0x3d, 0xba, 0x83,
    0x1b, 0xbd, 0x00, 0xc0, 0x56, 0xbd, 0x8e, 0xad, 0x70, 0xbc,
    0xdb, 0x0c, 0xc0, 0x3d, 0x5b, 0x6c, 0xda, 0xbd, 0xff, 0x76,
    0xde, 0xbe, 0xe7, 0x61, 0x6f, 0xbd, 0x44, 0x84, 0xde, 0x3d,
    0x2c, 0x48, 0xd4, 0xbc, 0x70, 0x3c, 0x52, 0x3c, 0x97, 0x95,
    0x9a, 0x3d, 0xe6, 0x1b, 0x9a, 0xbd, 0x60, 0x4f, 0x8d, 0xbd,
    0x5d, 0x38, 0x54, 0xbc, 0xdb, 0x26, 0x11, 0xbd, 0x35, 0xab,
    0x2d, 0xbd, 0xa0, 0x2f, 0x69, 0x3d, 0x0f, 0xc9, 0xc3, 0xbc,
    0x34, 0x5a, 0xa1, 0xbc, 0x09, 0xa5, 0xc0, 0x3c, 0xd7, 0xbc,
    0x95, 0xbd, 0xda, 0xd9, 0xab, 0x3a, 0xd4, 0x63, 0xc7, 0xbd,
    0x40, 0x93, 0x99, 0x3e, 0xa8, 0x96, 0x65, 0x3d, 0x72, 0xc8,
    0x56, 0x3e, 0x26, 0x4d, 0x34, 0x3e, 0x9a, 0x31, 0xfb, 0xbd,
    0x78, 0x71, 0xab, 0xbd, 0x64, 0xdc, 0x43, 0xbd, 0xc1, 0x60,
    0x99, 0xbe, 0x19, 0x04, 0x65, 0x3d, 0x3a, 0x2a, 0x55, 0xbd,
    0x79, 0xbe, 0x6d, 0x3c, 0xcd, 0xc4, 0xa4, 0x3d, 0x2e, 0x52,
    0xec, 0xbd, 0xc7, 0x64, 0x0e, 0x3c, 0xff, 0xdd, 0x16, 0xbe,
    0x92, 0xd3, 0xee, 0xbe, 0xcb, 0x83, 0x20, 0xbb, 0x71, 0xea,
    0x14, 0xbe, 0x3a, 0x51, 0x1e, 0xbe, 0x03, 0x8f, 0x15, 0x3e,
    0x9f, 0x77, 0xbe, 0xbe, 0xb0, 0x63, 0xf2, 0xbd, 0xe1, 0x7d,
    0xbd, 0x3f, 0x89, 0x4d, 0xb0, 0xbf, 0x94, 0x17, 0x03, 0x3e,
    0xed, 0x37, 0x8c, 0xbd, 0x14, 0x14, 0xa9, 0x3e, 0xf8, 0xd6,
    0x15, 0x3e, 0x01, 0xb6, 0x91, 0xbd, 0x13, 0xe3, 0x38, 0xbe,
    0x02, 0x06, 0x4b, 0xbb, 0xd4, 0x2b, 0x4d, 0xbe, 0x4d, 0xbf,
    0xd8, 0xbe, 0x00, 0xa0, 0xca, 0xbd, 0xe0, 0xf0, 0x33, 0x3f,
    0x26, 0x01, 0x05, 0xbd, 0x22, 0xab, 0x26, 0x3e, 0xd4, 0x27,
    0x18, 0x3e, 0x22, 0x5c, 0x6f, 0x3d, 0xcc, 0x75, 0x75, 0x3b,
    0xf4, 0xa3, 0x10, 0x3e, 0x16, 0x48, 0x4e, 0x3d, 0x0e, 0xc3,
    0x8b, 0xbd, 0x73, 0x23, 0x78, 0xbd, 0x98, 0xc6, 0x3e, 0xbd,
    0x93, 0x74, 0x8e, 0xbc, 0x41, 0x2b, 0x89, 0x3a, 0xd1, 0x52,
    0x7f, 0xbe, 0x00, 0x02, 0x0c, 0x3e, 0x7b, 0x27, 0xbb, 0x3c,
    0x53, 0xa0, 0xcf, 0x3c, 0xf2, 0x0c, 0xeb, 0xbe, 0x37, 0x20,
    0xf5, 0x3b, 0xab, 0xcf, 0x56, 0x3e, 0xf4, 0x4a, 0xb5, 0x3d,
    0x94, 0xac, 0x52, 0xbc, 0xb4, 0x2d, 0xb1, 0x3d, 0xd7, 0x36,
    0x06, 0x3d, 0xa9, 0x00, 0x86, 0xbd, 0x33, 0x81, 0xef, 0x3d,
    0x0f, 0x6e, 0x95, 0xbe, 0x26, 0x61, 0xa2, 0x3c, 0x1c, 0x5c,
    0xdd, 0xbd, 0x15, 0xf3, 0x2c, 0xbe, 0x55, 0xff, 0x1d, 0xbd,
    0xec, 0xf6, 0xc4, 0xbd, 0xa1, 0x48, 0x8a, 0x3d, 0x00, 0xf9,
    0xce, 0xbe, 0x35, 0xb3, 0x52, 0x3a, 0xcc, 0xd5, 0x83, 0xbc,
    0xe4, 0xe0, 0x69, 0x3d, 0xd7, 0x80, 0x94, 0xbc, 0x70, 0xb8,
    0xb0, 0xbd, 0x14, 0x78, 0xc7, 0xbc, 0xdd, 0xe2, 0x88, 0xbd,
    0xb4, 0x51, 0xb4, 0x3c, 0xc2, 0x46, 0x06, 0xbd, 0xcf, 0x4b,
    0xb5, 0xbd, 0xdc, 0xca, 0x56, 0x3d, 0xe6, 0x38, 0x6a, 0xbe,
    0x63, 0x90, 0x3c, 0xbd, 0x57, 0x76, 0x3b, 0xbc, 0xd2, 0x61,
    0xfe, 0x3d, 0xd8, 0xa8, 0x80, 0xbd, 0xc8, 0x25, 0x12, 0x3c,
    0x12, 0x4f, 0xf5, 0xbc, 0x23, 0x28, 0x04, 0x3e, 0xf4, 0x8f,
    0x26, 0xbd, 0xf8, 0x2b, 0xe8, 0xbd, 0x58, 0x28, 0x81, 0x3d,
    0x5f, 0xb3, 0xbb, 0x3b, 0x30, 0xf8, 0x04, 0x3d, 0x93, 0x09,
    0x18, 0x3e, 0xc5, 0x1a, 0xb5, 0xbc, 0xe1, 0x0a, 0xc0, 0xbd,
    0xd3, 0xcc, 0x53, 0xbe, 0x1b, 0x77, 0x54, 0x3d, 0xee, 0xe6,
    0x2d, 0x3d, 0x76, 0xd3, 0x0f, 0x3d, 0xc3, 0x2d, 0xe2, 0x3d,
    0x15, 0x23, 0xad, 0x3c, 0xdb, 0x31, 0x12, 0x3e, 0x4d, 0xdd,
    0xed, 0x3d, 0x00, 0xb4, 0x3b, 0xbd, 0xae, 0x73, 0x46, 0xbe,
    0x19, 0xeb, 0x55, 0xbd, 0x1b, 0x95, 0x81, 0x3c, 0x52, 0x39,
    0xa9, 0xbc, 0x13, 0xdf, 0x32, 0x3e, 0xe2, 0xa3, 0x3a, 0xbe,
    0xc4, 0x18, 0x10, 0xbd, 0x6a, 0xc0, 0x06, 0xbe, 0xf3, 0xc0,
    0x27, 0x3b, 0x1c, 0x3c, 0x21, 0xbe, 0xb7, 0x22, 0x59, 0xbc,
    0x44, 0x6d, 0x87, 0x3d, 0x59, 0xf1, 0x54, 0x3c, 0x62, 0x51,
    0x0c, 0x3e, 0xac, 0x69, 0xab, 0x3d, 0xdb, 0x76, 0x67, 0xbd,
    0xb3, 0xf8, 0x42, 0x3d, 0x8b, 0x56, 0x4a, 0xbc, 0xb1, 0x88,
    0x4e, 0xbd, 0xd1, 0xba, 0xc8, 0x3d, 0xac, 0xe8, 0xdf, 0x3d,
    0x46, 0xdc, 0x01, 0x3d, 0x12, 0xd2, 0xc9, 0xbb, 0x71, 0x42,
    0x51, 0x3c, 0x18, 0xdb, 0x8a, 0xbd, 0xf7, 0x59, 0x25, 0x3e,
    0x92, 0x91, 0xef, 0x3c, 0x28, 0xcd, 0xeb, 0x3d, 0xd9, 0xe4,
    0x94, 0x3c, 0xbb, 0x91, 0xc3, 0x3d, 0x96, 0x33, 0xb2, 0x3d,
    0x6f, 0x17, 0x98, 0xbc, 0x2d, 0x25, 0x1e, 0xbe, 0xe4, 0x90,
    0x80, 0x3d, 0x9f, 0x06, 0xab, 0x3b, 0x32, 0x82, 0xf2, 0xbb,
    0xb5, 0x93, 0x08, 0x3e, 0x78, 0xc3, 0xa9, 0xbd, 0xd8, 0xa6,
    0x9e, 0x3d, 0x53, 0xe1, 0x09, 0xbc, 0x3d, 0x4a, 0xee, 0x3c,
    0x5b, 0x76, 0x7a, 0x3e, 0x9a, 0x88, 0x11, 0xbe, 0xbc, 0x89,
    0x1b, 0x3e, 0x63, 0x45, 0x10, 0x3c, 0x35, 0xe2, 0xca, 0x3d,
    0x8e, 0x30, 0x0d, 0x3e, 0x30, 0x02, 0x9e, 0xbd, 0x98, 0x43,
    0xbd, 0xbd, 0xd0, 0x0c, 0x95, 0xbd, 0x2d, 0x9b, 0x7b, 0xbd,
    0xb1, 0x33, 0xc3, 0x3d, 0xc0, 0x3f, 0x90, 0x3d, 0x19, 0xe7,
    0xa0, 0xbc, 0xfb, 0xa5, 0xfd, 0x3c, 0x95, 0x2d, 0xc6, 0x3c,
    0xcf, 0xa4, 0x17, 0x3e, 0x23, 0x80, 0x7c, 0x3e, 0x83, 0x81,
    0x96, 0xbc, 0x50, 0xd7, 0x6d, 0x3e, 0xd8, 0xcb, 0x77, 0x3c,
    0x33, 0xe7, 0x05, 0x3e, 0x40, 0x62, 0xce, 0x3d, 0x80, 0x0d,
    0x62, 0xbd, 0xab, 0xc0, 0xf2, 0xbc, 0x75, 0x45, 0x3a, 0xbd,
    0x4c, 0xfd, 0x10, 0x3c, 0x37, 0xa7, 0x8d, 0x3d, 0xe5, 0xcf,
    0x7b, 0x3d, 0x7a, 0x41, 0xa0, 0xbb, 0x80, 0x5c, 0x93, 0x3c,
    0x41, 0x02, 0x9c, 0xbd, 0xcc, 0x62, 0x91, 0xbd, 0xcc, 0x65,
    0x03, 0x3e, 0xaa, 0x44, 0xcb, 0x3d, 0x34, 0xa5, 0x34, 0x3e,
    0xd3, 0xc9, 0x9e, 0x3a, 0xad, 0xb8, 0x15, 0xbb, 0xf2, 0x5a,
    0xc9, 0x3c, 0xba, 0x14, 0x41, 0xbd, 0x28, 0xca, 0x1d, 0x3d,
    0x95, 0x53, 0x5d, 0x3d, 0x07, 0x17, 0xd2, 0xbc, 0xc6, 0x4e,
    0x33, 0x3d, 0x57, 0xf7, 0x97, 0x3c, 0xfb, 0xdd, 0xf5, 0xbd,
    0xea, 0xc8, 0xac, 0xbd, 0x42, 0x41, 0x8b, 0xbc, 0xbe, 0xfa,
    0xb7, 0x3c, 0x12, 0x9d, 0x65, 0x3d, 0x2f, 0xbd, 0x65, 0xbd,
    0x0a, 0x93, 0x31, 0x3e, 0xf3, 0x4f, 0x06, 0x3d, 0xf1, 0x2e,
    0xd2, 0x3d, 0xec, 0x95, 0x2e, 0x3d, 0x3f, 0xdf, 0xd0, 0xbc,
    0x52, 0x55, 0x90, 0xbd, 0x28, 0xbd, 0xbd, 0x3d, 0xb3, 0xfa,
    0x85, 0xbd, 0xd2, 0x24, 0x47, 0xbd, 0x97, 0x16, 0x4a, 0xbe,
    0xe0, 0x79, 0xbc, 0x3d, 0x97, 0x35, 0xed, 0xbc, 0xe9, 0xcc,
    0x66, 0xbc, 0xc8, 0xce, 0x5e, 0x3c, 0xaa, 0x7f, 0x38, 0xbd,
    0x42, 0xf1, 0x52, 0xbd, 0xeb, 0xba, 0xf4, 0x3d, 0xf7, 0xb1,
    0x88, 0x3c, 0x8e, 0xa9, 0xe0, 0x3d, 0x6f, 0xb0, 0x47, 0x3c,
    0x9f, 0x08, 0xa1, 0xbc, 0x17, 0x85, 0xcb, 0xbc, 0x8b, 0x1b,
    0x60, 0xbd, 0xf9, 0xdc, 0x2a, 0x3c, 0x56, 0x14, 0x32, 0xbc,
    0x82, 0x0b, 0x8e, 0xbe, 0x54, 0x87, 0x04, 0xbd, 0x9a, 0x95,
    0xeb, 0xbd, 0xd2, 0x39, 0x04, 0xbe, 0x75, 0xb3, 0x80, 0xbc,
    0xcb, 0x1b, 0x15, 0xbe, 0xea, 0x2a, 0x54, 0xbe, 0x38, 0xa2,
    0xf1, 0xbd, 0x78, 0x8d, 0x1e, 0x3c, 0xf8, 0xe3, 0x33, 0x3d,
    0x53, 0x72, 0x38, 0xbd, 0xa8, 0xc3, 0x54, 0xbb, 0x71, 0x71,
    0xb1, 0xbd, 0xd3, 0x00, 0xcd, 0xbc, 0x58, 0xe7, 0xc8, 0xbd,
    0xa2, 0x13, 0x6c, 0xbd, 0x57, 0x68, 0xb3, 0xbe, 0x6f, 0x1f,
    0xeb, 0xbb, 0x68, 0x82, 0x06, 0x3b, 0xc7, 0x40, 0x10, 0xbe,
    0x36, 0x4c, 0x14, 0xbd, 0xed, 0x39, 0x16, 0xbe, 0x2e, 0x82,
    0xf2, 0x3d, 0xa0, 0xb9, 0xb2, 0xbe, 0xc7, 0x8a, 0x36, 0x3c,
    0x9c, 0x74, 0x84, 0xbd, 0xf7, 0x1d, 0x03, 0x3e, 0x21, 0x45,
    0x1b, 0xbb, 0x32, 0xbb, 0x24, 0xbe, 0xd0, 0x9d, 0x48, 0x3c,
    0x16, 0x1c, 0x96, 0x3c, 0xa4, 0x3b, 0x7d, 0xb6, 0xed, 0x91,
    0xf0, 0xbe, 0x66, 0xc7, 0xbf, 0xbd, 0xc1, 0x82, 0x2c, 0xbd,
    0x0c, 0x12, 0x29, 0xbf, 0x3a, 0xf2, 0x36, 0xbd, 0xd7, 0x8d,
    0xc7, 0x3c, 0x98, 0xcb, 0x25, 0x3d, 0x14, 0xa5, 0xcc, 0xbe,
    0xcf, 0xb3, 0x9f, 0x3c, 0x57, 0x4e, 0x8d, 0xbd, 0x4e, 0x92,
    0x90, 0x3c, 0xad, 0xe3, 0xe5, 0x3c, 0x7c, 0xbb, 0x24, 0xbe,
    0x79, 0x65, 0xd4, 0xba, 0x06, 0xf7, 0xe5, 0x3b, 0x30, 0x5d,
    0xbf, 0x3d, 0x76, 0x94, 0x2b, 0xbd, 0xfa, 0x83, 0xe1, 0xbd,
    0x09, 0x9d, 0x13, 0x3e, 0x5f, 0x0d, 0x72, 0xbd, 0x75, 0x80,
    0xa9, 0x3d, 0x92, 0xdd, 0x9d, 0xbd, 0xbb, 0x34, 0x9b, 0x3d,
    0xd7, 0xd5, 0xe4, 0xbd, 0xf6, 0x2e, 0x73, 0xbd, 0x02, 0x40,
    0x4d, 0xbd, 0x3f, 0xb8, 0x5a, 0x3d, 0x9e, 0xa1, 0x6d, 0xbd,
    0x94, 0xb3, 0x57, 0x3d, 0xec, 0xc6, 0x2f, 0xbe, 0x9a, 0xbe,
    0x31, 0xbe, 0x18, 0x06, 0xa5, 0x3d, 0xbb, 0x6b, 0x46, 0xbe,
    0x6b, 0x9f, 0x0c, 0x3e, 0xcd, 0x71, 0x85, 0xbd, 0x20, 0xd0,
    0xe4, 0xbd, 0x0f, 0xea, 0x1c, 0xbe, 0x7e, 0x24, 0xfd, 0x3d,
    0x78, 0xf0, 0x16, 0xbe, 0x0f, 0x74, 0x5d, 0xbe, 0x48, 0xbf,
    0x0f, 0x3b, 0x28, 0x5c, 0xf4, 0xbd, 0x68, 0x8b, 0xdf, 0xbb,
    0xa5, 0xa2, 0x92, 0xbb, 0xc0, 0x58, 0xac, 0xbd, 0xca, 0xd1,
    0xa7, 0xbd, 0x4b, 0xf8, 0x49, 0xbe, 0x1e, 0x52, 0x96, 0x3d,
    0x7f, 0x35, 0x01, 0xbe, 0x7b, 0xed, 0xd0, 0x3d, 0xfc, 0x87,
    0x26, 0xbe, 0x6c, 0x0b, 0x81, 0xbd, 0x46, 0x1d, 0x08, 0x3e,
    0x3a, 0x41, 0xfc, 0x3d, 0x3f, 0x95, 0x24, 0xbe, 0xf0, 0xba,
    0x4e, 0xbe, 0x66, 0x7e, 0x67, 0x3c, 0x88, 0x89, 0xcd, 0xbd,
    0x2c, 0x99, 0x38, 0xbe, 0xe2, 0x58, 0xa2, 0xbd, 0x42, 0x75,
    0xf7, 0xbd, 0xd6, 0x8e, 0xb1, 0xbc, 0x37, 0xc0, 0x7d, 0xbd,
    0xe8, 0xfe, 0xb8, 0x3c, 0x5d, 0x3d, 0x1d, 0xbe, 0x73, 0x8c,
    0xa2, 0xbd, 0x99, 0x8c, 0x20, 0xbe, 0x53, 0xfe, 0xb0, 0xbd,
    0x25, 0x6a, 0x04, 0xbd, 0xc0, 0xf0, 0x9c, 0x3b, 0x79, 0x41,
    0x00, 0xbe, 0x77, 0x80, 0x89, 0xbc, 0xce, 0x0e, 0x02, 0xbe,
    0xc0, 0x63, 0xcd, 0xbc, 0x85, 0xcf, 0x3b, 0xbe, 0x8d, 0xf5,
    0x4e, 0x3c, 0xd1, 0xf2, 0x0d, 0x3e, 0xbb, 0x82, 0x2d, 0xbd,
    0x4a, 0x51, 0xdd, 0xbd, 0x06, 0xf1, 0xb4, 0xbd, 0x51, 0xa7,
    0xe1, 0xbd, 0xe5, 0xd8, 0x40, 0x3c, 0x02, 0xbf, 0x12, 0xbb,
    0xcf, 0xd1, 0x25, 0xbe, 0x4c, 0x3c, 0x4f, 0xbd, 0xf0, 0x52,
    0xff, 0x3c, 0x8b, 0x40, 0x98, 0x3d, 0x76, 0xf6, 0xdb, 0xbd,
    0x53, 0x4e, 0x85, 0xbd, 0xdc, 0xde, 0x04, 0xbe, 0xdd, 0xe1,
    0x9b, 0xbe, 0x3f, 0xfe, 0xd4, 0xbd, 0x8e, 0x8a, 0x3a, 0xbe,
    0x6e, 0xb8, 0x83, 0x3b, 0xca, 0x01, 0xee, 0xbb, 0x6f, 0xff,
    0x17, 0xbb, 0x2a, 0xf3, 0xcb, 0x3d, 0x5a, 0xc0, 0x10, 0x3e,
    0x7d, 0x85, 0xae, 0x3c, 0x00, 0x90, 0x28, 0xbd, 0x48, 0x61,
    0x99, 0x3d, 0xf9, 0x0d, 0x17, 0xbe, 0xf5, 0xb4, 0x8f, 0xbd,
    0xde, 0xee, 0x65, 0x3c, 0x83, 0x70, 0xf0, 0xbd, 0x64, 0x06,
    0x52, 0xbd, 0x98, 0x97, 0x21, 0xbe, 0xca, 0x50, 0x5c, 0x3c,
    0x42, 0xa9, 0xb1, 0x3d, 0x78, 0x99, 0x38, 0xbe, 0x93, 0x7e,
    0x4b, 0xbd, 0xe3, 0xb9, 0x4d, 0xbe, 0xfc, 0x0a, 0x0b, 0x3d,
    0x4a, 0x29, 0x13, 0x3e, 0xe1, 0x5e, 0x03, 0xbd, 0x76, 0x3f,
    0x98, 0xbd, 0x27, 0x2c, 0x17, 0x3d, 0xbe, 0x5d, 0xef, 0x3d,
    0x8a, 0x90, 0x0f, 0x3e, 0x68, 0x11, 0x5e, 0x3e, 0x89, 0x81,
    0xa1, 0x3b, 0x2c, 0xfb, 0xb2, 0x3d, 0xd9, 0xf9, 0x71, 0xbe,
    0xcf, 0xe6, 0x3e, 0xbe, 0x30, 0xbf, 0x7f, 0x3c, 0xf4, 0xc1,
    0x08, 0xbd, 0x1e, 0xdc, 0xca, 0xbd, 0xa9, 0xf4, 0x58, 0xbe,
    0xb2, 0xff, 0x15, 0xbd, 0x9a, 0x19, 0xf0, 0xbd, 0x7c, 0xc6,
    0x08, 0x3e, 0x0b, 0x6f, 0xf2, 0xbb, 0xd6, 0x18, 0x37, 0xbd,
    0xa5, 0x3f, 0xec, 0xbd, 0x66, 0x24, 0x93, 0x3d, 0x4a, 0x48,
    0xee, 0x3d, 0x4b, 0x1f, 0xb6, 0xbd, 0x46, 0xb7, 0xcc, 0x3d,
    0x2d, 0xaa, 0x7d, 0xbe, 0xfe, 0x49, 0xd0, 0xbd, 0xee, 0x80,
    0x0f, 0xbe, 0x17, 0xb4, 0xf5, 0xbd, 0x42, 0xd0, 0x81, 0xbb,
    0x0e, 0xa3, 0x45, 0xbe, 0xc0, 0x4b, 0x56, 0xbc, 0x66, 0x4a,
    0x2b, 0xbd, 0xa9, 0x23, 0x05, 0xbd, 0xb1, 0x17, 0xe3, 0xbb,
    0xf9, 0xfa, 0x10, 0x3e, 0x5d, 0x85, 0xf1, 0xbd, 0x61, 0x49,
    0xb5, 0x3d, 0x38, 0x61, 0xdb, 0x3d, 0x2e, 0x9d, 0x8b, 0xbd,
    0x22, 0x51, 0x91, 0xbd, 0x70, 0x54, 0x0a, 0xbd, 0xe2, 0xf5,
    0xb3, 0xbd, 0x72, 0xbf, 0x83, 0x3d, 0x26, 0xe4, 0x19, 0xbe,
    0x87, 0xc1, 0x12, 0xbd, 0xfb, 0xb8, 0x87, 0xbc, 0x1a, 0xa6,
    0xae, 0xbd, 0x98, 0x3b, 0xcd, 0x3c, 0xf4, 0x54, 0x8c, 0xbd,
    0x49, 0x99, 0xf5, 0x39, 0x81, 0x0f, 0x09, 0x3d, 0x66, 0xcd,
    0x21, 0xbe, 0xdf, 0xa0, 0x1d, 0xbe, 0xd2, 0xb0, 0x2c, 0x3e,
    0xd2, 0x81, 0xab, 0xbd, 0x20, 0xb8, 0x11, 0x3c, 0x4a, 0x1f,
    0xd5, 0x3c, 0xe1, 0xc7, 0x9e, 0xbd, 0x70, 0x56, 0x03, 0x3c,
    0x1d, 0xec, 0xa4, 0xba, 0x17, 0xac, 0x37, 0xbe, 0x94, 0xd6,
    0x12, 0xbc, 0xed, 0x13, 0xf5, 0xbd, 0xfc, 0xd2, 0xc8, 0xbd,
    0x11, 0x8a, 0x1e, 0x3d, 0x9c, 0x94, 0xf2, 0x3d, 0xaa, 0x17,
    0x63, 0x3d, 0x50, 0xdd, 0x8f, 0x3c, 0xeb, 0x94, 0xf0, 0xbd,
    0x06, 0xb3, 0x87, 0xbc, 0xd7, 0xbd, 0x84, 0x3c, 0xe6, 0x47,
    0xbd, 0xbd, 0x20, 0x1b, 0x5e, 0xbe, 0x07, 0x48, 0x8c, 0xbc,
    0x0b, 0x51, 0xf0, 0xbd, 0x43, 0x16, 0xa9, 0xbd, 0x4f, 0xbb,
    0x2f, 0xbe, 0xec, 0x0d, 0x8a, 0xbd, 0x43, 0x7f, 0x0c, 0xbe,
    0xde, 0x63, 0xc5, 0x3d, 0x23, 0x82, 0xb7, 0x3d, 0x6c, 0xfb,
    0x34, 0xbe, 0x26, 0x5d, 0xec, 0x3d, 0x4c, 0xfe, 0x19, 0x3d,
    0x86, 0x67, 0xb1, 0x3d, 0xda, 0x8f, 0x2a, 0xbd, 0x25, 0x20,
    0xed, 0x3c, 0x60, 0x0c, 0x8e, 0x3c, 0xa1, 0x2e, 0xff, 0x3d,
    0x80, 0xd4, 0x1b, 0x3b, 0xfe, 0xcd, 0xda, 0x3d, 0x39, 0x93,
    0x14, 0xbd, 0xca, 0xbc, 0x46, 0xbe, 0xb8, 0x16, 0x1f, 0xbe,
    0x3a, 0xd8, 0x27, 0x3c, 0x63, 0x2b, 0xf1, 0x3d, 0xd4, 0x08,
    0x93, 0xbd, 0xbb, 0xbc, 0xee, 0xbd, 0x71, 0xa3, 0x92, 0xbb,
    0x81, 0xe7, 0x26, 0xbe, 0xce, 0xfa, 0x04, 0x3d, 0x79, 0x3c,
    0x8e, 0xbd, 0xe8, 0x0f, 0x4f, 0xbc, 0x63, 0xa4, 0xda, 0xbd,
    0x54, 0x2c, 0x5e, 0x3d, 0x1a, 0x8a, 0xa3, 0xb8, 0x32, 0xa9,
    0x8b, 0xbc, 0x4f, 0x97, 0xfd, 0xba, 0xc4, 0x94, 0x56, 0xbe,
    0xbe, 0x77, 0xdc, 0xbd, 0x3e, 0x2b, 0x84, 0xbe, 0x97, 0xe6,
    0x0f, 0xbc, 0x7b, 0x02, 0xe9, 0xbb, 0xf6, 0x4b, 0x44, 0xbe,
    0x70, 0x7f, 0x30, 0xbe, 0x57, 0x73, 0x10, 0x3e, 0xf9, 0x98,
    0xb3, 0x3d, 0x0a, 0x20, 0xd9, 0xbd, 0x29, 0x89, 0xb5, 0xbd,
    0x74, 0x25, 0x20, 0xbe, 0xbe, 0x3e, 0x4d, 0x3d, 0xd0, 0x4b,
    0x25, 0xbe, 0x92, 0xb9, 0xeb, 0x3d, 0x83, 0x89, 0xd4, 0x3b,
    0xd3, 0x55, 0x47, 0x3d, 0xa0, 0x75, 0x85, 0xbd, 0x67, 0x3e,
    0xd9, 0xbc, 0xfe, 0x8d, 0xe1, 0x3d, 0x50, 0xf6, 0x14, 0xbe,
    0xa6, 0xf2, 0x9b, 0x3d, 0xb4, 0x7f, 0xb9, 0xba, 0x54, 0xc1,
    0x79, 0xbd, 0xd8, 0xcc, 0x8d, 0x3c, 0xeb, 0xf0, 0xa6, 0x3d,
    0xa3, 0x6f, 0x41, 0xbe, 0x5e, 0xb6, 0x66, 0x3c, 0xaa, 0x35,
    0x7e, 0xbd, 0x0c, 0x03, 0x86, 0xbe, 0x30, 0x60, 0x7a, 0x3c,
    0xd6, 0xc1, 0x29, 0xbe, 0xc2, 0xe3, 0xe1, 0x3d, 0xd7, 0xd8,
    0x25, 0x3d, 0xd1, 0x21, 0xf6, 0x3d, 0x98, 0x64, 0x3e, 0xbd,
    0x30, 0x12, 0xe4, 0x3d, 0xd8, 0x55, 0x84, 0x3d, 0x0d, 0xbd,
    0xa4, 0x3c, 0xec, 0x3a, 0xeb, 0x3d, 0x25, 0xdf, 0xd8, 0x3d,
    0x58, 0x9f, 0xc6, 0xbd, 0xa2, 0x64, 0xeb, 0xbd, 0xb3, 0x1d,
    0xfc, 0xbd, 0x63, 0x55, 0x3c, 0xbd, 0x87, 0x28, 0xf6, 0xbd,
    0xe8, 0x0e, 0xb8, 0xbd, 0x60, 0xf9, 0xb1, 0x3d, 0x1b, 0xae,
    0x85, 0x3d, 0x0f, 0x8d, 0xb1, 0x3d, 0x27, 0x64, 0x60, 0xbe,
    0x0e, 0x38, 0x49, 0x3d, 0xd5, 0xca, 0xbe, 0x3d, 0x31, 0x34,
    0x11, 0xbe, 0xf6, 0x06, 0x1e, 0xbe, 0x3f, 0x60, 0x0e, 0x3c,
    0x8d, 0x28, 0x20, 0xbe, 0x3b, 0x65, 0x06, 0x3d, 0x32, 0xa0,
    0x4a, 0xbd, 0x5c, 0xf9, 0xc8, 0xbd, 0xed, 0x1a, 0x11, 0xbe,
    0x00, 0xce, 0xe4, 0x3c, 0x78, 0x33, 0xa2, 0xbc, 0x11, 0x4e,
    0xf8, 0xbd, 0xff, 0x97, 0x6b, 0x3d, 0x5b, 0xd3, 0x0c, 0x3d,
    0x0b, 0x08, 0x69, 0xbd, 0x7a, 0xa5, 0x17, 0xbe, 0x8d, 0x1b,
    0xdc, 0x3d, 0xdf, 0x38, 0x86, 0xbd, 0x6a, 0xc6, 0x1b, 0x3d,
    0x98, 0xb3, 0x03, 0xbe, 0x27, 0x0a, 0x5a, 0xbd, 0xaf, 0xfc,
    0x75, 0xbd, 0xe6, 0x1a, 0xa5, 0xbc, 0xae, 0x9a, 0xaf, 0xbc,
    0x3f, 0x07, 0x0f, 0xbe, 0x27, 0xcb, 0x3d, 0xbe, 0x2f, 0x9b,
    0x1d, 0xbe, 0xd3, 0xab, 0x57, 0x3d, 0x21, 0x7f, 0x2f, 0x3d,
    0x37, 0xe9, 0xe6, 0x3d, 0x26, 0x29, 0xe8, 0xbc, 0x97, 0x45,
    0x21, 0xbe, 0x11, 0x2c, 0x85, 0xbc, 0xe7, 0x3e, 0x38, 0x3d,
    0xd0, 0x9d, 0x25, 0x3d, 0x9e, 0x96, 0x1d, 0xbe, 0xfc, 0xa3,
    0x98, 0xbd, 0xc8, 0x7c, 0x82, 0xbb, 0x3b, 0x79, 0xd1, 0x3c,
    0x71, 0x3e, 0x0c, 0xbe, 0x79, 0x12, 0x47, 0xbe, 0x92, 0x82,
    0xf2, 0xbd, 0xb0, 0x11, 0x87, 0xbd, 0xdc, 0x28, 0x95, 0x3d,
    0xf7, 0x90, 0xab, 0x3d, 0xb9, 0x2b, 0x8b, 0x3d, 0x8f, 0x50,
    0xf6, 0xbd, 0xcf, 0x3d, 0x16, 0x3d, 0x59, 0x1e, 0x95, 0x3c,
    0x81, 0x46, 0x01, 0xbe, 0x59, 0x76, 0xd9, 0x3d, 0x8f, 0x8c,
    0x9a, 0xbd, 0x37, 0xa2, 0x80, 0x3d, 0xe2, 0xf5, 0xb0, 0xbd,
    0xa8, 0x32, 0x0e, 0x3d, 0x0c, 0x33, 0xe0, 0xbd, 0x4d, 0xd4,
    0xf2, 0xbc, 0x2c, 0x0b, 0x80, 0x3c, 0x17, 0xeb, 0x90, 0xbd,
    0xd5, 0xad, 0x17, 0x3d, 0xc9, 0xc4, 0x3f, 0x3e, 0xfe, 0x2a,
    0x4b, 0xbd, 0x11, 0x4f, 0x2e, 0x3c, 0x89, 0x98, 0xb4, 0x3d,
    0x9c, 0xeb, 0xb2, 0x3d, 0xe1, 0x37, 0xe7, 0x3d, 0xbb, 0x9a,
    0xb5, 0xbc, 0x8e, 0x36, 0xde, 0xbd, 0x4f, 0xbb, 0x5a, 0x3c,
    0x86, 0x98, 0x09, 0xbe, 0xb6, 0x68, 0x92, 0x3d, 0x1a, 0xbf,
    0xce, 0xbc, 0x7e, 0x2e, 0x8a, 0xbd, 0x5b, 0xe5, 0x6f, 0x3c,
    0x90, 0xa1, 0x9c, 0xbd, 0x40, 0x97, 0x56, 0x3d, 0xf6, 0x47,
    0x23, 0x3e, 0x60, 0x90, 0xfe, 0x3d, 0xe8, 0x3a, 0x03, 0xbe,
    0xe3, 0xc9, 0xa3, 0x3d, 0xeb, 0x95, 0x67, 0x3d, 0xda, 0xbf,
    0x0e, 0x3e, 0xf8, 0xf1, 0xc0, 0xbd, 0xc2, 0x39, 0xa5, 0x3d,
    0x05, 0x30, 0x21, 0xbd, 0xa4, 0xe1, 0x3b, 0xbd, 0x5b, 0x53,
    0xaf, 0xbe, 0x63, 0x7a, 0x3c, 0xbe, 0x23, 0x15, 0xf4, 0x3c,
    0xa8, 0x6e, 0x33, 0xbb, 0x0e, 0x16, 0x0f, 0xbe, 0x1f, 0xe4,
    0xff, 0x3d, 0x32, 0x5f, 0xcf, 0xbd, 0xd3, 0xde, 0x66, 0xbe,
    0x99, 0x0e, 0xd8, 0x3d, 0x0b, 0xcc, 0x6a, 0xbd, 0x3d, 0x6b,
    0xda, 0xbd, 0x2a, 0xb8, 0xe0, 0x3c, 0x55, 0x16, 0x14, 0xbe,
    0x9f, 0x20, 0x24, 0x3d, 0xb3, 0x12, 0x07, 0xbe, 0x0f, 0xdd,
    0xc4, 0xbd, 0x8e, 0x29, 0x06, 0xbd, 0x77, 0x03, 0x91, 0xbd,
    0xaf, 0x56, 0x02, 0xbe, 0x53, 0x2f, 0x01, 0xbe, 0x90, 0x24,
    0xb7, 0xbd, 0xa5, 0xa1, 0x4a, 0x3d, 0x41, 0xe5, 0xac, 0x3b,
    0x39, 0x00, 0x20, 0xbe, 0xc6, 0x5e, 0x2e, 0x3b, 0x23, 0xc9,
    0x01, 0x3e, 0xea, 0xfd, 0xf9, 0x3d, 0x0d, 0xd6, 0xae, 0x3d,
    0x36, 0x8a, 0xac, 0x3d, 0x82, 0x85, 0xa4, 0x3d, 0xc9, 0xe3,
    0x9c, 0xbd, 0xef, 0x40, 0xa6, 0xbd, 0x26, 0xd0, 0xc5, 0xbd,
    0x48, 0xb9, 0x83, 0xbc, 0xba, 0xc5, 0x5a, 0xbe, 0x40, 0x70,
    0x4e, 0xbe, 0x0a, 0xff, 0xc4, 0x3d, 0x6c, 0x7e, 0x5e, 0xbc,
    0x15, 0x80, 0x15, 0x3e, 0x5f, 0xed, 0x05, 0x3e, 0x78, 0x40,
    0x9b, 0x3d, 0x9d, 0xd0, 0x63, 0xbc, 0x3c, 0xf5, 0xc1, 0x3d,
    0xbb, 0xa1, 0xa0, 0xbc, 0x72, 0x4a, 0xe4, 0x3d, 0x9b, 0x4c,
    0x0b, 0x3d, 0x3a, 0x8b, 0x8b, 0xbd, 0xa9, 0xe0, 0xc9, 0x3c,
    0x2c, 0x7b, 0x1e, 0x3d, 0x0d, 0x82, 0xaf, 0x3d, 0xa6, 0xf5,
    0xc9, 0xbb, 0xce, 0xe2, 0xd2, 0x3c, 0xed, 0x7e, 0x17, 0xbe,
    0x88, 0x77, 0x39, 0xbe, 0x24, 0x43, 0xd1, 0xbd, 0x66, 0x44,
    0x98, 0xbd, 0x7f, 0x01, 0x1e, 0x3c, 0x11, 0xac, 0x86, 0xbd,
    0xb5, 0xe8, 0x09, 0x3e, 0x36, 0xc0, 0xc0, 0xbd, 0xad, 0x26,
    0x07, 0xbe, 0x8b, 0xf8, 0x5a, 0xbd, 0x9b, 0xb2, 0xcc, 0xbd,
    0x7e, 0x51, 0xd4, 0xbd, 0xac, 0xd1, 0x04, 0x3e, 0x56, 0x02,
    0x1a, 0xbe, 0xd6, 0x4e, 0xd8, 0xbd, 0xdd, 0x94, 0x30, 0xbe,
    0x40, 0x85, 0x47, 0xbc, 0x8a, 0x08, 0xe7, 0xbc, 0x13, 0xae,
    0x3a, 0x3c, 0x7d, 0x7a, 0x7d, 0xbd, 0xfd, 0x6a, 0xff, 0xbd,
    0x54, 0x77, 0xb1, 0xbc, 0xc9, 0x49, 0x6b, 0x3d, 0xbb, 0x82,
    0x1f, 0xbe, 0xa7, 0x4c, 0x06, 0x3e, 0xb1, 0x3a, 0x83, 0x3d,
    0x72, 0xbc, 0x0d, 0x3e, 0xbb, 0xfb, 0x7c, 0xbe, 0x3a, 0x6d,
    0xa0, 0x3d, 0xda, 0x21, 0xbc, 0x3c, 0xb6, 0xd3, 0xdf, 0xbd,
    0xa2, 0x33, 0x92, 0xbe, 0x3b, 0xa6, 0x4e, 0xbd, 0xa4, 0xe9,
    0x3a, 0xbe, 0xad, 0xe4, 0x2b, 0x3d, 0xad, 0x44, 0x51, 0xbd,
    0xeb, 0xae, 0x91, 0xbe, 0x4f, 0xb3, 0x77, 0xbd, 0xaf, 0x97,
    0x9b, 0x3d, 0xa7, 0x39, 0x63, 0xbd, 0xd7, 0x73, 0xab, 0xbc,
    0xd4, 0x13, 0xd3, 0x3d, 0x1c, 0xd7, 0x53, 0xbd, 0xed, 0xc2,
    0x0b, 0xbe, 0x86, 0xc8, 0x96, 0xbe, 0x23, 0x85, 0xb8, 0xbd,
    0xa5, 0xee, 0x99, 0x3c, 0xc6, 0x2e, 0x98, 0xbd, 0x68, 0x97,
    0x5c, 0x3d, 0x51, 0x9b, 0x09, 0xbd, 0x2e, 0xc2, 0xad, 0xbd,
    0x67, 0x76, 0xe9, 0xbd, 0x53, 0x2b, 0xdc, 0x3c, 0x62, 0xbf,
    0x70, 0xbd, 0xd2, 0xe1, 0x07, 0x3e, 0xa4, 0x3a, 0x0d, 0xbe,
    0xfa, 0x3c, 0x0b, 0xbe, 0x70, 0xb3, 0xcb, 0xbd, 0xf1, 0x57,
    0xd3, 0x3d, 0x7c, 0x80, 0x5a, 0x3d, 0xd2, 0x7e, 0x23, 0x3d,
    0x3f, 0xe1, 0x85, 0x3d, 0xef, 0xaa, 0xb9, 0x3c, 0x4d, 0x38,
    0x96, 0x3d, 0x8d, 0x1b, 0xba, 0x3c, 0x23, 0x93, 0x8f, 0xbd,
    0xaa, 0x41, 0xab, 0xbd, 0xc4, 0xec, 0xd0, 0xbd, 0xb0, 0x04,
    0x0b, 0xbe, 0xd5, 0x42, 0xc9, 0xbd, 0x90, 0xe3, 0xab, 0xbc,
    0x55, 0x16, 0xc2, 0x3c, 0x0e, 0x45, 0x14, 0x3d, 0xd6, 0x94,
    0xf3, 0xbd, 0xca, 0x24, 0xd8, 0x3d, 0x1a, 0x2f, 0xac, 0x3d,
    0xe5, 0x06, 0x8b, 0xbe, 0xc2, 0xab, 0x14, 0xbe, 0x3d, 0xfc,
    0x86, 0xbd, 0xbe, 0x0a, 0x52, 0xbd, 0x1c, 0xf8, 0x0e, 0xbd,
    0x93, 0xba, 0x0c, 0xbd, 0x05, 0x89, 0x8a, 0x3d, 0xa9, 0xcc,
    0x53, 0x3d, 0x2d, 0x63, 0x17, 0xbb, 0x78, 0x32, 0x84, 0xbd,
    0xb8, 0x5a, 0x3d, 0xbd, 0xf9, 0xa1, 0x4c, 0xbd, 0xba, 0x3b,
    0xfc, 0x3d, 0xaa, 0xf7, 0x2a, 0xbc, 0x12, 0xa6, 0xd1, 0xbd,
    0x77, 0x63, 0xf0, 0xbd, 0xc8, 0x0d, 0x1f, 0xbe, 0x92, 0x6c,
    0x97, 0xbc, 0x66, 0x70, 0x5f, 0x3c, 0x82, 0xc1, 0x08, 0x3d,
    0x3e, 0x40, 0xe1, 0x3b, 0x42, 0x14, 0xa4, 0xbd, 0xc2, 0x0b,
    0xbd, 0x3d, 0xc5, 0x4c, 0x9f, 0xbd, 0x3a, 0x59, 0x19, 0xbe,
    0x4f, 0x7e, 0x01, 0xbd, 0x17, 0xd1, 0x10, 0xbb, 0x0d, 0xa7,
    0xcd, 0x3d, 0xc6, 0x26, 0x8b, 0xbc, 0x66, 0x5b, 0x21, 0xbd,
    0xf5, 0x69, 0x09, 0x3c, 0x73, 0x4c, 0x89, 0x3c, 0xb7, 0x9f,
    0xb6, 0xbd, 0x04, 0xe5, 0x24, 0xbe, 0x34, 0x64, 0x80, 0xbe,
    0x04, 0xa2, 0x35, 0xbe, 0x54, 0xb6, 0xc5, 0x3d, 0x14, 0xba,
    0x59, 0xbd, 0x1f, 0x7d, 0x66, 0x3d, 0x3f, 0xe6, 0x60, 0xbb,
    0xbb, 0xf3, 0xda, 0x3c, 0x61, 0x55, 0x9b, 0xbd, 0x90, 0x56,
    0x10, 0x3d, 0xcd, 0x04, 0x88, 0x3d, 0x47, 0x99, 0xe3, 0xbd,
    0x8a, 0x32, 0x84, 0x3d, 0xf7, 0x00, 0xac, 0xbd, 0xe9, 0x6d,
    0x16, 0xbe, 0x58, 0x74, 0x7d, 0xbe, 0x30, 0x43, 0x37, 0xbd,
    0xcf, 0xd8, 0x61, 0xbe, 0x2e, 0xe6, 0xf9, 0xbb, 0x97, 0xe0,
    0x4c, 0xbb, 0x6c, 0x76, 0xa3, 0xbd, 0xec, 0xd0, 0x17, 0xbe,
    0xec, 0xe3, 0x0b, 0xbd, 0x6f, 0x58, 0xe0, 0xbd, 0xe8, 0xf9,
    0x1b, 0x3d, 0xad, 0xcb, 0x94, 0xbd, 0xe0, 0x0b, 0x32, 0xbd,
    0x86, 0xc4, 0x13, 0xbe, 0xc4, 0xcd, 0x02, 0xbe, 0x09, 0xdb,
    0x20, 0xbe, 0xbd, 0xcb, 0x39, 0xbe, 0xab, 0x8d, 0x50, 0xbe,
    0x98, 0x53, 0x32, 0x3c, 0x1f, 0xe5, 0xab, 0xbd, 0x27, 0x66,
    0x43, 0x3d, 0xbb, 0xe5, 0xa0, 0x3c, 0x71, 0x0a, 0xe6, 0x3d,
    0x10, 0x8e, 0x3c, 0xbd, 0xae, 0xbe, 0x22, 0x3d, 0x8b, 0x1e,
    0x35, 0xbe, 0x26, 0xa3, 0x0c, 0x3e, 0xb1, 0xdb, 0x06, 0xbd,
    0x63, 0x71, 0xd6, 0x3b, 0xe9, 0x25, 0x92, 0x3d, 0x24, 0xfc,
    0xd1, 0xbd, 0x74, 0x59, 0x10, 0x3d, 0x2f, 0x37, 0xb7, 0xbd,
    0x4d, 0xce, 0x1e, 0xbd, 0x28, 0xfc, 0xa7, 0x3d, 0xd0, 0x18,
    0x0f, 0xbe, 0x81, 0x6b, 0x4c, 0xbe, 0xc0, 0xfc, 0x60, 0xbd,
    0x38, 0x3f, 0xdf, 0xbd, 0xa3, 0xfa, 0x91, 0xbd, 0x79, 0xba,
    0x01, 0xbe, 0x8a, 0x2e, 0x8a, 0xbd, 0x62, 0x0c, 0x44, 0xbc,
    0x16, 0x43, 0xcf, 0x3c, 0xe9, 0xe0, 0x4f, 0x3d, 0x0a, 0x49,
    0x76, 0x3d, 0xf2, 0xa2, 0x7f, 0x3d, 0xd9, 0x3b, 0x10, 0x3c,
    0xdf, 0xf3, 0xb5, 0xbc, 0x99, 0xd0, 0x8d, 0xbd, 0x44, 0x4f,
    0x43, 0xbe, 0x88, 0xeb, 0x1e, 0xbe, 0x83, 0x6b, 0xcd, 0xbd,
    0xa4, 0xf1, 0xdc, 0x3d, 0x8a, 0x3c, 0xb6, 0xbd, 0x2e, 0xc9,
    0x6e, 0x3d, 0xff, 0xa3, 0x87, 0x3c, 0x54, 0x16, 0xb2, 0xbd,
    0xf9, 0x6d, 0x13, 0xbe, 0xc4, 0x22, 0xf6, 0x3d, 0xee, 0x9d,
    0x21, 0x3d, 0xf7, 0x0c, 0xd6, 0xbc, 0xd9, 0xe5, 0xa9, 0xbd,
    0xd7, 0x48, 0x12, 0x3e, 0x6c, 0x3e, 0x50, 0x3d, 0xc8, 0xe7,
    0x21, 0xbe, 0x83, 0x4e, 0x48, 0xbe, 0xab, 0x8a, 0xe6, 0xbc,
    0xb9, 0x2a, 0x9b, 0xbe, 0x32, 0xc3, 0xa0, 0xbd, 0xf4, 0x61,
    0x35, 0x3d, 0x24, 0x19, 0x7e, 0xbc, 0xe4, 0x92, 0xba, 0x3d,
    0xb9, 0x5d, 0x22, 0xbd, 0x65, 0x90, 0x06, 0x3e, 0xa8, 0xfe,
    0xaf, 0x3d, 0xe9, 0x82, 0xc2, 0xba, 0xaf, 0x12, 0xc3, 0xbd,
    0xf1, 0x11, 0x8d, 0xbd, 0xda, 0x38, 0x9d, 0x3d, 0xae, 0x1c,
    0xff, 0xbd, 0xad, 0x6e, 0x69, 0xbd, 0x3d, 0x80, 0x5e, 0x3d,
    0xa7, 0x4c, 0x2e, 0xbe, 0xbc, 0x35, 0xbb, 0x3c, 0xd2, 0xe0,
    0x2d, 0xbe, 0x2d, 0x6b, 0x1c, 0xbd, 0xc8, 0x00, 0xf3, 0x3d,
    0x98, 0x53, 0x3d, 0xbe, 0x9c, 0xa2, 0x67, 0xbd, 0x37, 0x40,
    0x0b, 0xbe, 0x6d, 0xcc, 0x10, 0xbe, 0x8a, 0xe0, 0x30, 0xbe,
    0x29, 0x7c, 0x9a, 0x3d, 0xf4, 0xdb, 0x7d, 0x3b, 0xe9, 0xc5,
    0xfb, 0x3d, 0x69, 0x5d, 0xa7, 0xbd, 0x2b, 0xeb, 0x82, 0xbd,
    0xee, 0xdb, 0x32, 0xbd, 0x52, 0xc4, 0x1a, 0xbe, 0x8b, 0x19,
    0x10, 0xbd, 0xb9, 0x8a, 0x8b, 0x3c, 0x66, 0x6e, 0x45, 0x3d,
    0x94, 0x6a, 0x17, 0xbd, 0xf8, 0x5a, 0xca, 0x3d, 0xc4, 0x75,
    0xac, 0xbd, 0x8f, 0x5f, 0xd2, 0x3d, 0xae, 0xb8, 0x13, 0x3d,
    0x87, 0x00, 0xd1, 0x3d, 0x6f, 0x6f, 0x96, 0xbd, 0x87, 0xd3,
    0xf1, 0xbd, 0xaa, 0x25, 0x16, 0xbe, 0x88, 0x8d, 0x8e, 0xbc,
    0xc6, 0x9e, 0x16, 0xbe, 0xaf, 0x27, 0x80, 0xbc, 0x6d, 0x78,
    0xed, 0xbd, 0x01, 0x19, 0xe6, 0xbd, 0x41, 0x0f, 0x01, 0x3d,
    0x36, 0x81, 0x27, 0xbe, 0x42, 0x0f, 0xca, 0xbd, 0x8d, 0xe7,
    0xe8, 0x3d, 0xd2, 0x78, 0x95, 0xba, 0x91, 0x96, 0x1a, 0xbe,
    0x61, 0x9d, 0xfa, 0xbd, 0x65, 0x02, 0x1d, 0xbe, 0x14, 0x6a,
    0x0f, 0x3d, 0x24, 0xaf, 0x00, 0xbe, 0xfd, 0x27, 0xf7, 0xbc,
    0x80, 0x98, 0xde, 0xbd, 0x6e, 0x50, 0x25, 0xbe, 0xd1, 0x6c,
    0x08, 0xbe, 0x4b, 0x12, 0x56, 0xbe, 0x24, 0xef, 0xea, 0x3c,
    0x46, 0xb8, 0x7b, 0xbe, 0x5e, 0xa6, 0x66, 0xbe, 0x26, 0x33,
    0xbf, 0x3d, 0x3b, 0x92, 0xb8, 0xbd, 0xa9, 0x31, 0x87, 0xbd,
    0x8c, 0x40, 0x92, 0xbd, 0x03, 0xf1, 0xea, 0x3d, 0x81, 0x41,
    0x7f, 0xbe, 0x66, 0xd3, 0x48, 0x3c, 0xaf, 0x5b, 0xf8, 0xbd,
    0x10, 0xab, 0x4f, 0x3c, 0x1c, 0x6d, 0x10, 0x3d, 0x23, 0x8f,
    0x06, 0xbe, 0x10, 0x68, 0xa7, 0x3d, 0xd2, 0xfd, 0xc4, 0xbd,
    0x1b, 0x36, 0xd8, 0xbd, 0xe8, 0x50, 0x1c, 0xbe, 0x71, 0xb9,
    0x7d, 0x3d, 0x07, 0x93, 0xec, 0xbd, 0xd8, 0x5a, 0xd2, 0xbd,
    0x04, 0x3d, 0xb1, 0xbd, 0x48, 0x4e, 0x5d, 0xbc, 0x4b, 0x66,
    0x13, 0xbe, 0x72, 0x27, 0xeb, 0xbd, 0x69, 0x21, 0xd5, 0xbd,
    0x7c, 0x1e, 0x41, 0x3d, 0xfc, 0xeb, 0xd7, 0x3d, 0x7a, 0x9a,
    0x99, 0xbd, 0x6b, 0x07, 0xf7, 0xbc, 0x9b, 0x01, 0xd7, 0x3c,
    0x6d, 0x3d, 0x14, 0x3d, 0x63, 0x99, 0x44, 0x3d, 0x5e, 0xee,
    0xda, 0xbd, 0x44, 0xe9, 0xbf, 0x3d, 0x1c, 0x40, 0x31, 0x3d,
    0x58, 0x28, 0xc9, 0x39, 0x58, 0x07, 0xa1, 0xbd, 0x7d, 0x25,
    0x88, 0x3c, 0x30, 0xaa, 0x06, 0x3e, 0x30, 0xf5, 0xe3, 0xbd,
    0xf6, 0x61, 0x00, 0x3c, 0x42, 0x63, 0x02, 0x3e, 0xb2, 0x96,
    0x17, 0x39, 0x13, 0xad, 0x16, 0x3e, 0x06, 0xfa, 0x09, 0xbe,
    0xf7, 0xa3, 0x31, 0xbe, 0xdb, 0xfb, 0x24, 0xbe, 0x23, 0x84,
    0x2a, 0xbe, 0xb4, 0x51, 0xdd, 0xbd, 0x25, 0x56, 0x63, 0xbd,
    0xaf, 0x2b, 0x9c, 0x3b, 0x54, 0x69, 0x12, 0xbe, 0x2f, 0x14,
    0x9a, 0xbc, 0x7f, 0xd1, 0xbd, 0xbc, 0xd3, 0x6a, 0x10, 0x3d,
    0xf4, 0xfe, 0x04, 0x3d, 0x6c, 0xe7, 0x38, 0xbd, 0x8d, 0xb2,
    0x05, 0x3e, 0x94, 0xf4, 0x04, 0xbe, 0xa6, 0xf2, 0x4e, 0x3e,
    0xf7, 0xda, 0x8a, 0xbd, 0x6a, 0x57, 0x4b, 0xbd, 0x98, 0x93,
    0x8e, 0xbc, 0x9d, 0xb5, 0x12, 0x3b, 0x65, 0xe8, 0x41, 0xbb,
    0xe2, 0x01, 0x3e, 0x3d, 0x52, 0xd1, 0x71, 0x3d, 0x75, 0x7e,
    0x54, 0x3c, 0x87, 0x38, 0x41, 0x3c, 0x50, 0x30, 0xae, 0xbc,
    0x76, 0x3f, 0x0a, 0xbd, 0x54, 0xc7, 0x0a, 0x3e, 0xb1, 0x99,
    0x82, 0x3d, 0x15, 0x16, 0xae, 0x3c, 0x12, 0xfa, 0x05, 0x3e,
    0x92, 0x5d, 0xb6, 0x3d, 0xc3, 0xab, 0x75, 0xbc, 0xda, 0xa1,
    0x24, 0x3d, 0x7d, 0xd1, 0x09, 0xbe, 0x6f, 0x62, 0x41, 0xbe,
    0x12, 0x3c, 0x75, 0x3d, 0x51, 0x97, 0xe2, 0xba, 0x17, 0x69,
    0x38, 0xbd, 0x08, 0x06, 0xdc, 0xbc, 0x49, 0x3c, 0xaf, 0x3d,
    0x8d, 0xb3, 0xda, 0x3d, 0x38, 0x82, 0xe8, 0x3d, 0xb3, 0xc7,
    0x28, 0xbd, 0x21, 0xb4, 0x56, 0x3b, 0x44, 0x4b, 0x73, 0x3c,
    0x24, 0xf7, 0xb5, 0xbd, 0xc0, 0x45, 0xc7, 0xbd, 0x68, 0x77,
    0x12, 0xbe, 0x65, 0x30, 0xac, 0x3d, 0x2a, 0x9e, 0x5a, 0xbe,
    0xf3, 0x63, 0x02, 0xbe, 0xae, 0xea, 0x30, 0x3d, 0xb5, 0x1c,
    0x18, 0xbd, 0x67, 0xac, 0x8e, 0xbd, 0xe4, 0x77, 0x94, 0x3d,
    0x5b, 0x0e, 0xac, 0x3b, 0x12, 0xee, 0x09, 0x3e, 0x02, 0xf6,
    0xb4, 0xbc, 0xbe, 0x7b, 0x11, 0xbe, 0xd0, 0xa3, 0x93, 0xbc,
    0xeb, 0x65, 0xbe, 0x3d, 0x61, 0x16, 0x0d, 0x3e, 0xb7, 0xc5,
    0xda, 0xbd, 0x09, 0xdc, 0xe2, 0x3c, 0xa9, 0x36, 0x23, 0x3d,
    0xed, 0x75, 0x3f, 0xbe, 0x26, 0x66, 0x51, 0xbe, 0x3f, 0x3f,
    0x93, 0xbb, 0x17, 0x03, 0xe7, 0xbd, 0x3d, 0xb1, 0xbd, 0xbd,
    0xee, 0x70, 0x84, 0xba, 0x5d, 0x7a, 0xf2, 0xbd, 0x24, 0xcd,
    0xdd, 0xbd, 0x46, 0xa4, 0xf8, 0xbc, 0xba, 0x56, 0x00, 0x3d,
    0x3b, 0x68, 0x0a, 0xbe, 0x63, 0x9e, 0x4c, 0xbc, 0x0d, 0x6a,
    0x03, 0x3e, 0xd5, 0x55, 0x0a, 0xbe, 0x91, 0xdd, 0x5f, 0xbd,
    0xce, 0x8b, 0x0b, 0x3d, 0x4a, 0xf3, 0x0c, 0x3d, 0x6b, 0xac,
    0xed, 0xbc, 0x7c, 0x41, 0xe7, 0x3d, 0xbf, 0x18, 0xdf, 0xbd,
    0x86, 0xee, 0xc9, 0xbd, 0xdd, 0x92, 0x13, 0xbe, 0x00, 0x80,
    0x4a, 0xbe, 0x06, 0xbc, 0xb3, 0xbd, 0x4b, 0xc9, 0x0d, 0xbd,
    0x7f, 0xaa, 0x09, 0xbe, 0xcf, 0x31, 0xc5, 0xbd, 0xa4, 0xe3,
    0x72, 0xbd, 0x37, 0xa4, 0x00, 0x3d, 0xca, 0xc8, 0x33, 0xbd,
    0x1e, 0x2a, 0xbc, 0xbd, 0x52, 0x5e, 0x8c, 0x3d, 0xa3, 0xc9,
    0x62, 0xbe, 0x50, 0x40, 0x44, 0xbe, 0xb7, 0xd6, 0x8f, 0x39,
    0xf9, 0xa0, 0x49, 0x3b, 0xe8, 0x91, 0x09, 0x3c, 0x7c, 0xee,
    0x39, 0xbc, 0x61, 0x2b, 0xa7, 0xbd, 0xe4, 0xa3, 0x77, 0x3c,
    0xc9, 0xd0, 0x02, 0x3e, 0x34, 0xa3, 0xc2, 0x3d, 0x5a, 0xaf,
    0xdc, 0x3d, 0xa2, 0x07, 0xac, 0xbc, 0x70, 0xc1, 0x93, 0x3d,
    0xe3, 0x03, 0xc0, 0xbd, 0xfd, 0x86, 0xf0, 0xbc, 0x7e, 0xfe,
    0xe6, 0x3d, 0x3e, 0x11, 0x45, 0xbe, 0x9c, 0xf1, 0xeb, 0xbc,
    0x70, 0xdc, 0xa4, 0xbd, 0x50, 0x83, 0x2f, 0x3c, 0x3d, 0xef,
    0xad, 0xbd, 0x7e, 0x54, 0x8a, 0xbd, 0xd7, 0x04, 0xec, 0x3c,
    0x81, 0xdc, 0x91, 0x3d, 0x48, 0xc1, 0x09, 0x3e, 0x4e, 0x10,
    0x06, 0x3e, 0x60, 0x4c, 0xf8, 0x3d, 0xe5, 0x88, 0x82, 0x3d,
    0xf0, 0x38, 0xe5, 0xbd, 0x71, 0x5f, 0x99, 0xbd, 0xb7, 0x9b,
    0x56, 0xbd, 0x63, 0xdb, 0x41, 0xbd, 0x30, 0xdf, 0x03, 0xbe,
    0x52, 0x41, 0xc3, 0x3c, 0xea, 0x8a, 0xe3, 0xbc, 0x0f, 0xc7,
    0xa1, 0x3d, 0x55, 0x5f, 0x96, 0x3c, 0x22, 0x6c, 0x31, 0xbe,
    0x1f, 0xba, 0x24, 0xbe, 0x6a, 0xb4, 0x70, 0xbd, 0x8b, 0x71,
    0x02, 0xbe, 0xb6, 0xe7, 0x85, 0xbc, 0x45, 0x81, 0x56, 0x3d,
    0x4c, 0x81, 0x3e, 0xbd, 0x36, 0x94, 0x04, 0x3e, 0x9e, 0x1b,
    0xdb, 0xbd, 0x0e, 0xa7, 0xa3, 0xbc, 0x37, 0x9d, 0x7c, 0x3d,
    0xb2, 0x94, 0x3b, 0xbe, 0x9b, 0x0b, 0xbb, 0xbd, 0x4b, 0xa2,
    0x0d, 0xbe, 0xb8, 0xad, 0x2d, 0x3d, 0x71, 0xa5, 0x07, 0xbe,
    0xa8, 0xcc, 0x14, 0xbe, 0x08, 0x0b, 0x37, 0xbe, 0x0f, 0x25,
    0x91, 0x3d, 0x5b, 0x5c, 0x72, 0x3d, 0xb2, 0x12, 0x11, 0x3e,
    0x96, 0x74, 0x1c, 0x3c, 0xec, 0x67, 0xe6, 0xbd, 0x36, 0x8c,
    0x0e, 0x3e, 0x37, 0x1b, 0x2c, 0x3d, 0x21, 0xd0, 0x00, 0xbe,
    0x42, 0x61, 0x85, 0x3d, 0xe8, 0x5a, 0x1a, 0x3d, 0x2b, 0x70,
    0xaf, 0xbd, 0x69, 0x85, 0x0b, 0xbe, 0x96, 0x17, 0x8d, 0xbd,
    0x4e, 0x15, 0xbf, 0xbd, 0x82, 0x39, 0x32, 0xbe, 0x9d, 0x45,
    0xb6, 0xbd, 0xfd, 0x6b, 0x07, 0x3e, 0x5b, 0xcd, 0x19, 0xbe,
    0x4c, 0x86, 0xed, 0x3d, 0x55, 0xba, 0x9a, 0xbd, 0x87, 0x2b,
    0xd6, 0x3d, 0xbc, 0x2e, 0xb9, 0xbd, 0xf3, 0xa4, 0xcd, 0x3c,
    0xd6, 0x84, 0x2b, 0x3d, 0x55, 0xb0, 0x8c, 0xbd, 0xcf, 0x70,
    0x2c, 0xbe, 0x4c, 0x28, 0xaf, 0xbd, 0x44, 0x34, 0x35, 0xbe,
    0x65, 0xd7, 0xe1, 0xbc, 0x4c, 0xe9, 0x9b, 0xbd, 0x97, 0xb7,
    0xfd, 0xbd, 0x0a, 0xd2, 0xe5, 0xbd, 0xb4, 0x1c, 0xe6, 0x3c,
    0x60, 0x3b, 0xae, 0x3c, 0xa4, 0x79, 0x5f, 0xbe, 0xdf, 0x00,
    0xc8, 0x3d, 0x6e, 0xc6, 0xf3, 0xbd, 0x04, 0xce, 0x15, 0xbe,
    0xeb, 0xa6, 0xa1, 0xbd, 0x84, 0xea, 0x25, 0xbc, 0x0a, 0xd3,
    0x29, 0x3e, 0xb7, 0x4c, 0x0d, 0xbd, 0x8f, 0x8b, 0x08, 0x3d,
    0x97, 0x6d, 0xf3, 0x3d, 0xa8, 0xcf, 0x87, 0xbd, 0x68, 0x2e,
    0xb4, 0x3d, 0xdf, 0xb8, 0x5b, 0x3e, 0x95, 0x56, 0x79, 0x3e,
    0xa7, 0x95, 0x3e, 0x3d, 0x64, 0x98, 0xfb, 0x3d, 0x80, 0x4d,
    0xae, 0xbd, 0xe5, 0x63, 0xab, 0xbd, 0x7d, 0xd5, 0xbf, 0xbd,
    0xe2, 0x2d, 0x26, 0x3a, 0x46, 0xc3, 0xbb, 0x3e, 0xc4, 0xf5,
    0xa1, 0xbd, 0x2a, 0xe2, 0x17, 0x3e, 0xd3, 0xfa, 0x8d, 0xbd,
    0x92, 0xbc, 0x4a, 0xbe, 0x43, 0x91, 0x60, 0x3e, 0x0f, 0x86,
    0x89, 0xbd, 0xcb, 0xbb, 0x84, 0x3d, 0xc3, 0xe8, 0x85, 0x3e,
    0x7c, 0xfe, 0x79, 0x3e, 0x04, 0x38, 0x39, 0xbd, 0xb5, 0x2c,
    0x7a, 0x3d, 0xcc, 0x43, 0x84, 0xbe, 0x23, 0xa0, 0x21, 0x3d,
    0x0e, 0xf0, 0x06, 0xbe, 0xc2, 0x9b, 0x4e, 0x3e, 0x67, 0x66,
    0x02, 0x3e, 0x02, 0xf1, 0xfd, 0xbd, 0x26, 0x0f, 0x2e, 0x3c,
    0xf1, 0x23, 0x15, 0xbe, 0x2f, 0x5c, 0xba, 0xbd, 0x09, 0xd1,
    0x3f, 0x3e, 0x05, 0x6b, 0x21, 0xbe, 0x78, 0x4e, 0x3c, 0xbb,
    0xc8, 0xec, 0x2b, 0x3e, 0x94, 0xb0, 0x2d, 0x3e, 0x94, 0xf8,
    0xda, 0x3d, 0xb3, 0x92, 0xbe, 0xbd, 0xaa, 0x4a, 0x93, 0xbd,
    0x76, 0x92, 0x95, 0xbb, 0xe0, 0x05, 0xcf, 0xbd, 0x33, 0xf0,
    0xd5, 0x3d, 0x6a, 0xaa, 0xed, 0xbb, 0xed, 0xbc, 0xea, 0xbd,
    0x55, 0x0a, 0xb2, 0x3d, 0xd7, 0x29, 0x1c, 0x3d, 0xc4, 0xfa,
    0x16, 0xbe, 0x5c, 0x56, 0x10, 0x3e, 0x6e, 0x66, 0x63, 0x3d,
    0x01, 0xad, 0xee, 0x3d, 0x69, 0xf4, 0x7e, 0x3e, 0x7e, 0x47,
    0xe6, 0x3d, 0x8c, 0x31, 0xbf, 0x3b, 0x19, 0xc2, 0x3f, 0x3d,
    0x6c, 0xdd, 0xe5, 0xbd, 0x6f, 0xa2, 0xb1, 0x3d, 0x90, 0xfa,
    0xab, 0xbc, 0x40, 0x7c, 0x4a, 0xbe, 0xbf, 0x76, 0x99, 0x3d,
    0x8f, 0x58, 0x13, 0xbe, 0x5f, 0xfe, 0x0b, 0x3e, 0xa9, 0xe0,
    0x4e, 0x3e, 0xa7, 0xfa, 0x0f, 0xbb, 0x32, 0x44, 0x1c, 0x3d,
    0xb9, 0xf2, 0x33, 0xbe, 0xda, 0x76, 0x31, 0xbd, 0x4e, 0x9b,
    0xbc, 0x3e, 0xd2, 0x7c, 0x27, 0x3e, 0xa1, 0xf8, 0x97, 0xbd,
    0x5e, 0xb5, 0x11, 0xbe, 0x03, 0x22, 0x00, 0x3d, 0x58, 0x2c,
    0x25, 0xbe, 0xef, 0x40, 0x1a, 0xbe, 0xcc, 0xd4, 0x18, 0x3e,
    0xbf, 0xdc, 0x14, 0xbd, 0x24, 0xc4, 0xe2, 0xbd, 0x40, 0xb4,
    0x26, 0x3d, 0x7b, 0x08, 0x16, 0x3e, 0x86, 0x76, 0x8e, 0xbe,
    0x29, 0xe3, 0x26, 0xbd, 0xff, 0x8b, 0x0c, 0xbd, 0x2c, 0xd1,
    0x28, 0xbd, 0x45, 0xd4, 0xf8, 0x3e, 0x5c, 0x16, 0xa2, 0x3c,
    0xa1, 0x8d, 0x55, 0xbd, 0x54, 0xf6, 0x02, 0xbe, 0x6c, 0xa7,
    0xe4, 0x3d, 0xbe, 0x96, 0x8c, 0x3d, 0x34, 0x5d, 0x77, 0x3d,
    0x25, 0xe0, 0x26, 0x3d, 0x8c, 0x70, 0x63, 0xbd, 0x00, 0x05,
    0xb4, 0xbd, 0x1d, 0x13, 0xa7, 0x3d, 0x62, 0x56, 0x2f, 0x3d,
    0x78, 0x0d, 0x1e, 0xbe, 0xc7, 0x18, 0x47, 0x3e, 0x2a, 0x58,
    0x27, 0xbe, 0x08, 0x45, 0x27, 0xbc, 0x37, 0x0f, 0xa6, 0x3e,
    0x59, 0xa9, 0xe3, 0x3d, 0x93, 0x2b, 0xfa, 0x3d, 0x2b, 0x91,
    0x14, 0xbe, 0xd0, 0x57, 0xf9, 0x3d, 0x13, 0x55, 0x9d, 0x3c,
    0x92, 0x9c, 0x13, 0x3e, 0x06, 0xd3, 0xe0, 0xbd, 0x89, 0xad,
    0xec, 0xbc, 0xd4, 0xde, 0x0f, 0xbe, 0x23, 0xce, 0x6a, 0x3d,
    0xa3, 0xb7, 0x2c, 0x3e, 0x47, 0xa5, 0x9c, 0xbe, 0x41, 0x70,
    0x73, 0xbb, 0x9c, 0xa0, 0xcd, 0xbd, 0x74, 0x3f, 0x81, 0xbd,
    0xa5, 0x26, 0x47, 0x3d, 0x99, 0x7b, 0xbb, 0xbc, 0x30, 0xde,
    0x7d, 0x3d, 0x61, 0x00, 0x9f, 0x3c, 0xb3, 0x79, 0x6c, 0x3c,
    0xff, 0xbb, 0x4e, 0x3d, 0x9c, 0xce, 0xc7, 0x3d, 0xd9, 0x98,
    0xab, 0x3d, 0x63, 0x56, 0x45, 0x3c, 0xbd, 0x14, 0x38, 0xbd,
    0xe6, 0x0c, 0x44, 0x3e, 0xa1, 0x9e, 0xab, 0x3e, 0x0c, 0xee,
    0x27, 0xbe, 0x19, 0x47, 0x8b, 0x3d, 0xe1, 0x12, 0x21, 0xbe,
    0x1b, 0xf5, 0x61, 0xbd, 0xa3, 0x8e, 0x9c, 0x3c, 0x3e, 0xe6,
    0x36, 0xbe, 0x70, 0x6a, 0x34, 0xbd, 0x19, 0x12, 0xc5, 0x3d,
    0xd7, 0x23, 0xa0, 0x3e, 0xca, 0x36, 0x22, 0xbe, 0x70, 0x44,
    0xdf, 0xbd, 0xa2, 0xb6, 0x50, 0x3e, 0x52, 0xac, 0xfd, 0x3b,
    0x4c, 0x0d, 0x77, 0xbd, 0x07, 0xf3, 0x84, 0x3e, 0xbd, 0xbe,
    0x5c, 0x3e, 0x72, 0x27, 0x3f, 0xbd, 0x1f, 0x9d, 0x4d, 0x3e,
    0xfa, 0x95, 0x2a, 0xbe, 0xa5, 0x2d, 0x06, 0x3d, 0x6f, 0xb4,
    0x03, 0x3e, 0xcc, 0x62, 0x67, 0xbc, 0xe1, 0x99, 0xb9, 0xbd,
    0x15, 0x54, 0xcb, 0xbd, 0x8c, 0xd9, 0xd6, 0xbd, 0xf7, 0x00,
    0x0d, 0xbe, 0x88, 0xce, 0xce, 0x3c, 0x1b, 0xd8, 0xa6, 0xbd,
    0x4b, 0xee, 0x95, 0xbd, 0x9e, 0x90, 0xe7, 0xbd, 0x8b, 0x26,
    0x7c, 0x3e, 0x0c, 0x53, 0x83, 0x3e, 0xb8, 0x8d, 0x12, 0xbe,
    0x0d, 0x65, 0x42, 0x3d, 0x94, 0x84, 0x96, 0x3d, 0x4c, 0x61,
    0xbb, 0xbd, 0xfa, 0x1f, 0x63, 0xbe, 0x74, 0xd7, 0xc6, 0xbd,
    0x8f, 0x9e, 0x08, 0xbe, 0x52, 0xee, 0x00, 0xbe, 0x3c, 0xc7,
    0x85, 0x3e, 0x72, 0x7d, 0xd4, 0xbc, 0x03, 0xeb, 0x08, 0x3e,
    0xcc, 0x00, 0x96, 0xbd, 0x51, 0xb4, 0xd3, 0x3b, 0x3d, 0x55,
    0x08, 0xbe, 0xe5, 0xb6, 0x4a, 0x3e, 0xe5, 0x94, 0x28, 0x3e,
    0x10, 0x12, 0x94, 0xbe, 0xdd, 0xc8, 0xe5, 0xbd, 0x99, 0xdb,
    0xe5, 0xbd, 0x46, 0xdd, 0x85, 0xbd, 0x91, 0x8a, 0xcd, 0x3d,
    0xf2, 0xe2, 0x75, 0x3b, 0x34, 0xc6, 0xa1, 0xbd, 0x42, 0x5a,
    0x5d, 0xbd, 0x4e, 0x2e, 0x4b, 0x3e, 0x74, 0x5e, 0x6b, 0xbd,
    0x53, 0x2f, 0x9e, 0xbd, 0xfd, 0xb2, 0xf5, 0xbd, 0xce, 0xbf,
    0x3c, 0xbd, 0xa9, 0x46, 0x8f, 0xbe, 0x5e, 0x4b, 0x2d, 0x3e,
    0xf2, 0xc6, 0x4f, 0x3e, 0x38, 0xcc, 0x3e, 0xbe, 0xd1, 0xc6,
    0xc9, 0xbd, 0x1e, 0xe3, 0x39, 0xbd, 0x0b, 0x3f, 0xe5, 0xbc,
    0x5c, 0x6c, 0xac, 0x3c, 0x90, 0x52, 0x3c, 0x3d, 0x75, 0x41,
    0x28, 0x3d, 0xa3, 0x72, 0x0a, 0xbe, 0x15, 0x22, 0x9d, 0x3d,
    0x0c, 0x57, 0xe7, 0x3d, 0xe8, 0xab, 0x89, 0xbc, 0xa2, 0x1d,
    0x9d, 0xbc, 0xbd, 0xee, 0xd9, 0x3d, 0xa2, 0xdb, 0x62, 0xbe,
    0xef, 0x54, 0x0d, 0x3d, 0x8e, 0xc3, 0x16, 0x3e, 0x79, 0x44,
    0x56, 0xbe, 0xd2, 0xf4, 0x6a, 0x3e, 0x5a, 0x04, 0x45, 0x3e,
    0xfd, 0x3b, 0xc8, 0xbd, 0x8d, 0x88, 0x92, 0x3d, 0xf2, 0x89,
    0x86, 0x3e, 0x53, 0x54, 0x79, 0xbd, 0xbb, 0xd3, 0xf4, 0xbd,
    0xda, 0x3f, 0xcb, 0x3d, 0x4b, 0x92, 0x25, 0xbe, 0x61, 0xda,
    0xba, 0x3c, 0x40, 0xaa, 0xcf, 0x3e, 0x71, 0x4a, 0xba, 0x3c,
    0xdf, 0x86, 0x76, 0xbd, 0xdc, 0x44, 0x79, 0xbd, 0xbb, 0x26,
    0xdd, 0x3d, 0x72, 0x19, 0x07, 0xbe, 0xca, 0x4b, 0xa6, 0xbd,
    0x3b, 0xd7, 0xb4, 0x3d, 0x49, 0x37, 0x88, 0x3e, 0x2d, 0x08,
    0x7d, 0x3e, 0x4d, 0xf0, 0x7f, 0x3e, 0xa0, 0x6d, 0x8c, 0x3d,
    0x26, 0x44, 0x8c, 0x3e, 0x53, 0x6d, 0xce, 0x3d, 0x02, 0x39,
    0xca, 0xbc, 0x6c, 0xe4, 0x46, 0x3d, 0x2f, 0xfe, 0x42, 0x3e,
    0x81, 0x99, 0xd0, 0x3e, 0x0c, 0x85, 0x06, 0xbd, 0x65, 0x88,
    0xe6, 0x3d, 0x7e, 0x51, 0x62, 0x3a, 0xde, 0xd0, 0xd5, 0xbd,
    0x7f, 0x9b, 0x3e, 0x3d, 0x55, 0x02, 0xa7, 0x3d, 0x87, 0xbe,
    0xa9, 0x3e, 0xbd, 0xce, 0x08, 0x3e, 0x6f, 0x39, 0x01, 0x3d,
    0x37, 0xea, 0x4a, 0x3d, 0xdb, 0xec, 0x21, 0xbe, 0x8b, 0x3c,
    0xaa, 0xba, 0x7c, 0x32, 0x17, 0x3c, 0x2e, 0xed, 0x03, 0x3c,
    0x28, 0xa6, 0x00, 0xbe, 0xa5, 0x83, 0xa9, 0x3c, 0x43, 0x9f,
    0x85, 0x3d, 0xfa, 0xea, 0xee, 0xbc, 0x5e, 0x1e, 0x12, 0x3e,
    0x77, 0x3f, 0xf3, 0x3c, 0xf2, 0x72, 0x45, 0x3d, 0x87, 0x4c,
    0x1d, 0xbe, 0xbd, 0x80, 0x47, 0x3e, 0xac, 0xa1, 0xdf, 0x3e,
    0x7c, 0xa9, 0x32, 0xbd, 0xc9, 0x30, 0xae, 0x3d, 0x2e, 0xb1,
    0x66, 0xbd, 0xab, 0xf0, 0x1a, 0x3e, 0x70, 0xbb, 0xee, 0xbc,
    0x55, 0x4d, 0xf7, 0x3d, 0x9d, 0x45, 0x66, 0xbd, 0xce, 0x9b,
    0xdd, 0xbd, 0xd6, 0x2b, 0x4d, 0xbc, 0xd8, 0x8b, 0x9a, 0x3d,
    0x98, 0xba, 0x2f, 0x3e, 0x67, 0x1d, 0xe2, 0xbd, 0xf2, 0x0c,
    0x48, 0x3e, 0x47, 0x2b, 0x6b, 0xbc, 0xf5, 0x55, 0x76, 0x3e,
    0x30, 0x8a, 0xed, 0x3e, 0xab, 0xe3, 0x02, 0xbe, 0x7f, 0xd2,
    0x8f, 0x3c, 0xbb, 0xde, 0x8a, 0xbd, 0x70, 0xf3, 0x5a, 0x3d,
    0x70, 0xf8, 0x56, 0x3b, 0x41, 0x76, 0x81, 0xbd, 0xc5, 0xae,
    0xe4, 0x3d, 0xd0, 0x3e, 0x5c, 0xbe, 0x87, 0xf5, 0x45, 0xbe,
    0x14, 0xc0, 0x2d, 0xbd, 0xc3, 0xbf, 0x6b, 0x3e, 0xc6, 0xf6,
    0x83, 0x3d, 0x93, 0xc9, 0x2b, 0x3e, 0xbc, 0xa4, 0x73, 0x3d,
    0x23, 0xd6, 0x52, 0x3e, 0x7f, 0x38, 0xf4, 0x3e, 0x24, 0x34,
    0xe8, 0xbb, 0x2a, 0xe8, 0xa2, 0xbd, 0x7e, 0x7d, 0x7e, 0xbc,
    0xca, 0x09, 0xd0, 0x3d, 0x59, 0x9c, 0x42, 0xbe, 0xf4, 0x33,
    0xa6, 0xbd, 0xbb, 0x0b, 0x60, 0x3e, 0x89, 0x31, 0x32, 0xbe,
    0xea, 0x02, 0x82, 0xbd, 0xc7, 0x88, 0x07, 0xbe, 0x2a, 0xe3,
    0x28, 0x3e, 0xf4, 0xdf, 0x80, 0xbd, 0x44, 0x40, 0xc2, 0xbd,
    0xe5, 0x11, 0x14, 0x3d, 0xbe, 0xe9, 0x87, 0x3e, 0x99, 0x16,
    0x56, 0x3e, 0x2d, 0xa6, 0xce, 0xbd, 0x48, 0x7e, 0x9e, 0x3b,
    0xe8, 0x6e, 0x8b, 0xbd, 0x13, 0xfb, 0x9a, 0xbd, 0xff, 0x9b,
    0x1a, 0x3e, 0x9f, 0xae, 0x94, 0xbd, 0x6e, 0x19, 0x08, 0xbd,
    0x0a, 0x7f, 0x44, 0xbd, 0x14, 0xaf, 0xe4, 0xbd, 0x23, 0x33,
    0x09, 0x3b, 0x9d, 0x13, 0x49, 0x3e, 0x32, 0x22, 0x24, 0xbd,
    0xaa, 0x8b, 0x25, 0x3e, 0x27, 0xc6, 0x46, 0xbc, 0x7d, 0x40,
    0x54, 0x3e, 0x98, 0x48, 0x5f, 0x3e, 0x2a, 0x92, 0xed, 0x3d,
    0x04, 0xc5, 0xe5, 0x3c, 0x05, 0xcc, 0x9f, 0xbd, 0x70, 0xd9,
    0x80, 0xbd, 0xca, 0x8d, 0x84, 0x3d, 0x9c, 0xef, 0xe4, 0xbd,
    0xc1, 0xe9, 0x7a, 0xbd, 0xa1, 0xab, 0xdc, 0xbd, 0x4f, 0x81,
    0xb5, 0xbd, 0xb7, 0x8a, 0xd5, 0x3c, 0x2a, 0x0d, 0x85, 0x3e,
    0xd3, 0x1c, 0x0a, 0xbe, 0x94, 0x86, 0x21, 0x3d, 0x9a, 0xbc,
    0xfb, 0xbd, 0xfd, 0x22, 0x85, 0x3e, 0x3a, 0xfa, 0x76, 0x3e,
    0xb5, 0x4c, 0x1e, 0xbd, 0x65, 0xa7, 0x26, 0xbe, 0x6f, 0x87,
    0x2e, 0xbd, 0x52, 0x6a, 0x7d, 0xbd, 0x13, 0x7d, 0xbc, 0xbb,
    0xc2, 0xbf, 0xcf, 0xbd, 0x81, 0x35, 0xe9, 0x3d, 0xd5, 0xe1,
    0xd3, 0xbd, 0x41, 0xa8, 0x49, 0xbe, 0x6a, 0xc7, 0x09, 0xbe,
    0x67, 0x08, 0x54, 0x3e, 0x5e, 0xf2, 0xb5, 0xbd, 0xf8, 0x96,
    0x15, 0x3e, 0x6c, 0x44, 0x0b, 0xbe, 0x50, 0x32, 0x38, 0x3e,
    0x66, 0x95, 0x3a, 0x3e, 0x86, 0x80, 0xbf, 0xbc, 0x6e, 0xc6,
    0x17, 0xbe, 0x28, 0xab, 0x37, 0xbe, 0x22, 0x8c, 0x9f, 0xbd,
    0x3a, 0x81, 0x0e, 0xbc, 0xe2, 0xd9, 0xdd, 0xbc, 0x77, 0xd8,
    0x31, 0x3e, 0xcb, 0x8a, 0x53, 0xbe, 0x13, 0x2a, 0x3e, 0xbe,
    0xfe, 0xaa, 0xf1, 0x3d, 0xbf, 0x3c, 0x8d, 0x3e, 0x27, 0x98,
    0x37, 0xbe, 0x52, 0x9c, 0x57, 0xbd, 0x19, 0x95, 0x59, 0xbd,
    0xfa, 0xbe, 0x04, 0x3e, 0x06, 0xd6, 0x74, 0x3e, 0x01, 0xab,
    0x2c, 0xbe, 0xb5, 0x97, 0xb7, 0x3c, 0xae, 0x5d, 0x1a, 0x3c,
    0xc3, 0x72, 0x21, 0x3e, 0x12, 0x23, 0xd8, 0xbd, 0xe0, 0x97,
    0xef, 0x3d, 0x52, 0x94, 0xa4, 0x3d, 0xee, 0x67, 0x95, 0xbe,
    0xc4, 0x1f, 0x1b, 0xbe, 0xd4, 0x04, 0xd8, 0xbd, 0x3b, 0xd1,
    0x86, 0x3e, 0x9f, 0x5f, 0x12, 0xbe, 0xaf, 0xfc, 0x7e, 0x3e,
    0xcc, 0x74, 0x8b, 0x3d, 0xa2, 0xc4, 0x41, 0x3e, 0x4c, 0xad,
    0x95, 0x3e, 0xb1, 0xbc, 0xe2, 0xbd, 0xb3, 0x1d, 0x15, 0xbe,
    0x8b, 0xd6, 0xa7, 0x3d, 0x1d, 0xb0, 0x23, 0x3d, 0x43, 0xbc,
    0x88, 0xbd, 0x57, 0x04, 0xbc, 0x3d, 0x2b, 0x83, 0xda, 0x3d,
    0x7c, 0x2c, 0x83, 0xbe, 0x74, 0x8c, 0x31, 0xbe, 0xae, 0x81,
    0x88, 0x3d, 0xe3, 0x4c, 0x56, 0x3e, 0x24, 0x91, 0x31, 0xbe,
    0x6a, 0xb9, 0x93, 0x3a, 0xd4, 0x5a, 0x8d, 0xbd, 0xb4, 0xc2,
    0x73, 0x3e, 0x0e, 0xe8, 0x8c, 0x3e, 0xad, 0xf6, 0x12, 0xbe,
    0xa1, 0x0c, 0x81, 0xbd, 0xcd, 0x00, 0x46, 0x3d, 0x6e, 0xd5,
    0xef, 0xbd, 0xc0, 0x98, 0x17, 0x3d, 0x2e, 0x2d, 0xed, 0x3c,
    0x7f, 0x83, 0x09, 0x3e, 0x47, 0x6f, 0x0c, 0xbe, 0xab, 0xb4,
    0x52, 0xbe, 0x35, 0xab, 0x2b, 0x3d, 0x13, 0xbc, 0xad, 0x3e,
    0xfc, 0xc5, 0x3b, 0xbe, 0x34, 0x0f, 0x8d, 0x3d, 0x1a, 0x4f,
    0x3e, 0xbd, 0xfe, 0x5e, 0x27, 0x3e, 0xf5, 0x25, 0x16, 0x3f,
    0x02, 0x3f, 0x67, 0xbe, 0x13, 0x33, 0xb1, 0xbd, 0x61, 0x91,
    0xbc, 0x3d, 0xec, 0x67, 0x9f, 0xbb, 0x7a, 0xbe, 0x33, 0x3e,
    0xae, 0x58, 0x89, 0x3d, 0xbb, 0x5b, 0x1e, 0xbd, 0x49, 0x11,
    0xbf, 0xba, 0x15, 0x9e, 0x4a, 0xbe, 0xa5, 0x01, 0x87, 0x3d,
    0x98, 0x82, 0xbf, 0xbb, 0x17, 0x1d, 0xd9, 0xbd, 0xc2, 0x1b,
    0x9f, 0xbd, 0xb2, 0xc3, 0x37, 0xbe, 0x31, 0x61, 0x24, 0x3e,
    0xfd, 0x25, 0x08, 0x3e, 0x2a, 0x77, 0x98, 0xbd, 0x86, 0xc8,
    0xc0, 0xbd, 0xbc, 0x94, 0x74, 0x3d, 0x19, 0xd0, 0x23, 0xbe,
    0x3f, 0x0f, 0x35, 0x3e, 0x01, 0x48, 0x2f, 0xbd, 0x57, 0x04,
    0x87, 0x3e, 0x9f, 0xda, 0x19, 0xbe, 0x3b, 0xfc, 0xe6, 0x3c,
    0x91, 0x4c, 0x9e, 0x3d, 0x46, 0x87, 0x5f, 0xbe, 0xa2, 0x96,
    0x79, 0xbe, 0x19, 0xbc, 0xb0, 0xbd, 0x54, 0x79, 0xae, 0xbd,
    0x1a, 0xff, 0x8c, 0x3d, 0x8e, 0xf4, 0xfd, 0x3d, 0xd8, 0x04,
    0xcf, 0x3d, 0x5d, 0xcc, 0xee, 0xbd, 0x92, 0xc5, 0xbf, 0x3d,
    0x96, 0xb0, 0xe1, 0x3c, 0x4c, 0xe0, 0xfe, 0x3d, 0xa6, 0xac,
    0xa0, 0x3d, 0x7f, 0xb5, 0xed, 0xbc, 0xa2, 0x7b, 0x05, 0xbd,
    0xd9, 0x61, 0x4c, 0xbe, 0x6f, 0xf4, 0xa2, 0x3d, 0xc1, 0xca,
    0x01, 0x3d, 0x22, 0x89, 0xd9, 0xbc, 0x60, 0x6e, 0x39, 0xbd,
    0xee, 0x07, 0x89, 0xbc, 0x8c, 0xf4, 0xa2, 0x3d, 0xaa, 0x33,
    0xcd, 0x3d, 0x40, 0xdb, 0x58, 0x3d, 0x42, 0x43, 0xe6, 0x3d,
    0x52, 0xd4, 0x32, 0xbe, 0x90, 0x65, 0x0d, 0x3d, 0x1d, 0xd0,
    0x91, 0xbd, 0xd6, 0x04, 0x1f, 0x3d, 0x62, 0x74, 0xc7, 0x3d,
    0xc5, 0xd9, 0xf1, 0xbc, 0x8f, 0xb0, 0x30, 0xbe, 0x6f, 0x9f,
    0x2a, 0xbe, 0x5b, 0xd5, 0x2a, 0xbd, 0xab, 0xc1, 0xdf, 0xbd,
    0x1e, 0x7f, 0xcb, 0x3d, 0x82, 0xd9, 0x32, 0xbd, 0xb4, 0xbb,
    0xc6, 0x3d, 0xa0, 0xe5, 0x2d, 0x3e, 0x44, 0xee, 0x14, 0x3e,
    0xcd, 0x24, 0x0c, 0x3e, 0x02, 0x23, 0xf3, 0x3d, 0x9c, 0x6c,
    0x42, 0xbe, 0x6d, 0x6f, 0x9b, 0xbd, 0x3e, 0x11, 0xc1, 0x3d,
    0x24, 0xd0, 0xd0, 0x3d, 0xc1, 0x13, 0x74, 0xbd, 0x15, 0xd2,
    0x2e, 0xbe, 0x40, 0x5f, 0x07, 0xbd, 0xe8, 0xd4, 0xd7, 0x3d,
    0x73, 0x9b, 0xa5, 0xbd, 0xae, 0x8d, 0x9f, 0x3d, 0x4a, 0x12,
    0x97, 0x3d, 0x22, 0xab, 0xff, 0x3d, 0xb8, 0xb9, 0xae, 0x3d,
    0xe6, 0xaf, 0x16, 0x3d, 0x30, 0xf1, 0x83, 0xbd, 0xf6, 0xdb,
    0x25, 0xbe, 0x30, 0xd0, 0x9c, 0xbd, 0x4a, 0x5d, 0xf7, 0x3d,
    0x40, 0x7e, 0xa7, 0xbd, 0xf1, 0x2f, 0xce, 0xbc, 0x7f, 0xdf,
    0x30, 0xbe, 0x75, 0xd6, 0xe9, 0xbd, 0xb3, 0x3d, 0xf9, 0xbd,
    0x65, 0x65, 0x36, 0xbd, 0xb3, 0x25, 0x3d, 0xbe, 0xd0, 0x9b,
    0x6f, 0x3d, 0xda, 0xef, 0xc0, 0xbc, 0x39, 0x3e, 0xc3, 0x3a,
    0x4d, 0xd5, 0x85, 0xbc, 0x71, 0xb9, 0x59, 0xbd, 0x46, 0x1c,
    0xa3, 0xbd, 0xd6, 0xad, 0x00, 0x3e, 0xe7, 0x04, 0x2a, 0x3e,
    0x74, 0xd4, 0x92, 0x3d, 0xf6, 0x4c, 0xdc, 0xbd, 0x46, 0x56,
    0x2b, 0x3d, 0xd6, 0xcd, 0x1b, 0xbe, 0x82, 0x6b, 0x87, 0xbe,
    0xcb, 0x33, 0xe4, 0x3d, 0x4f, 0x7f, 0x13, 0xbe, 0xc1, 0xc8,
    0x61, 0xbd, 0x46, 0x23, 0x05, 0xbe, 0xa0, 0x89, 0xe9, 0xbd,
    0x52, 0x4d, 0x3c, 0xbd, 0xd8, 0x73, 0x79, 0x3e, 0xfd, 0x33,
    0xbe, 0x3c, 0xdb, 0xf4, 0xd3, 0x3b, 0x98, 0xc7, 0x25, 0xbe,
    0x6c, 0x3d, 0xa2, 0xbc, 0xc4, 0x49, 0x1a, 0xbd, 0x01, 0x9b,
    0xe0, 0xbd, 0x88, 0xf6, 0xb6, 0xbd, 0x27, 0x0f, 0x03, 0xbd,
    0xe2, 0x94, 0x7b, 0xbd, 0x87, 0x34, 0xe0, 0xbd, 0xa6, 0x3c,
    0x5c, 0xbd, 0x6f, 0x7c, 0xad, 0xbc, 0xf0, 0xbc, 0x53, 0x3c,
    0xa6, 0xcc, 0x4e, 0x3d, 0x52, 0x31, 0x03, 0xbe, 0x73, 0xb6,
    0x5d, 0x3d, 0x92, 0xc7, 0x91, 0xbd, 0x5c, 0x44, 0xe3, 0x3d,
    0xd3, 0x8a, 0x88, 0x3d, 0xda, 0xfd, 0x0f, 0xbe, 0xd0, 0xa3,
    0xe9, 0xbc, 0x45, 0xe0, 0xcf, 0xbd, 0x08, 0xad, 0xa3, 0xbd,
    0x18, 0x8e, 0xca, 0xbc, 0x9d, 0x3b, 0x64, 0xbe, 0x52, 0xe1,
    0x15, 0xbe, 0x85, 0xfd, 0x33, 0x3d, 0xcf, 0xce, 0x7e, 0xbe,
    0x62, 0xe7, 0x81, 0x3d, 0x4d, 0x70, 0xe7, 0x3c, 0x4c, 0x01,
    0x10, 0xbe, 0xd5, 0x75, 0x21, 0xbc, 0x7a, 0x83, 0x92, 0x3c,
    0x0e, 0xf6, 0x7f, 0x3d, 0x57, 0x3a, 0x7f, 0x3d, 0xc0, 0x7c,
    0xda, 0xbd, 0x69, 0xb2, 0x11, 0xbe, 0x33, 0x3e, 0x07, 0xbe,
    0x26, 0x85, 0x1f, 0xbe, 0x13, 0x7b, 0xd5, 0xbd, 0x97, 0xdb,
    0x10, 0x3d, 0xae, 0x5b, 0x05, 0xbd, 0xd4, 0xf7, 0x7b, 0x3d,
    0x70, 0x09, 0x6f, 0xbd, 0x58, 0xac, 0xdb, 0xbd, 0x86, 0x0e,
    0x8e, 0x3c, 0xa3, 0x5f, 0xc5, 0x3c, 0xd3, 0xf9, 0xdf, 0x3d,
    0x0e, 0x73, 0x7d, 0xbc, 0x42, 0x93, 0x9a, 0x3d, 0x89, 0x02,
    0xc2, 0x3d, 0x91, 0xb2, 0x13, 0xbe, 0x3b, 0x47, 0x8e, 0xbd,
    0xb9, 0x5f, 0xb9, 0x3d, 0xe9, 0x4a, 0xd1, 0xbd, 0xaa, 0xf6,
    0x58, 0xbe, 0xa0, 0x62, 0x54, 0xbe, 0xef, 0x0c, 0xd9, 0x3c,
    0xd1, 0xd4, 0xe0, 0xbc, 0x7b, 0x24, 0x2a, 0xba, 0x5a, 0xa1,
    0x20, 0xbd, 0x90, 0xba, 0xbe, 0x3d, 0x92, 0x9b, 0x06, 0xbe,
    0x22, 0xfa, 0x4f, 0x3e, 0xe8, 0x14, 0x97, 0xbd, 0x8b, 0xd1,
    0xe7, 0x3d, 0xce, 0xdb, 0x22, 0xbe, 0x01, 0x3a, 0x67, 0xbd,
    0x6a, 0xbb, 0xcb, 0xbd, 0xde, 0xc3, 0x0b, 0x3e, 0x22, 0x1e,
    0x67, 0xbd, 0x3a, 0x4c, 0x3a, 0xbd, 0x54, 0x40, 0x68, 0xbe,
    0xc6, 0x88, 0x28, 0xbd, 0x3b, 0xc8, 0xcf, 0x3c, 0xf5, 0xa7,
    0x0d, 0xbe, 0x18, 0xd4, 0x32, 0xbd, 0x2f, 0x35, 0x06, 0xbe,
    0xf2, 0xdd, 0xba, 0x3d, 0x1b, 0xd2, 0xa7, 0xbd, 0xaf, 0x3f,
    0x15, 0xbe, 0x68, 0x83, 0x7e, 0x3d, 0x7d, 0xf8, 0x01, 0xbc,
    0x54, 0xe6, 0x56, 0xbd, 0x0d, 0xe9, 0x0f, 0x3d, 0x6e, 0x0a,
    0x16, 0xbe, 0x92, 0x05, 0x94, 0xbd, 0xc1, 0x18, 0xe7, 0xbb,
    0xdc, 0x75, 0x2d, 0xbe, 0xd7, 0x37, 0x00, 0x3e, 0x48, 0x2e,
    0xaa, 0xbd, 0xc1, 0xa8, 0x52, 0xbe, 0x18, 0x73, 0x78, 0x3d,
    0x44, 0x51, 0xcf, 0x3d, 0x32, 0x41, 0xa3, 0x3c, 0x2f, 0x61,
    0x3c, 0x3c, 0xff, 0x7b, 0x96, 0x3d, 0x8c, 0xbf, 0x81, 0x3d,
    0x10, 0x14, 0xbf, 0xbd, 0x46, 0x20, 0xe3, 0x3b, 0xeb, 0xa2,
    0x47, 0xbe, 0x90, 0x6c, 0x14, 0xbe, 0xc9, 0xe5, 0xf2, 0x3d,
    0xb8, 0x0b, 0x80, 0xbe, 0x08, 0x71, 0x88, 0xbe, 0x25, 0x94,
    0x9a, 0xbd, 0xfa, 0xcc, 0x99, 0x3d, 0xf3, 0x1c, 0xd8, 0xbd,
    0x9a, 0x80, 0xfe, 0xbd, 0x0c, 0x04, 0x12, 0xbd, 0xaf, 0x5d,
    0xcc, 0x3d, 0xf8, 0xe5, 0x23, 0x3e, 0x20, 0xe7, 0xf1, 0x3c,
    0x98, 0x07, 0xf1, 0xbd, 0x7e, 0xfd, 0x42, 0x3d, 0xb7, 0x6f,
    0x60, 0x3d, 0x8f, 0xef, 0x35, 0xbd, 0xfd, 0x80, 0x0d, 0xbe,
    0x24, 0x1c, 0x2b, 0x3d, 0xe7, 0x33, 0xde, 0xbd, 0x96, 0x1b,
    0x54, 0xbd, 0x8a, 0x54, 0x94, 0x3d, 0xdb, 0xe9, 0x1c, 0xbe,
    0x86, 0x20, 0x91, 0xbd, 0x93, 0x09, 0x1e, 0xbe, 0x48, 0xfe,
    0x5f, 0xbe, 0xf4, 0x64, 0x39, 0x3b, 0x6a, 0xe9, 0xb0, 0x3d,
    0x83, 0x5b, 0x87, 0xbd, 0x49, 0xb0, 0x0a, 0x3c, 0x9a, 0x8b,
    0xb4, 0x3c, 0xdc, 0x04, 0x34, 0xbe, 0xb0, 0x04, 0x94, 0xbd,
    0x31, 0x2b, 0x10, 0xbd, 0xac, 0x90, 0x2e, 0x3e, 0xd9, 0xf0,
    0x77, 0x3c, 0xde, 0x31, 0xbf, 0xbd, 0x39, 0x7c, 0xc3, 0xbd,
    0x4a, 0x83, 0xcd, 0x3d, 0x2a, 0xa1, 0xaa, 0x3d, 0x33, 0xfe,
    0x31, 0xbd, 0x5a, 0x68, 0x2b, 0xbe, 0x33, 0xc6, 0x89, 0xbe,
    0x1d, 0x60, 0x8d, 0xbd, 0xf5, 0x68, 0xe2, 0xbe, 0x25, 0xdd,
    0xe2, 0x3d, 0x33, 0x94, 0x8d, 0xbd, 0xeb, 0x5d, 0x72, 0x3d,
    0x49, 0xfc, 0xea, 0x3c, 0x6a, 0x32, 0x26, 0x3d, 0xc9, 0x16,
    0x0f, 0xbe, 0x4e, 0xae, 0x78, 0xbe, 0x52, 0x30, 0x42, 0xbd,
    0xc2, 0x91, 0xcf, 0x3d, 0xdd, 0x25, 0x97, 0x3e, 0x54, 0x62,
    0x3a, 0xbd, 0xba, 0x88, 0x9a, 0xbd, 0x1a, 0xc7, 0x8e, 0x3d,
    0x02, 0x0f, 0x43, 0xbe, 0x1d, 0x61, 0xe0, 0x3d, 0x77, 0x02,
    0xf1, 0xbe, 0xe0, 0x06, 0x22, 0xbe, 0x5c, 0xa6, 0x04, 0xbe,
    0x39, 0x79, 0xe5, 0xbd, 0x32, 0xb2, 0x91, 0xbd, 0xe6, 0xd2,
    0x88, 0x3d, 0x09, 0x08, 0x21, 0xbe, 0xff, 0xc7, 0xc5, 0xbd,
    0xd1, 0x49, 0x10, 0xbe, 0x9f, 0x1c, 0xd3, 0xbd, 0x1a, 0x75,
    0x2b, 0x3e, 0xe3, 0x7c, 0xa3, 0xbd, 0xca, 0x43, 0x62, 0xbd,
    0x50, 0x64, 0xe3, 0x3d, 0x88, 0xb4, 0xa3, 0x3d, 0x5f, 0x14,
    0x8e, 0xbd, 0xa4, 0x55, 0x54, 0xbe, 0xc9, 0x6b, 0xe7, 0x3d,
    0x16, 0x73, 0x17, 0x3e, 0xfc, 0xcd, 0x54, 0x3d, 0x83, 0x8e,
    0x65, 0x3c, 0x8c, 0x63, 0x59, 0xbd, 0xb3, 0xd6, 0x33, 0x3d,
    0x68, 0x4f, 0x23, 0x3e, 0x06, 0x2a, 0xae, 0xbd, 0x35, 0x72,
    0x40, 0x3d, 0x32, 0x0a, 0xa9, 0xbd, 0xd9, 0x6b, 0x4d, 0xbe,
    0x78, 0x8b, 0xb3, 0x3d, 0x30, 0x24, 0x6a, 0x3d, 0x6c, 0xd9,
    0x4b, 0x3d, 0xbb, 0xb6, 0x1c, 0xbe, 0x53, 0x11, 0x84, 0x3e,
    0x62, 0xa2, 0x25, 0x3d, 0x58, 0xb1, 0x3f, 0x3b, 0xbd, 0x66,
    0x38, 0x3d, 0x6c, 0xf7, 0xb5, 0x3c, 0x0c, 0x73, 0x2e, 0xbc,
    0x49, 0x1b, 0x2e, 0x3e, 0xf7, 0x08, 0x04, 0x3e, 0x7b, 0x37,
    0x0c, 0x3d, 0x4c, 0x25, 0xbf, 0xbd, 0x05, 0x7b, 0x57, 0xbe,
    0xc7, 0xa3, 0x96, 0xbe, 0x3e, 0x0c, 0x0c, 0xbe, 0xfa, 0xc8,
    0xa5, 0xbd, 0x11, 0xc4, 0xce, 0xbb, 0xac, 0x19, 0x07, 0xbe,
    0x37, 0xec, 0x7f, 0x3e, 0x38, 0x14, 0x49, 0x3c, 0xcd, 0x77,
    0x97, 0x3d, 0xa3, 0xf1, 0xc4, 0xbd, 0xb8, 0xb2, 0xe2, 0xbc,
    0xc4, 0x91, 0x12, 0xbe, 0x78, 0x52, 0xf2, 0xbc, 0x0e, 0x89,
    0x78, 0x3e, 0xf2, 0xd3, 0x89, 0x3d, 0x7f, 0xc2, 0xb9, 0x3d,
    0xfb, 0xe1, 0x80, 0xbd, 0xc8, 0x4e, 0x23, 0xbe, 0x80, 0x37,
    0xa3, 0xbc, 0xc6, 0xcc, 0x1a, 0xbe, 0xed, 0xb5, 0x75, 0x3d,
    0x7f, 0x98, 0x3b, 0xbe, 0x2c, 0xa8, 0x90, 0x3e, 0xb2, 0x32,
    0xf9, 0xbd, 0xd6, 0x31, 0x7a, 0x3d, 0x58, 0xd5, 0xca, 0x3d,
    0x0a, 0x9f, 0x25, 0xbe, 0x0c, 0x1f, 0xc6, 0xbd, 0x8d, 0x40,
    0x81, 0x3d, 0x39, 0xde, 0x98, 0x3e, 0x5b, 0xb2, 0x36, 0x3d,
    0x35, 0x1d, 0xb8, 0xbd, 0x0c, 0x5e, 0x30, 0xbe, 0x0e, 0x94,
    0x8d, 0xbe, 0x8d, 0x8f, 0x09, 0x3e, 0x6b, 0x90, 0xdb, 0xbd,
    0x71, 0x32, 0xa2, 0x3c, 0x0f, 0xeb, 0xb7, 0xbd, 0x3a, 0x70,
    0x50, 0x3e, 0x87, 0x8b, 0x1c, 0xbe, 0xa3, 0xb9, 0xe0, 0xbc,
    0xd7, 0x43, 0x22, 0x3d, 0x27, 0xbe, 0xa4, 0x3d, 0x16, 0x68,
    0x9d, 0x3d, 0xf1, 0x65, 0x66, 0xbd, 0x13, 0x36, 0x2a, 0x3c,
    0xb6, 0xa3, 0xcf, 0x3c, 0x91, 0x47, 0x42, 0x3d, 0x22, 0xc5,
    0x32, 0x3d, 0x40, 0x5e, 0xa0, 0xbd, 0xb0, 0x91, 0xcf, 0xbd,
    0x37, 0xbc, 0x8e, 0xbc, 0x79, 0x9f, 0x07, 0x3d, 0x95, 0xfe,
    0x7d, 0xbd, 0x44, 0xb7, 0x96, 0x3c, 0xae, 0xa7, 0x12, 0xbd,
    0xf8, 0xcd, 0xc0, 0xbc, 0xe4, 0x9b, 0x10, 0xbe, 0xb6, 0xa0,
    0xdd, 0xbd, 0x9e, 0xe3, 0xcb, 0x3d, 0x3c, 0xc1, 0x06, 0xbe,
    0x80, 0x67, 0x56, 0x3d, 0x13, 0x49, 0x9c, 0x3b, 0x4e, 0xe3,
    0x30, 0xbe, 0x4d, 0xaf, 0x84, 0xbd, 0xf7, 0xca, 0xbe, 0xbd,
    0xc6, 0xa0, 0xc6, 0xbd, 0x7a, 0xa3, 0x2d, 0xbe, 0x8a, 0x89,
    0xd4, 0x3c, 0x6c, 0xbf, 0xe5, 0xbd, 0xa6, 0xdd, 0x0a, 0x3d,
    0xf1, 0xf5, 0xec, 0xbd, 0x39, 0xff, 0x0e, 0xbd, 0xac, 0x8e,
    0xed, 0xbd, 0x71, 0x99, 0xab, 0xbd, 0xf0, 0xf1, 0x2e, 0xbd,
    0xc6, 0x89, 0xe6, 0x3c, 0x72, 0x93, 0xa7, 0xbb, 0x24, 0x9b,
    0x82, 0x3d, 0x84, 0x9f, 0x20, 0xbe, 0xe1, 0x17, 0x06, 0x3e,
    0x39, 0x76, 0x80, 0xbd, 0x38, 0x6c, 0xed, 0x3d, 0x2b, 0xd4,
    0x2e, 0x3d, 0x83, 0x7b, 0x1b, 0x3c, 0x05, 0x2e, 0x82, 0xbd,
    0x2e, 0x0f, 0xf1, 0xbd, 0xce, 0x77, 0x13, 0xbe, 0xa6, 0x19,
    0xc6, 0x3c, 0x9c, 0x3a, 0x0e, 0xbe, 0x7f, 0x4f, 0x8f, 0x3d,
    0x7b, 0x78, 0x61, 0x3c, 0x4f, 0x1e, 0xc1, 0xbc, 0x76, 0xdf,
    0xed, 0xbd, 0x2c, 0xe3, 0x24, 0x3d, 0xee, 0x8e, 0x31, 0xbd,
    0xc6, 0x26, 0x84, 0x3d, 0x57, 0x0d, 0x75, 0xbd, 0x90, 0x3f,
    0xb9, 0xbc, 0x3d, 0xdf, 0xb5, 0x3d, 0x08, 0xf2, 0xb6, 0xbc,
    0x55, 0x10, 0x38, 0xbe, 0x15, 0xbf, 0x79, 0xbd, 0x51, 0x0e,
    0xe6, 0x3d, 0x72, 0xf7, 0xad, 0x3d, 0x56, 0x70, 0x5e, 0x3d,
    0x80, 0x2e, 0x06, 0x3e, 0x7d, 0xac, 0x5e, 0x3d, 0x58, 0xd7,
    0xd3, 0x3d, 0xea, 0x73, 0x55, 0xbe, 0xf5, 0x98, 0x09, 0x39,
    0xc7, 0xbd, 0x06, 0xbb, 0xd0, 0xb4, 0x00, 0x3d, 0x94, 0x7c,
    0x67, 0x3a, 0x6d, 0x27, 0xe4, 0xbd, 0x2a, 0x3b, 0x03, 0xbe,
    0x8b, 0x26, 0xab, 0xbd, 0x29, 0xda, 0x5f, 0xbe, 0x76, 0xc1,
    0x03, 0xbe, 0x1f, 0xbe, 0xbb, 0xbd, 0x70, 0xd3, 0xb5, 0x3b,
    0x8b, 0x3e, 0x8a, 0xbd, 0xb3, 0xa8, 0x9e, 0x3d, 0x39, 0xc0,
    0x29, 0x3d, 0xf1, 0xac, 0x93, 0xbd, 0x38, 0x09, 0xa4, 0xbe,
    0x8f, 0x96, 0xd5, 0xbc, 0xa5, 0x4a, 0x03, 0xbe, 0x7c, 0x98,
    0x87, 0x3d, 0x17, 0x0a, 0x41, 0x3d, 0xa8, 0x78, 0xad, 0x3d,
    0x1b, 0xee, 0x6c, 0x3d, 0xdf, 0xd1, 0x27, 0xbe, 0x5d, 0xc7,
    0x99, 0xbe, 0xb1, 0x02, 0x3d, 0xbe, 0xd6, 0xfe, 0xe8, 0x3d,
    0x04, 0x58, 0x0a, 0x3e, 0x0a, 0xc5, 0xd8, 0xbd, 0xc6, 0x67,
    0xc0, 0x3d, 0x16, 0x58, 0xdb, 0x3c, 0x8a, 0x29, 0xe6, 0xbc,
    0xbd, 0xe6, 0xa1, 0xbe, 0x98, 0xb3, 0x87, 0xbd, 0x2e, 0x73,
    0xa4, 0x3d, 0x87, 0x29, 0x3c, 0xbd, 0xb4, 0x70, 0x13, 0x3d,
    0xd0, 0x1e, 0x39, 0xbe, 0xae, 0xcf, 0xcb, 0x3b, 0x05, 0x14,
    0x3d, 0xbe, 0xee, 0xea, 0x03, 0xbe, 0x29, 0x4c, 0xb6, 0xbe,
    0x0d, 0x07, 0x9c, 0xbd, 0x9a, 0x52, 0x74, 0xbd, 0x15, 0x4b,
    0xdd, 0xbe, 0x8a, 0x5b, 0x02, 0x3e, 0xce, 0x8c, 0xd2, 0x3d,
    0x65, 0xc4, 0x02, 0x3e, 0x19, 0x52, 0x7d, 0xbe, 0xc3, 0x0e,
    0x19, 0xbd, 0xfc, 0x2e, 0x98, 0x3d, 0xbb, 0xf7, 0xd1, 0x3d,
    0xff, 0x67, 0x04, 0xbe, 0x3d, 0x93, 0x3d, 0x3d, 0xa0, 0xd0,
    0xdc, 0xbd, 0xa7, 0x6e, 0x12, 0x3e, 0xfa, 0x1a, 0xd4, 0x3d,
    0x41, 0xd6, 0xac, 0x3d, 0xfd, 0xb3, 0xac, 0x3d, 0xbe, 0xa5,
    0x5d, 0x3e, 0x2e, 0xec, 0x98, 0x3c, 0xf7, 0x20, 0x46, 0x3d,
    0x00, 0xdb, 0x07, 0x3b, 0xf1, 0x4c, 0x0e, 0x3c, 0x6a, 0x59,
    0x0f, 0x3e, 0x74, 0xb8, 0x38, 0xbe, 0xdc, 0xca, 0x28, 0x3d,
    0x3b, 0xd8, 0xc7, 0xbd, 0x9d, 0xe5, 0x3a, 0xbe, 0xcb, 0x86,
    0x23, 0xbd, 0x17, 0x66, 0x18, 0xbd, 0xb4, 0x94, 0xc5, 0x3d,
    0x2d, 0x8f, 0x21, 0x3e, 0xdf, 0x28, 0xf2, 0x3d, 0xcd, 0x5d,
    0xa7, 0x3d, 0x63, 0x19, 0x5c, 0x3d, 0x68, 0xce, 0xbb, 0xbb,
    0x24, 0x28, 0x26, 0xbe, 0x12, 0xa3, 0xd9, 0xbd, 0x48, 0xac,
    0xeb, 0x3c, 0x67, 0xcf, 0xea, 0xbc, 0x30, 0xd0, 0xd6, 0x3d,
    0xff, 0x55, 0x04, 0xbe, 0x14, 0x47, 0x96, 0x3d, 0x95, 0xe9,
    0x58, 0xbe, 0x37, 0x57, 0xee, 0xbd, 0x8f, 0xd8, 0x3c, 0x3c,
    0x0d, 0xc5, 0x90, 0x3e, 0x26, 0x40, 0xda, 0x3d, 0x76, 0x03,
    0x43, 0xbe, 0xc7, 0x62, 0x33, 0xbe, 0xf1, 0xb3, 0x76, 0x3b,
    0x39, 0x44, 0xd1, 0x3c, 0xd8, 0x3c, 0x96, 0xbd, 0xf0, 0x32,
    0xed, 0xbd, 0x6f, 0x07, 0x0d, 0x3e, 0xea, 0x12, 0xda, 0xbd,
    0x47, 0x62, 0x80, 0x3c, 0x89, 0xfc, 0x51, 0xbd, 0x3b, 0x34,
    0xda, 0x3d, 0xe0, 0x1c, 0x81, 0xbe, 0xc7, 0x13, 0x24, 0xbd,
    0x15, 0x76, 0xa7, 0x3b, 0x60, 0x68, 0x14, 0x3e, 0xd6, 0x00,
    0x5b, 0x3e, 0x7b, 0xf9, 0xc4, 0x3d, 0x9c, 0xbf, 0xfe, 0x3c,
    0xdb, 0xe0, 0x0a, 0x3e, 0x04, 0x8d, 0x96, 0x3d, 0xc8, 0x9c,
    0x6f, 0x3d, 0xb1, 0x13, 0xdd, 0xbc, 0xc7, 0x10, 0xcc, 0x3b,
    0x8d, 0xe4, 0xde, 0x3c, 0xa3, 0x7b, 0x04, 0x3e, 0xdd, 0x53,
    0x49, 0x3d, 0xae, 0x40, 0x4c, 0x3e, 0x3c, 0xf4, 0x72, 0x3c,
    0x73, 0xb6, 0x91, 0xbd, 0xfb, 0xd5, 0xeb, 0x3d, 0x1f, 0xf8,
    0x19, 0x3e, 0xd6, 0x14, 0xae, 0x3d, 0x90, 0xd7, 0x38, 0xbe,
    0xa6, 0xad, 0xa0, 0x3d, 0xeb, 0x82, 0xac, 0xbd, 0x76, 0xc4,
    0x1d, 0x3d, 0x38, 0x07, 0xac, 0xbd, 0xf7, 0xdd, 0x29, 0x3e,
    0xef, 0x06, 0x0b, 0xbe, 0xc0, 0xa6, 0x52, 0xbe, 0xc7, 0xbf,
    0x1c, 0xbe, 0x8e, 0x3c, 0x82, 0x3d, 0x69, 0x02, 0x54, 0x3e,
    0x04, 0x7f, 0x1f, 0xbe, 0xa6, 0xcc, 0x25, 0x3e, 0xeb, 0xd8,
    0x13, 0xbd, 0x37, 0xed, 0xda, 0x3d, 0x97, 0xb3, 0x70, 0x3e,
    0x28, 0xcb, 0xab, 0xbc, 0xef, 0xad, 0x81, 0x3d, 0x46, 0x9d,
    0x0a, 0x3d, 0xab, 0xd7, 0xa8, 0xbd, 0xe3, 0xd8, 0x02, 0xbd,
    0x83, 0xf2, 0x21, 0x3e, 0xbb, 0xf8, 0x9d, 0x3c, 0xe1, 0x7d,
    0xa3, 0xbc, 0x6c, 0xc5, 0xe2, 0xbd, 0x49, 0x2f, 0x36, 0xbb,
    0xb9, 0xe3, 0x7b, 0xbd, 0x8a, 0x9f, 0x5a, 0xbe, 0x8f, 0xd0,
    0x33, 0xbe, 0xfd, 0x61, 0x51, 0x3d, 0x4e, 0x73, 0x63, 0x3e,
    0xd3, 0xff, 0x41, 0x3d, 0xc0, 0x86, 0x7c, 0x3d, 0x2f, 0x16,
    0x7f, 0x39, 0x22, 0x84, 0xaf, 0xbd, 0x84, 0xfc, 0xe5, 0x3d,
    0xf3, 0xcd, 0x49, 0x3d, 0xf7, 0x2f, 0x3e, 0xbd, 0xc9, 0xdb,
    0xc3, 0xbc, 0xa4, 0x1d, 0x7d, 0xbe, 0x66, 0x65, 0xa5, 0xbe,
    0x7a, 0xe5, 0x1a, 0xbd, 0x17, 0x8b, 0xb6, 0x3d, 0x8f, 0x3e,
    0xf7, 0xbc, 0x64, 0x35, 0x16, 0x3e, 0xfb, 0xf9, 0xc9, 0xbd,
    0xb6, 0x95, 0x40, 0x3e, 0x1c, 0x5b, 0x6b, 0x3e, 0xe5, 0xcc,
    0xb3, 0x3c, 0x22, 0x72, 0x33, 0xbd, 0x9b, 0x12, 0xb6, 0x3c,
    0xcd, 0xca, 0x8a, 0xbc, 0x55, 0x6f, 0x0e, 0x3d, 0x46, 0x55,
    0x25, 0xbc, 0x37, 0xf5, 0x85, 0xbd, 0x32, 0x4a, 0x6c, 0xbc,
    0xb0, 0xb0, 0xa5, 0xbd, 0xbc, 0xe2, 0x96, 0xbd, 0xf9, 0xb1,
    0x79, 0x3e, 0x32, 0xdd, 0x2f, 0xbe, 0xde, 0x00, 0x1c, 0x3e,
    0x20, 0xc6, 0x42, 0x3d, 0xf6, 0x33, 0xf1, 0x3b, 0x6e, 0x85,
    0x58, 0x3d, 0x30, 0xc6, 0x47, 0xbe, 0x7d, 0x1d, 0xe3, 0x3d,
    0xf0, 0xdc, 0x10, 0x3e, 0xf6, 0x5a, 0xb8, 0xbd, 0x67, 0x89,
    0x5b, 0xbc, 0xf0, 0xd3, 0xa2, 0x3c, 0x68, 0x30, 0x7e, 0x3d,
    0x90, 0xd5, 0x00, 0xbe, 0xb8, 0xdf, 0x12, 0x3e, 0xd0, 0x36,
    0xd9, 0xbd, 0x8a, 0x0f, 0xca, 0x3d, 0x5b, 0x22, 0x44, 0xbe,
    0x67, 0x1b, 0x1b, 0x3e, 0x9a, 0x63, 0x91, 0x3c, 0x77, 0x34,
    0xdd, 0x3d, 0x75, 0xf5, 0x8c, 0xbd, 0x33, 0xe6, 0xca, 0xbc,
    0x68, 0x69, 0xfa, 0xbd, 0xdc, 0x0e, 0xc5, 0x3d, 0x69, 0x40,
    0x92, 0xbd, 0x5e, 0x4d, 0xe6, 0x3d, 0xf1, 0xcb, 0x9b, 0x3c,
    0x1f, 0x10, 0xb4, 0x3d, 0xc2, 0x46, 0x3d, 0xbe, 0xcb, 0x22,
    0x99, 0x3d, 0x8a, 0x5a, 0xba, 0x3d, 0x0d, 0x23, 0xfc, 0x3d,
    0x06, 0xb1, 0x5e, 0xbe, 0xee, 0x4a, 0xba, 0x3d, 0x48, 0xd7,
    0xae, 0xbd, 0x5b, 0xbc, 0x0a, 0x3e, 0x8b, 0xcb, 0xce, 0x3d,
    0x60, 0xba, 0xf7, 0x3c, 0x71, 0x28, 0xb4, 0x3d, 0xb5, 0xb0,
    0x15, 0xbe, 0x5b, 0xe7, 0xd7, 0x3d, 0x11, 0x06, 0xa5, 0x3d,
    0xaa, 0x63, 0x1d, 0x3e, 0x84, 0x26, 0x48, 0xbd, 0x27, 0x1a,
    0x24, 0xbe, 0x28, 0xa0, 0x17, 0x3e, 0xde, 0x93, 0x54, 0xbd,
    0x94, 0x30, 0x06, 0x3e, 0xb6, 0x10, 0x7a, 0xbc, 0x97, 0x30,
    0xdb, 0x3b, 0xf0, 0x6c, 0x10, 0x3d, 0x91, 0xf6, 0x73, 0x3e,
    0x07, 0xf7, 0x87, 0x3d, 0x4b, 0x5e, 0x64, 0xbe, 0x54, 0xdf,
    0xac, 0x3d, 0xa4, 0xef, 0xc7, 0xbd, 0x96, 0x65, 0x33, 0xbe,
    0xde, 0xd0, 0x83, 0xbd, 0x19, 0x96, 0xbb, 0xbc, 0xcd, 0xa6,
    0x0d, 0x3e, 0x05, 0x52, 0x78, 0xbe, 0x18, 0xea, 0x18, 0xbe,
    0xc0, 0x8f, 0x5f, 0xbd, 0xf3, 0xcc, 0x06, 0x3d, 0xd2, 0x06,
    0x02, 0x3c, 0xf9, 0x02, 0x73, 0xbd, 0x95, 0xfa, 0x90, 0x3c,
    0xb2, 0x85, 0xc2, 0x3d, 0x68, 0x70, 0x11, 0x3e, 0x5e, 0xdc,
    0x03, 0xbd, 0x7a, 0x9a, 0x6b, 0xbd, 0xce, 0x2c, 0xfe, 0x3c,
    0x63, 0xdf, 0xc6, 0x3d, 0x58, 0x12, 0xc7, 0xba, 0x9e, 0xec,
    0x9d, 0x3d, 0x09, 0x32, 0x95, 0x3c, 0x9a, 0x3b, 0xae, 0xbc,
    0x73, 0xf6, 0x9a, 0xbe, 0x46, 0x1e, 0x97, 0xbd, 0x49, 0x86,
    0x91, 0xbe, 0x3b, 0x93, 0x7d, 0x3d, 0xc5, 0xa3, 0x35, 0xbe,
    0x61, 0xb3, 0xce, 0x3c, 0xb9, 0x53, 0xc8, 0x3d, 0x97, 0x23,
    0x19, 0x3e, 0xb4, 0xb5, 0x4c, 0xbd, 0x4a, 0xf0, 0x96, 0x3b,
    0xd1, 0x84, 0x0e, 0x3e, 0xa8, 0xf4, 0x0d, 0xbe, 0x7b, 0x04,
    0x20, 0x3e, 0x70, 0x01, 0x7d, 0xbc, 0x64, 0xe6, 0x1c, 0x3d,
    0x66, 0x3d, 0x23, 0xbd, 0xe9, 0xee, 0x3f, 0xbe, 0xdd, 0x5f,
    0x3b, 0xbd, 0xda, 0xb3, 0x64, 0xbd, 0x6e, 0x0e, 0x7e, 0xbd,
    0x68, 0xac, 0xfa, 0x3c, 0x52, 0x2e, 0x52, 0x3d, 0xea, 0x9a,
    0xb4, 0xbd, 0x69, 0xed, 0x97, 0x3d, 0xef, 0x25, 0xb5, 0xbc,
    0x27, 0x1f, 0x10, 0x3e, 0xba, 0x89, 0x09, 0x3e, 0xe1, 0xd8,
    0x16, 0x3d, 0xbd, 0x40, 0x17, 0x3e, 0xd4, 0x1b, 0x23, 0x3d,
    0x4c, 0x06, 0x9d, 0x3d, 0xbd, 0x01, 0xc4, 0xbd, 0xce, 0x91,
    0xc2, 0xbe, 0x8b, 0x07, 0x99, 0xbd, 0x1f, 0xb9, 0xf2, 0xbd,
    0xce, 0x75, 0x63, 0xbc, 0xde, 0x77, 0x10, 0xbd, 0xf4, 0xc9,
    0x71, 0x3d, 0x5d, 0xbb, 0x25, 0xbd, 0x54, 0x5c, 0xa4, 0x3a,
    0x7b, 0x50, 0x4e, 0x3d, 0x17, 0xf7, 0x27, 0xbc, 0x74, 0x8c,
    0xbe, 0x3d, 0x59, 0x00, 0xab, 0xbc, 0xf7, 0xc6, 0x27, 0x3d,
    0xc9, 0x45, 0x15, 0x3e, 0x05, 0xdd, 0xd2, 0xbd, 0x29, 0xb4,
    0x0f, 0xbe, 0x0c, 0x6c, 0x51, 0xbe, 0x96, 0xf5, 0x22, 0xbe,
    0x8d, 0x26, 0x02, 0x3d, 0x32, 0xd2, 0x69, 0xbe, 0x52, 0xee,
    0xf1, 0x3d, 0xa0, 0x91, 0xf7, 0x3d, 0x84, 0x62, 0x5c, 0x3e,
    0xd1, 0x2e, 0x62, 0x3e, 0xf2, 0xe8, 0xf8, 0x3d, 0x19, 0x37,
    0x32, 0xbd, 0x73, 0x27, 0xc4, 0xbd, 0x7c, 0xa3, 0xe9, 0xbd,
    0x77, 0xbd, 0x0e, 0xbe, 0xc4, 0x28, 0x53, 0x3d, 0xe4, 0xe3,
    0xc4, 0xbd, 0xa0, 0xf2, 0xb9, 0x3c, 0x1d, 0x00, 0x32, 0xbe,
    0x4d, 0x49, 0xbc, 0xbd, 0x08, 0x53, 0xbf, 0x3e, 0xb3, 0xe2,
    0x26, 0xbd, 0x00, 0x20, 0x93, 0x39, 0xa3, 0xed, 0xf2, 0x3b,
    0x1c, 0xea, 0x86, 0xbe, 0x1a, 0x2f, 0x31, 0x3e, 0xae, 0x16,
    0x8a, 0x3c, 0x7f, 0xa5, 0xfa, 0x3d, 0xf1, 0x62, 0x4f, 0x3c,
    0x83, 0x44, 0xea, 0x3d, 0x9f, 0xd9, 0xf2, 0x3d, 0xe6, 0xb3,
    0x8f, 0x3d, 0x72, 0x68, 0x9a, 0x3d, 0x6c, 0x75, 0x40, 0xbe,
    0xbd, 0xcd, 0x45, 0xbe, 0xd6, 0x38, 0xa4, 0x3c, 0x7f, 0x85,
    0xde, 0x3d, 0xd1, 0xe8, 0x06, 0xbe, 0x96, 0x90, 0x0e, 0xbe,
    0xfe, 0x49, 0xf5, 0xbd, 0xc5, 0x29, 0xea, 0x3b, 0x46, 0x51,
    0xc1, 0x3d, 0x39, 0xd1, 0x00, 0xbe, 0x2d, 0xf1, 0x00, 0xbe,
    0x16, 0xf8, 0x09, 0xbe, 0xbf, 0x64, 0x4e, 0xbd, 0x28, 0x6f,
    0xea, 0x3d, 0x31, 0x2e, 0x03, 0x3e, 0x38, 0x08, 0x1b, 0x3d,
    0x03, 0xf8, 0x5d, 0xbe, 0xc2, 0xfb, 0x7d, 0xbe, 0xc9, 0x5e,
    0xc0, 0xbd, 0xc0, 0x9c, 0x77, 0x3d, 0x10, 0x85, 0x40, 0x3d,
    0xb8, 0xa6, 0x2b, 0x3e, 0x81, 0xf9, 0x24, 0xbe, 0x54, 0x03,
    0xdf, 0xbd, 0xdb, 0xa9, 0xf5, 0x3d, 0x6b, 0x6a, 0xc9, 0xbd,
    0x48, 0x1a, 0xe9, 0x3c, 0xd3, 0x8e, 0x54, 0x3d, 0xfd, 0xdc,
    0x1b, 0x3e, 0x7a, 0x68, 0xd2, 0x3c, 0xd2, 0xf6, 0xe2, 0x3d,
    0xce, 0xf0, 0xea, 0xbd, 0xff, 0x79, 0xcd, 0xbd, 0xdf, 0x82,
    0x34, 0xbe, 0x4a, 0x71, 0xfd, 0x3b, 0xd2, 0xef, 0xc5, 0x3d,
    0xf7, 0x0b, 0x71, 0xbd, 0xe1, 0xa2, 0x0b, 0x3e, 0x9f, 0xdb,
    0xf0, 0x3d, 0x99, 0xfa, 0xad, 0xbb, 0x10, 0x7b, 0x06, 0xbe,
    0xdb, 0x30, 0xe3, 0x3d, 0x79, 0xea, 0xec, 0x3d, 0x1f, 0x38,
    0x0c, 0xbc, 0xe6, 0x3d, 0xe4, 0xbd, 0xf1, 0x20, 0x23, 0xbe,
    0x9e, 0xf7, 0xc3, 0xbd, 0x9a, 0x32, 0xa5, 0xbc, 0xf7, 0xfe,
    0x39, 0xbd, 0x92, 0xfb, 0xbd, 0xbe, 0x17, 0x46, 0xa4, 0x3d,
    0xb8, 0x38, 0x8c, 0x3e, 0x19, 0xbc, 0xb6, 0x3c, 0x56, 0x20,
    0x0a, 0x3e, 0x56, 0x71, 0x2e, 0xbe, 0x4d, 0x04, 0x48, 0x3d,
    0x35, 0x50, 0xec, 0x3d, 0xcb, 0xc0, 0x04, 0x3e, 0x49, 0x21,
    0x24, 0xbe, 0x77, 0xa4, 0x1f, 0xbd, 0x88, 0xab, 0x71, 0xbd,
    0x32, 0xc8, 0x3d, 0xbd, 0x5f, 0x9f, 0x00, 0x3e, 0x0d, 0x14,
    0x77, 0x3d, 0xa6, 0x6e, 0x48, 0xbe, 0xe2, 0x06, 0x6e, 0xbe,
    0x70, 0xed, 0xd2, 0x3d, 0xcf, 0x7d, 0x7b, 0x3d, 0xb0, 0x27,
    0x6a, 0xbc, 0x8a, 0x1c, 0xcf, 0xbd, 0x6d, 0x29, 0x24, 0x3d,
    0x9c, 0x83, 0xa5, 0x3d, 0xef, 0xb0, 0x36, 0x3e, 0x95, 0xa5,
    0x13, 0xbe, 0x39, 0xf8, 0xba, 0xbd, 0x81, 0xc9, 0x92, 0x3d,
    0x92, 0x77, 0xe8, 0x3d, 0x62, 0x7c, 0x05, 0xbe, 0x02, 0x46,
    0x1e, 0xbe, 0xdf, 0x9b, 0x28, 0xbe, 0x12, 0xe6, 0x2b, 0xbe,
    0x7f, 0x56, 0xa8, 0xbe, 0x89, 0xe1, 0x1d, 0x3d, 0x0c, 0xda,
    0x30, 0x3e, 0xbd, 0x56, 0x21, 0xbd, 0xa0, 0x06, 0xfc, 0xbb,
    0x1e, 0x80, 0x7f, 0x3d, 0x77, 0x1c, 0x1f, 0x3e, 0xa7, 0x2f,
    0xcd, 0x3d, 0x80, 0x81, 0x7f, 0x3d, 0x3d, 0x55, 0x59, 0x3d,
    0x08, 0x03, 0xae, 0x3d, 0xc2, 0x95, 0x01, 0xbe, 0xa7, 0x8f,
    0x91, 0xbd, 0xb8, 0xf5, 0xe1, 0x3c, 0x45, 0x41, 0x97, 0xbd,
    0x40, 0xb3, 0x87, 0xbd, 0x27, 0x52, 0x4b, 0xbe, 0x1d, 0xe9,
    0x0c, 0x3e, 0xb0, 0x1c, 0xa8, 0xbd, 0x32, 0xac, 0xdd, 0xbd,
    0xf4, 0x99, 0x23, 0x3d, 0xcc, 0x5a, 0xe5, 0xbd, 0x01, 0xa4,
    0x9b, 0x3d, 0x5e, 0x19, 0x0c, 0xbd, 0xc3, 0x6b, 0xa5, 0xbd,
    0xb8, 0x74, 0xbe, 0x3d, 0x35, 0xa5, 0xbb, 0xbd, 0x88, 0x26,
    0xf5, 0x3d, 0xdf, 0xa0, 0x26, 0x3d, 0xc3, 0x1a, 0x0e, 0x3e,
    0xe8, 0xf5, 0x86, 0x3d, 0xf0, 0x81, 0xb2, 0xbd, 0x90, 0xa3,
    0x2b, 0xbe, 0x74, 0x0b, 0xcb, 0xbd, 0xbb, 0x27, 0xe9, 0x3d,
    0xc0, 0xc8, 0x54, 0xbd, 0x7d, 0x0e, 0x21, 0xbe, 0x12, 0x12,
    0x0d, 0xbe, 0x60, 0x26, 0xd7, 0xbd, 0x5d, 0x65, 0xcf, 0x3c,
    0x2d, 0xf7, 0x0c, 0xbe, 0x99, 0xe8, 0x4f, 0xba, 0x32, 0x2f,
    0xe0, 0xb9, 0xe9, 0x2e, 0x8c, 0x3c, 0x48, 0x63, 0x6a, 0xbd,
    0x1f, 0x91, 0x1e, 0x3e, 0xfa, 0x25, 0x0c, 0xbe, 0x93, 0x93,
    0xbf, 0xbd, 0x84, 0x8d, 0x88, 0x3c, 0x20, 0xfe, 0x3f, 0xbe,
    0x75, 0x31, 0x97, 0x3d, 0x17, 0xfb, 0x93, 0xbe, 0x27, 0xdc,
    0x21, 0xbd, 0x9e, 0xca, 0xaa, 0xbd, 0x68, 0x7f, 0x23, 0x3e,
    0x64, 0xd2, 0x89, 0x3d, 0xc5, 0xff, 0xa0, 0xbd, 0x38, 0xad,
    0x06, 0x3e, 0xf1, 0xb1, 0xc4, 0xbd, 0xa7, 0xd1, 0x09, 0x3e,
    0x7d, 0xff, 0x81, 0x3d, 0x40, 0x5f, 0x6a, 0x3b, 0x39, 0x29,
    0x27, 0xbe, 0x19, 0x1d, 0x77, 0xbe, 0x96, 0x8f, 0x92, 0xbe,
    0xdf, 0xee, 0x37, 0x3d, 0xb6, 0x73, 0x95, 0x3d, 0x94, 0x7f,
    0x62, 0xbe, 0xaa, 0xed, 0x06, 0xbe, 0x4c, 0x11, 0x9d, 0xbb,
    0xd1, 0x40, 0xc7, 0xbc, 0x1f, 0xb9, 0x69, 0x3c, 0x1f, 0x90,
    0xf2, 0xbc, 0x15, 0xfc, 0x74, 0x3d, 0x57, 0xd4, 0x01, 0x3d,
    0x09, 0x88, 0x2e, 0xbe, 0x62, 0x7c, 0x22, 0xbe, 0x2a, 0xc9,
    0xe1, 0x3d, 0xd6, 0xd4, 0xa7, 0xbd, 0x6a, 0xc3, 0x28, 0xbe,
    0x60, 0xe9, 0xa5, 0xbe, 0x9a, 0x36, 0xe4, 0x3d, 0x3c, 0x18,
    0x8a, 0x3e, 0xe9, 0xcb, 0xaf, 0xbe, 0x6e, 0x83, 0xde, 0x3d,
    0x0d, 0x40, 0x48, 0xbd, 0xdc, 0x39, 0x93, 0xbd, 0x03, 0x4d,
    0x4d, 0x3e, 0xd2, 0x20, 0x17, 0x3e, 0x49, 0x84, 0xf2, 0xbd,
    0x8b, 0x23, 0xc1, 0x3d, 0x7c, 0xc9, 0x5c, 0x3e, 0xe5, 0x78,
    0x71, 0xbe, 0x66, 0xb4, 0xd3, 0x3d, 0xb4, 0x73, 0x38, 0x3c,
    0x61, 0x16, 0xf3, 0x3d, 0x91, 0xf5, 0x31, 0xbe, 0x18, 0x13,
    0x86, 0x3d, 0x7d, 0x9f, 0x31, 0xbd, 0x83, 0x81, 0xcf, 0xbe,
    0x99, 0xab, 0xbc, 0xbd, 0xea, 0x1e, 0xd2, 0xbd, 0xa9, 0x16,
    0x9e, 0x3d, 0x7d, 0x9a, 0x59, 0x3e, 0x4c, 0x8d, 0x59, 0x3e,
    0x7a, 0xce, 0x54, 0x3d, 0x4a, 0x08, 0xe0, 0xbc, 0x8c, 0x85,
    0x21, 0x3e, 0x3d, 0x61, 0xc0, 0x3d, 0x7b, 0xa1, 0xbb, 0xbd,
    0xf7, 0x5a, 0x09, 0x3e, 0x98, 0x85, 0x63, 0xbc, 0xbe, 0x81,
    0x6e, 0xbe, 0x18, 0x40, 0x51, 0xbd, 0xcd, 0x7c, 0x83, 0x3b,
    0x71, 0x88, 0x1a, 0x3d, 0xde, 0x27, 0x61, 0x3d, 0xca, 0xd7,
    0x49, 0x3d, 0xf9, 0x19, 0xd2, 0xbc, 0xec, 0xcc, 0x36, 0x3e,
    0xc9, 0xc5, 0x28, 0x3d, 0x50, 0xf9, 0xde, 0xbc, 0x3a, 0x49,
    0x02, 0xbe, 0x0d, 0x0a, 0x4e, 0x3e, 0x9c, 0x32, 0x93, 0x3d,
    0x50, 0x1d, 0x5e, 0xbd, 0x5b, 0xa1, 0x98, 0xbb, 0x0e, 0x9c,
    0x00, 0x3d, 0xc9, 0xf1, 0xa0, 0xbe, 0x13, 0x53, 0x00, 0x3e,
    0x88, 0x89, 0xc6, 0x3c, 0xd5, 0x16, 0xe1, 0xbe, 0xab, 0xf4,
    0x3d, 0xbd, 0x92, 0x28, 0x99, 0xbd, 0x79, 0x0c, 0x01, 0x3e,
    0xf5, 0xfa, 0x3e, 0x3e, 0x14, 0x7f, 0xb1, 0x3c, 0x3a, 0x53,
    0xfe, 0x3d, 0x53, 0x11, 0xbe, 0xbd, 0xc9, 0xf6, 0x48, 0xbd,
    0x54, 0x50, 0xc9, 0x3d, 0x50, 0x3d, 0xc8, 0xbd, 0xdc, 0xff,
    0x0d, 0x3e, 0x1b, 0xac, 0x37, 0xbd, 0x62, 0x56, 0x97, 0xbe,
    0xbb, 0x4f, 0x97, 0x3d, 0xa1, 0x0d, 0x2e, 0xbc, 0xda, 0xfc,
    0xec, 0xbe, 0x4b, 0xac, 0x0a, 0x3e, 0xe3, 0x5b, 0x7d, 0xbd,
    0xf2, 0x9e, 0x99, 0xbd, 0xea, 0x9c, 0x1a, 0x3e, 0x30, 0xce,
    0x4a, 0x3d, 0x80, 0x84, 0x76, 0x3d, 0x17, 0xf2, 0xb1, 0x3d,
    0x4d, 0x74, 0xa4, 0x3a, 0xf5, 0x62, 0xc5, 0x3d, 0x05, 0x87,
    0x0c, 0x3d, 0xeb, 0x85, 0x26, 0xbe, 0x6b, 0xa8, 0xc5, 0xbd,
    0x56, 0xb8, 0x3c, 0xbe, 0x09, 0xbd, 0xfa, 0xbc, 0xf1, 0x9f,
    0xda, 0x3d, 0xae, 0x60, 0x7e, 0xbe, 0x4f, 0xc0, 0x57, 0x3d,
    0x47, 0x70, 0x4d, 0x3e, 0xb8, 0x8d, 0xc6, 0xbe, 0x8b, 0x89,
    0x4d, 0x3e, 0x1b, 0x49, 0x28, 0xbe, 0x64, 0x52, 0x96, 0x3c,
    0xd6, 0xfb, 0x40, 0x3d, 0xf1, 0x59, 0xb8, 0x3d, 0x64, 0x97,
    0xb2, 0xbd, 0x33, 0xed, 0xc5, 0xbc, 0xfd, 0x59, 0xee, 0x3d,
    0xc3, 0x6c, 0x13, 0xbe, 0xe2, 0xb7, 0xa7, 0xbe, 0xca, 0x45,
    0x02, 0x3e, 0xe9, 0x45, 0x38, 0x3d, 0xdb, 0x41, 0x9e, 0xbe,
    0xa4, 0xa2, 0x1f, 0x3d, 0xa4, 0xbb, 0xcc, 0x3b, 0x40, 0x71,
    0x57, 0xbe, 0x7d, 0x73, 0xbb, 0xbb, 0x22, 0x5f, 0x2e, 0x3d,
    0x69, 0x98, 0xfd, 0x3d, 0x43, 0xb2, 0x41, 0xbd, 0xcf, 0x3c,
    0x8f, 0x3d, 0xc4, 0xd8, 0x1e, 0xbd, 0xd6, 0x8c, 0x1a, 0xbd,
    0xbf, 0xe5, 0x3b, 0x3e, 0xdc, 0x82, 0x79, 0xbe, 0x2a, 0xa2,
    0x95, 0xbe, 0x68, 0x71, 0xaf, 0x3a, 0xe2, 0xe9, 0x34, 0xbe,
    0xfc, 0x34, 0x8a, 0xbe, 0x26, 0xb9, 0xec, 0x3d, 0xd8, 0x9d,
    0xf5, 0xbd, 0x06, 0x2a, 0x46, 0x3e, 0x97, 0xe6, 0x73, 0xbd,
    0x49, 0xb6, 0x2d, 0xbd, 0xdc, 0x1a, 0x8b, 0xbd, 0xb0, 0x56,
    0xc3, 0x3d, 0x33, 0xcc, 0xd2, 0xb9, 0x53, 0x2b, 0x09, 0xbe,
    0x47, 0xfc, 0xc1, 0xbd, 0x5d, 0x8a, 0x57, 0xbc, 0x99, 0xed,
    0x57, 0xbe, 0x92, 0xd8, 0x2b, 0xbe, 0x50, 0x84, 0x77, 0x3d,
    0xd0, 0x49, 0x3e, 0xbd, 0x3a, 0x22, 0x0f, 0xbe, 0x23, 0xec,
    0x33, 0x3e, 0x3d, 0x19, 0x51, 0xbd, 0xfd, 0x67, 0x85, 0xbe,
    0xdc, 0xb4, 0x19, 0x3e, 0x15, 0xf6, 0x97, 0xbd, 0x05, 0xa0,
    0x8b, 0xbb, 0x79, 0x3b, 0xc8, 0x3d, 0xfa, 0xd7, 0xee, 0x3d,
    0x86, 0x18, 0x8e, 0xbd, 0x2f, 0x62, 0xea, 0x3c, 0xe7, 0x5a,
    0x18, 0x3e, 0x8d, 0x0a, 0x0f, 0xbe, 0xc3, 0x84, 0x5b, 0xbe,
    0xb2, 0xef, 0xd8, 0xbd, 0x74, 0x0b, 0x6a, 0x3b, 0xe8, 0xc0,
    0x2d, 0xbe, 0xfb, 0x3e, 0x4f, 0xbb, 0x4d, 0xd1, 0xff, 0x3b,
    0xbc, 0x42, 0x8e, 0xbd, 0x74, 0x1a, 0x98, 0x3d, 0x99, 0xb0,
    0xcf, 0xbc, 0x12, 0xe8, 0x0b, 0xbe, 0x54, 0xa5, 0x0d, 0xbe,
    0xeb, 0x2f, 0x62, 0x3d, 0xe0, 0x42, 0xa0, 0xbd, 0x53, 0xa1,
    0x82, 0x3c, 0x3d, 0x46, 0x0a, 0xbb, 0xc0, 0xac, 0x77, 0xbe,
    0x8d, 0xc1, 0x04, 0xbe, 0xa1, 0x76, 0x02, 0x3e, 0x59, 0x17,
    0xa4, 0x3d, 0x87, 0x92, 0x97, 0xbe, 0xbc, 0x08, 0xa5, 0x3d,
    0x59, 0x21, 0x84, 0x3d, 0xc0, 0x8b, 0x94, 0x3d, 0xce, 0x57,
    0xc3, 0xbd, 0x82, 0xce, 0x76, 0x3d, 0x07, 0xdb, 0xe6, 0xbd,
    0xb8, 0xa6, 0x23, 0xbe, 0xb7, 0xf9, 0x8f, 0x3e, 0xab, 0x8e,
    0x11, 0xbe, 0x2a, 0x9c, 0xd6, 0x3d, 0x7d, 0x2e, 0xf0, 0x3d,
    0xd8, 0xb1, 0x49, 0xbe, 0x12, 0x2f, 0xbe, 0xbe, 0x44, 0x61,
    0x5e, 0xbd, 0xfa, 0xe3, 0x69, 0xbe, 0x09, 0x41, 0x46, 0xbe,
    0x91, 0x21, 0xa1, 0xbd, 0xb0, 0x39, 0xe3, 0x3d, 0x52, 0xef,
    0xa7, 0xbc, 0x87, 0x0d, 0xa4, 0x3d, 0x47, 0x7c, 0x2e, 0xbe,
    0x33, 0xf8, 0x05, 0xbd, 0x0d, 0x44, 0xdd, 0xbd, 0xc8, 0x95,
    0xd0, 0x3c, 0x27, 0x73, 0x1c, 0x3e, 0x1d, 0x38, 0x15, 0xbb,
    0x1c, 0x6d, 0x1c, 0x3e, 0x59, 0xee, 0x99, 0xbd, 0xb0, 0x49,
    0xcb, 0xbe, 0xc9, 0x5a, 0xc9, 0x3d, 0x16, 0x8c, 0x7f, 0x3c,
    0x0a, 0xba, 0x16, 0x3d, 0xcc, 0x72, 0x0f, 0xbd, 0x93, 0xf1,
    0x54, 0x3d, 0xcd, 0x8b, 0x06, 0x3d, 0xa6, 0x60, 0x90, 0x3d,
    0x89, 0xbe, 0x6b, 0x3c, 0xd3, 0xb7, 0x0a, 0x3e, 0x7b, 0xb0,
    0x3c, 0xbe, 0x2f, 0xf3, 0xde, 0xbc, 0x6e, 0x79, 0x36, 0xbe,
    0x40, 0xd0, 0x3b, 0x3d, 0xce, 0xe0, 0xf9, 0x3d, 0x82, 0xf9,
    0x12, 0xbd, 0xa4, 0xaa, 0x91, 0xbe, 0x50, 0x87, 0xc1, 0xbc,
    0xa3, 0x7a, 0x25, 0xbe, 0x70, 0x60, 0x14, 0xbe, 0x08, 0x64,
    0xdc, 0x3d, 0xea, 0xbc, 0x43, 0xbe, 0xab, 0x80, 0x54, 0xbc,
    0x8f, 0x33, 0x4a, 0x3e, 0xb3, 0xb7, 0x3f, 0x3d, 0xe3, 0xe4,
    0xbc, 0xbd, 0xcc, 0x5f, 0x25, 0xbe, 0x3f, 0x20, 0x3e, 0xbd,
    0x24, 0x92, 0x0d, 0x3e, 0xee, 0x23, 0xeb, 0xbd, 0x1f, 0x3c,
    0x63, 0x3d, 0xe9, 0xb9, 0x63, 0xbe, 0x8e, 0x82, 0x0f, 0xbe,
    0x52, 0x76, 0x90, 0x3c, 0x74, 0x7a, 0x3c, 0x3b, 0xc9, 0x33,
    0x87, 0xba, 0x76, 0xc4, 0x03, 0xbe, 0xe6, 0x96, 0x96, 0x3d,
    0x53, 0x0a, 0xa0, 0xbd, 0x7d, 0x82, 0xcf, 0xbc, 0x70, 0xb3,
    0x76, 0xbe, 0xee, 0xd6, 0x09, 0xbe, 0x01, 0x9f, 0xbe, 0x3c,
    0x11, 0x10, 0xc2, 0x3c, 0xb5, 0x29, 0x81, 0xbd, 0xa8, 0x60,
    0x92, 0x3d, 0x4e, 0xfc, 0xc0, 0xbd, 0x82, 0xa2, 0x67, 0xbc,
    0xa6, 0xc4, 0xd8, 0xbd, 0x03, 0xc9, 0xe4, 0x3d, 0x18, 0x8e,
    0x1d, 0xbd, 0x46, 0xc8, 0x25, 0xbe, 0xa8, 0xed, 0x87, 0x3d,
    0xdc, 0x83, 0x0b, 0xbe, 0xec, 0xd0, 0xd7, 0xbd, 0xbd, 0xba,
    0x0c, 0x3d, 0xf3, 0xd6, 0x2d, 0x3b, 0x92, 0xee, 0xef, 0xbd,
    0x8f, 0x22, 0xff, 0xbd, 0x75, 0x9c, 0x6b, 0xbc, 0x92, 0x69,
    0x21, 0xbe, 0x0a, 0xa1, 0xee, 0x3d, 0x46, 0x5d, 0x5d, 0x3d,
    0x6a, 0xfd, 0x9b, 0x3d, 0xdb, 0x76, 0x18, 0xbe, 0xfe, 0xec,
    0x15, 0x3e, 0xa9, 0x22, 0xa0, 0xbd, 0x28, 0xd4, 0x38, 0xbe,
    0xea, 0x7c, 0xff, 0x3d, 0xd7, 0xab, 0x27, 0xbd, 0xba, 0xdc,
    0x4f, 0xbd, 0xdb, 0x3b, 0xa2, 0x3c, 0x9e, 0x84, 0xf4, 0xbd,
    0x10, 0xbb, 0x03, 0x3d, 0x06, 0xce, 0xa5, 0xbc, 0xff, 0x27,
    0xcb, 0x3c, 0x67, 0xa1, 0xa5, 0xbd, 0x51, 0xbf, 0x1c, 0x3e,
    0xf3, 0xe7, 0x14, 0xbe, 0x16, 0x76, 0x48, 0xbe, 0x4a, 0x98,
    0x3a, 0xbe, 0x73, 0xbc, 0x03, 0x3e, 0x62, 0x0f, 0xe8, 0xbd,
    0x8f, 0x7a, 0x18, 0xbe, 0xac, 0x91, 0x0e, 0xbd, 0xa5, 0x6d,
    0xc8, 0x3d, 0x64, 0x53, 0xa4, 0xbd, 0x94, 0xe8, 0x04, 0xbe,
    0x3f, 0x33, 0x4a, 0xbe, 0x2b, 0x81, 0x16, 0xbe, 0xd7, 0xd2,
    0x01, 0x3e, 0x68, 0x6d, 0xfe, 0x3d, 0x6f, 0x92, 0xfd, 0x3b,
    0x57, 0x63, 0x02, 0x3e, 0xc4, 0x93, 0x28, 0xbe, 0x70, 0xb6,
    0x2e, 0xbe, 0x7a, 0x2a, 0x95, 0xbd, 0x02, 0x2f, 0x1a, 0xbe,
    0x30, 0x62, 0x2d, 0xbd, 0xc0, 0x5d, 0x0c, 0x3d, 0x66, 0x65,
    0x14, 0x3e, 0x4b, 0x12, 0xd7, 0x3d, 0xa6, 0xbe, 0x01, 0xbd,
    0xe3, 0x3b, 0xa6, 0xbd, 0xcd, 0xaa, 0x2b, 0xbe, 0xde, 0x5d,
    0xf3, 0xbc, 0x1c, 0xd8, 0x9c, 0x3d, 0x3c, 0xe1, 0xa2, 0x3c,
    0xea, 0x4b, 0x44, 0x3d, 0x88, 0x45, 0xed, 0xbd, 0x71, 0xb2,
    0x12, 0x3e, 0x38, 0x2d, 0xa1, 0xbd, 0x78, 0x45, 0xfe, 0xbd,
    0x96, 0x95, 0xd4, 0x3d, 0xd5, 0x20, 0xa8, 0x3c, 0x26, 0x32,
    0x41, 0x3d, 0x82, 0x81, 0xd4, 0x3d, 0xe5, 0x58, 0xe3, 0x3d,
    0x97, 0x62, 0x1d, 0xbe, 0xe2, 0x00, 0x34, 0x3d, 0xf4, 0x14,
    0x21, 0x3d, 0x84, 0x48, 0x0e, 0x3d, 0xa0, 0x3b, 0xf0, 0xbc,
    0xc3, 0x0d, 0x31, 0xbd, 0x2f, 0x11, 0x11, 0xbe, 0x69, 0xa6,
    0x50, 0x3d, 0xaf, 0xec, 0x8e, 0x3c, 0x82, 0xc0, 0x74, 0xbd,
    0x93, 0x99, 0x38, 0xbe, 0x04, 0x12, 0x08, 0x3e, 0xe5, 0xd4,
    0x94, 0xbd, 0x36, 0x08, 0x7e, 0xbd, 0xba, 0x89, 0xe9, 0x3c,
    0x61, 0x9c, 0x31, 0xbe, 0x6e, 0xc7, 0xac, 0xbd, 0x91, 0x84,
    0xfc, 0x3c, 0x83, 0x75, 0x2d, 0xbe, 0xc7, 0x50, 0xe1, 0x3c,
    0x83, 0xbd, 0x90, 0xbd, 0xe6, 0x9a, 0xdf, 0x3d, 0x00, 0xc4,
    0xac, 0x3d, 0xdf, 0xff, 0xdf, 0xbd, 0x20, 0x72, 0xb7, 0xbd,
    0xce, 0x51, 0x79, 0xbd, 0xbb, 0xda, 0x1d, 0xbe, 0x10, 0x42,
    0x05, 0x3e, 0xe2, 0x63, 0xca, 0xbd, 0x4c, 0x88, 0xec, 0xbc,
    0xd1, 0x06, 0x39, 0xbc, 0x68, 0x05, 0x0f, 0xbe, 0x9b, 0x41,
    0x18, 0xbe, 0x13, 0x33, 0x0d, 0xbe, 0xbe, 0xad, 0x74, 0x3c,
    0x68, 0x4f, 0x69, 0xbd, 0xf4, 0xb7, 0xc7, 0x3d, 0x9b, 0x6c,
    0xb4, 0x3d, 0xa7, 0x4a, 0x6c, 0x3d, 0x3b, 0x01, 0x20, 0xbe,
    0xce, 0x1c, 0xf8, 0x3c, 0xed, 0x72, 0x1f, 0xbe, 0xa8, 0x63,
    0x12, 0xbe, 0xad, 0x19, 0x3e, 0x3c, 0xcf, 0x70, 0x5e, 0x3d,
    0x35, 0x08, 0xfe, 0xba, 0x4d, 0xe1, 0xcb, 0xbc, 0x6d, 0x72,
    0xf2, 0x3d, 0xf2, 0x6b, 0x4f, 0xbd, 0xa8, 0x48, 0x6c, 0xbd,
    0xe7, 0x35, 0x98, 0xbb, 0xf0, 0xaa, 0x3a, 0xbd, 0xb0, 0xce,
    0x2f, 0xbd, 0xf8, 0x36, 0x1e, 0xbd, 0xde, 0xb4, 0xa9, 0x3d,
    0x24, 0xd6, 0x27, 0x3d, 0xe3, 0xde, 0x05, 0xbe, 0x95, 0xcc,
    0x3d, 0xbd, 0x77, 0x3a, 0xd9, 0xbd, 0x95, 0xbd, 0xc2, 0xbc,
    0x5e, 0xb3, 0x0c, 0x3c, 0xb5, 0x0d, 0x39, 0xbd, 0x4a, 0x68,
    0xee, 0x3c, 0xa5, 0x3f, 0x28, 0xbe, 0xcc, 0x9d, 0xc6, 0xba,
    0xc5, 0x92, 0xaa, 0xbc, 0x8a, 0xca, 0x10, 0xbe, 0xca, 0x47,
    0x3d, 0x3c, 0x0d, 0x22, 0x53, 0x3d, 0xc9, 0x8f, 0x67, 0xbd,
    0x87, 0xcd, 0x13, 0xbe, 0x14, 0x36, 0xf6, 0x3c, 0x6c, 0x1c,
    0xcf, 0x3d, 0x23, 0x46, 0xe1, 0xba, 0xe0, 0x8d, 0xf8, 0xbd,
    0x21, 0x60, 0xd1, 0x3d, 0xd4, 0x0b, 0xc6, 0x3d, 0x6a, 0xd0,
    0xd1, 0x3c, 0xa0, 0xe4, 0x19, 0x3e, 0xdc, 0xb8, 0x8b, 0xbd,
    0x16, 0xb0, 0x85, 0xbd, 0x41, 0x5a, 0xb0, 0xbd, 0x58, 0x75,
    0x76, 0xbd, 0x60, 0xd9, 0x08, 0xbb, 0x8a, 0xe1, 0x25, 0x3e,
    0x76, 0xec, 0x19, 0xbe, 0x54, 0x29, 0xdf, 0xbd, 0x08, 0x00,
    0xa0, 0x3d, 0x9b, 0x88, 0x15, 0xbe, 0x16, 0xd2, 0x5a, 0xbd,
    0x79, 0xd4, 0xf7, 0xbd, 0xed, 0x31, 0x64, 0xbc, 0x14, 0x3e,
    0x07, 0xbe, 0x2d, 0xcf, 0xf2, 0xbd, 0xc8, 0x3a, 0x05, 0xbe,
    0x2b, 0x1a, 0xb9, 0x3d, 0xc6, 0xc2, 0x65, 0x3d, 0x5e, 0x9c,
    0x2c, 0xbe, 0x9e, 0x07, 0x70, 0xbe, 0xa5, 0xed, 0x32, 0x3c,
    0x48, 0xc0, 0x8b, 0xbd, 0x03, 0xc2, 0xab, 0x3d, 0xe0, 0x43,
    0xd4, 0xbd, 0xcf, 0xcc, 0xf5, 0xbd, 0x88, 0x3e, 0x08, 0x3e,
    0x7e, 0xbc, 0x0c, 0xbd, 0xfe, 0x16, 0x9f, 0xbc, 0x53, 0x9a,
    0x9b, 0x3d, 0x02, 0x41, 0xae, 0xbc, 0xcc, 0x63, 0x1c, 0xbd,
    0xa5, 0xd2, 0x23, 0x3e, 0xd4, 0xb1, 0xa9, 0x3d, 0xdb, 0xa8,
    0x4a, 0xbc, 0xf5, 0x3b, 0x88, 0xbc, 0xb8, 0x26, 0x80, 0xbd,
    0x6a, 0x5d, 0xc3, 0xbd, 0xd9, 0xb3, 0x9a, 0x3b, 0x46, 0x79,
    0xa4, 0xbd, 0x44, 0x69, 0x20, 0xbe, 0xf8, 0xd7, 0x05, 0x3e,
    0xe2, 0x4a, 0xac, 0xbd, 0xa7, 0x56, 0xd3, 0x3a, 0x26, 0xe6,
    0x1a, 0xbd, 0x0b, 0x1f, 0x09, 0xbc, 0xb5, 0xb4, 0x87, 0xbe,
    0x13, 0x8c, 0x0f, 0xbd, 0xc4, 0x41, 0xbc, 0xbd, 0x93, 0xfe,
    0xf3, 0xbd, 0x3d, 0xff, 0x0f, 0xbe, 0x7f, 0xae, 0xad, 0xbd,
    0x72, 0x58, 0x61, 0xbd, 0xde, 0xd0, 0x2a, 0x3c, 0x80, 0x87,
    0xf7, 0xbd, 0xb4, 0x98, 0x70, 0xbe, 0x3a, 0xf7, 0x37, 0x3d,
    0xd1, 0xde, 0x0d, 0x3e, 0x2b, 0xa4, 0x6b, 0x3d, 0x50, 0x3c,
    0xd3, 0xbd, 0x71, 0x02, 0x19, 0xbe, 0x71, 0xf4, 0xd5, 0x3d,
    0x98, 0x63, 0x7c, 0x3e, 0xa3, 0x48, 0xde, 0xbc, 0x0c, 0x0c,
    0x3f, 0x3e, 0x72, 0x78, 0x25, 0xbe, 0x56, 0x46, 0x73, 0x3d,
    0xbb, 0x01, 0xf3, 0x3d, 0x8c, 0x4c, 0xaa, 0x3d, 0x4b, 0x65,
    0x13, 0x3e, 0x49, 0x2c, 0xb1, 0x3e, 0x52, 0x13, 0x8e, 0xbd,
    0x49, 0x99, 0xef, 0xbd, 0x87, 0x9d, 0xcb, 0xbd, 0xb1, 0x60,
    0x1c, 0x3e, 0xc3, 0x1b, 0xe7, 0x3e, 0xf4, 0x59, 0x90, 0xbd,
    0x22, 0xbc, 0xdb, 0xbd, 0xa8, 0x1a, 0xf0, 0x3c, 0xfc, 0x56,
    0xcc, 0xbc, 0x06, 0xe8, 0xa7, 0x3d, 0x66, 0xaf, 0xd2, 0xbd,
    0x4f, 0x6e, 0xce, 0x3d, 0x86, 0x50, 0x20, 0xbe, 0x32, 0x52,
    0xce, 0x3d, 0x84, 0x90, 0x9b, 0xbc, 0xb4, 0x1d, 0x05, 0x3e,
    0xc8, 0xda, 0xd5, 0xbd, 0x3c, 0x30, 0xa0, 0x3d, 0x08, 0xe4,
    0x66, 0x3d, 0xa5, 0x4c, 0xae, 0xbb, 0xf3, 0xce, 0x05, 0x3e,
    0x66, 0x43, 0x60, 0xbd, 0x55, 0xd3, 0xa9, 0xbc, 0xda, 0x07,
    0x9b, 0x3d, 0xa7, 0xa5, 0xc9, 0xbc, 0x19, 0xaa, 0x1a, 0xbe,
    0x9d, 0x39, 0xd4, 0xbc, 0x30, 0x3d, 0x2e, 0x3c, 0x7e, 0x10,
    0x88, 0x3d, 0xcf, 0xb2, 0x13, 0x3e, 0x1a, 0xe0, 0x56, 0x3d,
    0xa1, 0xd0, 0xf5, 0x3b, 0x47, 0x95, 0xd2, 0x3d, 0x52, 0x34,
    0xa9, 0xbd, 0x14, 0x78, 0x69, 0x3d, 0x38, 0x38, 0x1b, 0x3e,
    0x80, 0xf6, 0x2f, 0xbd, 0x99, 0x0d, 0xb1, 0xbd, 0x9e, 0x77,
    0x20, 0x3d, 0x19, 0xac, 0xf8, 0x3d, 0x94, 0x52, 0x73, 0xbc,
    0x66, 0xf1, 0x83, 0x3d, 0xb4, 0x59, 0xc9, 0xbd, 0x54, 0x30,
    0xda, 0x3d, 0x7d, 0x09, 0xeb, 0x3e, 0x9a, 0xaf, 0x43, 0xbe,
    0x00, 0xf9, 0xce, 0xbd, 0x98, 0x02, 0x51, 0xbd, 0x3c, 0xcc,
    0x1c, 0xbd, 0x94, 0xf4, 0x0d, 0xbe, 0xf2, 0xb0, 0x4a, 0xbd,
    0x0a, 0x28, 0x72, 0x3e, 0x54, 0xd8, 0x09, 0xbe, 0x35, 0x52,
    0xea, 0xbd, 0xe8, 0x5b, 0xc3, 0x3d, 0x10, 0x45, 0x74, 0x3d,
    0xa7, 0x3b, 0x72, 0xbc, 0x3f, 0xfc, 0xa8, 0x3d, 0xe6, 0x66,
    0x26, 0xbe, 0x21, 0xb0, 0xac, 0x3d, 0x60, 0xaa, 0xdc, 0x3d,
    0xbd, 0xad, 0xcb, 0x3c, 0x9c, 0x6c, 0xe8, 0x3c, 0x4e, 0x53,
    0x07, 0x3e, 0x36, 0xa2, 0xc8, 0x3c, 0xeb, 0x06, 0xce, 0x3d,
    0xe3, 0xda, 0xec, 0xbd, 0x5d, 0xd0, 0xb4, 0x3d, 0xe1, 0x34,
    0x8c, 0xbd, 0xfc, 0x61, 0xdf, 0xbd, 0xb5, 0xd6, 0x1b, 0xbe,
    0x21, 0x5e, 0xa6, 0xbb, 0x58, 0x69, 0xa8, 0xbc, 0xfa, 0xe4,
    0x40, 0xbc, 0x48, 0x60, 0x9a, 0x3b, 0x0e, 0xf0, 0x10, 0x3d,
    0x79, 0x0d, 0xf1, 0x3d, 0x25, 0x40, 0xdf, 0xbc, 0x3a, 0x2f,
    0xa6, 0x3d, 0x34, 0x40, 0x64, 0x3d, 0x3d, 0xb2, 0xa9, 0xbd,
    0x82, 0x9c, 0x28, 0xbc, 0x94, 0x29, 0x54, 0xbd, 0xe5, 0x6d,
    0x13, 0x3e, 0x2d, 0x40, 0x97, 0xbc, 0x15, 0x2d, 0x99, 0xbd,
    0x54, 0x48, 0x03, 0x3e, 0x95, 0x8a, 0xb5, 0xbb, 0xe1, 0x7f,
    0xc1, 0xbc, 0xa6, 0x7e, 0xe4, 0x3d, 0x9e, 0x7e, 0x88, 0xbd,
    0x7a, 0x89, 0x8d, 0x3d, 0x0e, 0x4f, 0x9b, 0x3e, 0xb3, 0x6d,
    0x0a, 0xbd, 0xc6, 0x04, 0xae, 0xbd, 0x80, 0xe2, 0x5e, 0xbd,
    0xf9, 0x6d, 0xd8, 0xbd, 0x6f, 0x0f, 0x06, 0xbe, 0x64, 0xf3,
    0x0d, 0x3e, 0xa9, 0x26, 0x5b, 0x3e, 0x52, 0x2c, 0x92, 0xbd,
    0xe5, 0x9c, 0x47, 0xbd, 0xb8, 0xdc, 0x79, 0xbd, 0x5f, 0x3d,
    0x0e, 0x3d, 0x99, 0xd8, 0x3d, 0xbc, 0x6e, 0x2a, 0x98, 0xbd,
    0xdb, 0x8d, 0xe1, 0x3c, 0x76, 0x72, 0x48, 0x3d, 0xb5, 0x00,
    0x82, 0x3e, 0x93, 0xb2, 0xae, 0x3a, 0x55, 0x72, 0xf1, 0xbd,
    0x65, 0xd6, 0x14, 0x3e, 0xa7, 0x82, 0xbe, 0x3d, 0xf8, 0x83,
    0x95, 0x3d, 0x26, 0xf5, 0x90, 0xbd, 0xd5, 0x73, 0xfd, 0x3d,
    0x7d, 0x9c, 0x89, 0xbd, 0xa6, 0x61, 0x54, 0xbd, 0x8c, 0x19,
    0xbf, 0x3d, 0xdd, 0xef, 0xc0, 0x3b, 0x4b, 0xc9, 0xa9, 0xbb,
    0x9d, 0x0a, 0x93, 0x3d, 0xb0, 0x8b, 0xcb, 0x3d, 0xc0, 0x4b,
    0x90, 0x3d, 0xcc, 0x05, 0x14, 0x3e, 0xa0, 0xae, 0x07, 0x3d,
    0x89, 0x41, 0xdb, 0x3b, 0x9c, 0xd4, 0x02, 0xbe, 0x93, 0x04,
    0x8c, 0x3c, 0x14, 0x3a, 0x0f, 0xbd, 0x11, 0x57, 0xb9, 0xbc,
    0x76, 0xfb, 0xb8, 0x3e, 0x1f, 0x8f, 0xdf, 0xbc, 0x8e, 0x14,
    0xcb, 0xbc, 0xb6, 0x27, 0x87, 0x3d, 0xfa, 0xfe, 0xa0, 0xbd,
    0x9d, 0x40, 0x86, 0xbc, 0x36, 0x90, 0xb7, 0xbd, 0xf7, 0x20,
    0x2a, 0xbe, 0x84, 0x97, 0xf1, 0x3d, 0x58, 0xf6, 0x88, 0x3d,
    0x24, 0xef, 0xd7, 0xbc, 0x66, 0xad, 0x20, 0xbe, 0x0c, 0xef,
    0x2a, 0x3d, 0x43, 0xd6, 0x11, 0xbe, 0xad, 0x93, 0x8a, 0x3c,
    0x7e, 0x6c, 0xdc, 0x3d, 0x06, 0x27, 0x16, 0x3d, 0x3d, 0xd8,
    0xee, 0xbc, 0xf6, 0xda, 0x84, 0xbc, 0x01, 0x6f, 0x2e, 0x3c,
    0xaf, 0xf7, 0xcf, 0xbd, 0x6e, 0x06, 0x8d, 0xbc, 0xd9, 0x54,
    0xcc, 0x3d, 0xe3, 0xec, 0xcd, 0xbd, 0x9b, 0x6c, 0x3c, 0x3d,
    0xed, 0x92, 0x43, 0x3d, 0x63, 0xc8, 0x04, 0xbc, 0xed, 0x62,
    0xac, 0xbd, 0x7d, 0xe9, 0xbc, 0x3d, 0xf1, 0x00, 0x1d, 0x3e,
    0xff, 0xd7, 0x81, 0x3e, 0x83, 0xd2, 0xfc, 0xbd, 0x6c, 0xc9,
    0x82, 0xbc, 0xfe, 0x8c, 0xf5, 0xbd, 0x74, 0xb9, 0x09, 0xbb,
    0x01, 0x8a, 0xa2, 0xbd, 0x4c, 0x7a, 0xba, 0xbd, 0xe1, 0x27,
    0xd9, 0xbc, 0xc6, 0xff, 0xea, 0xbd, 0xfc, 0xde, 0x71, 0x3d,
    0x4b, 0xab, 0x31, 0x3d, 0x3c, 0xc2, 0x97, 0x3d, 0xaf, 0xa6,
    0xea, 0x3c, 0x9e, 0xe6, 0x2f, 0xbe, 0x5c, 0x06, 0x08, 0x3b,
    0xce, 0x37, 0xa7, 0x3d, 0xae, 0xe3, 0x14, 0x3e, 0x77, 0xb4,
    0x8b, 0x3d, 0x50, 0x9a, 0x49, 0x3e, 0x7a, 0x8f, 0xa1, 0xbd,
    0xc9, 0x89, 0xf2, 0xbb, 0x8a, 0xb9, 0xaf, 0x3d, 0x34, 0x82,
    0x2f, 0xbe, 0x19, 0x04, 0xd9, 0xbc, 0xcd, 0x66, 0xb1, 0x3d,
    0xbf, 0x17, 0xd0, 0x3c, 0xe4, 0x08, 0x94, 0x3c, 0x7c, 0x86,
    0x72, 0x3e, 0x15, 0x72, 0x23, 0xbb, 0xaf, 0xed, 0xbf, 0xbd,
    0xfe, 0x2e, 0x8e, 0xbd, 0x43, 0x79, 0xbc, 0xbd, 0xf4, 0xc5,
    0xca, 0x3c, 0x8f, 0x53, 0x06, 0x3e, 0xf5, 0xff, 0xff, 0x3c,
    0x00, 0xe0, 0x9e, 0xbd, 0x1b, 0x55, 0x9d, 0xbc, 0x05, 0x59,
    0xed, 0xbd, 0xec, 0x86, 0xd0, 0xbd, 0xc3, 0xee, 0xee, 0xbc,
    0xfd, 0xf8, 0x44, 0xbd, 0xdd, 0x20, 0x4a, 0xbe, 0xea, 0x5a,
    0x2d, 0x3e, 0xcc, 0xa6, 0xaf, 0x3c, 0x4e, 0x21, 0xed, 0x3c,
    0x8a, 0xdf, 0x81, 0x3d, 0x8d, 0x33, 0x02, 0x3d, 0x99, 0x84,
    0x16, 0x3e, 0x47, 0xab, 0x1e, 0x3e, 0xb8, 0xa3, 0x01, 0xbe,
    0x2e, 0xb0, 0xa9, 0x3c, 0x86, 0x4e, 0xd8, 0x3d, 0x5e, 0x90,
    0x3c, 0x3e, 0x61, 0x8e, 0x11, 0x3e, 0xdb, 0xd2, 0x43, 0xbd,
    0xc7, 0xbb, 0x19, 0xbe, 0xf3, 0x15, 0xd1, 0x3d, 0x35, 0x71,
    0x98, 0x3e, 0xda, 0x16, 0x86, 0x3c, 0x8b, 0x97, 0x73, 0x3e,
    0x28, 0x67, 0xb9, 0x3d, 0xa5, 0xbf, 0x50, 0x3e, 0xec, 0x76,
    0x35, 0x3d, 0x45, 0x07, 0x3d, 0x3d, 0xa6, 0xf9, 0xba, 0xbc,
    0x94, 0xa6, 0xa8, 0xbc, 0x96, 0xb9, 0x8a, 0x3e, 0x10, 0xce,
    0x26, 0x3c, 0x56, 0xc2, 0x9b, 0x3c, 0xb9, 0x09, 0xab, 0x3e,
    0x48, 0x1d, 0x73, 0xbc, 0x4c, 0x1f, 0x42, 0xbe, 0x87, 0x99,
    0xc9, 0x3e, 0x67, 0x1a, 0x9a, 0x3d, 0xb7, 0x63, 0x8d, 0xba,
    0xdb, 0x05, 0xa1, 0x3d, 0x47, 0x52, 0x35, 0x3a, 0x42, 0xa3,
    0x44, 0xbd, 0xc6, 0x4b, 0x12, 0x3d, 0xda, 0xfd, 0x0f, 0xbe,
    0xdc, 0xef, 0x30, 0xbe, 0xed, 0x2c, 0x05, 0x3e, 0x6e, 0xdf,
    0x9f, 0x3e, 0x4d, 0x8f, 0x91, 0x3d, 0xc3, 0x02, 0xbd, 0x3c,
    0x1f, 0x00, 0x97, 0x3e, 0x9a, 0xc3, 0x39, 0x3d, 0x65, 0x21,
    0x70, 0xbe, 0xf3, 0x15, 0xbd, 0x3e, 0x5b, 0x08, 0x3a, 0x3e,
    0xa0, 0x92, 0x56, 0x3d, 0x17, 0xcc, 0x41, 0x3e, 0x34, 0x9f,
    0xbf, 0x3c, 0x81, 0xec, 0xf3, 0x3d, 0x81, 0xde, 0x86, 0x3d,
    0x8f, 0xb8, 0xa8, 0x3b, 0x5d, 0xf8, 0x15, 0xbd, 0xcd, 0x02,
    0xc0, 0x3c, 0xca, 0xb5, 0x19, 0x3e, 0x87, 0x33, 0x5d, 0x3c,
    0x0c, 0xe3, 0x5d, 0xbb, 0x89, 0x96, 0x80, 0x3e, 0x40, 0x1f,
    0xae, 0x3d, 0xfb, 0xc2, 0x0b, 0xbe, 0x85, 0x3f, 0x87, 0x3e,
    0x3a, 0xd1, 0x6e, 0x3d, 0x6a, 0x85, 0xa9, 0x3c, 0xa3, 0x3b,
    0x01, 0x3e, 0xfb, 0xae, 0xb2, 0x3c, 0xad, 0x97, 0xb7, 0x3d,
    0xf7, 0x36, 0x1c, 0xbe, 0x69, 0x2e, 0x07, 0x3c, 0x88, 0xb9,
    0x34, 0x3e, 0x4e, 0x02, 0x8b, 0x3c, 0xdf, 0xbc, 0xd6, 0x3b,
    0xcf, 0x5c, 0xd8, 0x3c, 0xfe, 0x46, 0x2d, 0x3c, 0x64, 0x77,
    0xad, 0x3e, 0x38, 0x8e, 0x3c, 0x3d, 0x0a, 0xc8, 0x4c, 0xbe,
    0xba, 0x83, 0x5d, 0x3e, 0xf9, 0x17, 0xd0, 0xbd, 0x3a, 0x0a,
    0xd3, 0x3c, 0x16, 0xd9, 0x78, 0x3e, 0x4c, 0xf8, 0xe9, 0xbc,
    0xee, 0x2f, 0x1e, 0x3e, 0xf9, 0x2a, 0x80, 0xbe, 0x62, 0xe6,
    0xbd, 0xbd, 0xda, 0xcf, 0x41, 0xbe, 0x04, 0xe1, 0xef, 0xbd,
    0x6c, 0x2e, 0x57, 0x3e, 0x85, 0x6e, 0x42, 0x3d, 0xe2, 0x96,
    0xad, 0x3b, 0xdc, 0xa5, 0x2d, 0x3e, 0x99, 0x7b, 0x94, 0x3d,
    0xa3, 0x67, 0x34, 0xbd, 0xe8, 0x1c, 0xbb, 0x3e, 0xbf, 0xe1,
    0x12, 0xbe, 0x2b, 0x6f, 0x04, 0x3d, 0x57, 0xda, 0x30, 0x3c,
    0x32, 0xe3, 0x0c, 0xbd, 0xc4, 0xaf, 0xd8, 0xbb, 0x51, 0x59,
    0x17, 0x3e, 0x9e, 0x39, 0xf3, 0x3c, 0xde, 0xfe, 0x21, 0x3c,
    0xea, 0x08, 0x59, 0x3b, 0x67, 0x32, 0xb0, 0xbc, 0xaa, 0xc2,
    0x30, 0xbd, 0x06, 0xe0, 0x56, 0x3c, 0xb7, 0x79, 0xb8, 0xbd,
    0x79, 0x84, 0x21, 0xbc, 0x4b, 0x74, 0x30, 0xbb, 0x14, 0x8c,
    0xd4, 0x3d, 0x23, 0xe2, 0xfe, 0x3c, 0x42, 0x82, 0xb4, 0x3b,
    0x96, 0x04, 0xad, 0x3d, 0xee, 0x8e, 0xfb, 0xbc, 0x79, 0x3c,
    0xaa, 0x3e, 0xa8, 0xd3, 0x83, 0xbb, 0x47, 0xe1, 0xd5, 0x3d,
    0x9f, 0x87, 0x45, 0xbe, 0xe3, 0x31, 0x99, 0x3d, 0x05, 0xaf,
    0x30, 0x3e, 0x74, 0x2c, 0x1c, 0x3c, 0xcd, 0x5e, 0x07, 0x3c,
    0xea, 0x47, 0x2c, 0x3c, 0x0f, 0xfb, 0xec, 0x3c, 0x05, 0x8d,
    0x88, 0xbb, 0x8e, 0x63, 0xd8, 0x3e, 0x23, 0x9c, 0x2c, 0xbd,
    0xca, 0x75, 0xf2, 0x3c, 0xa0, 0x91, 0x81, 0x3c, 0x93, 0xb3,
    0xa6, 0x3d, 0xdc, 0x1e, 0x1f, 0x3e, 0xa9, 0xe7, 0x1c, 0xbe,
    0xf6, 0x38, 0x2d, 0x3e, 0x13, 0x7f, 0x07, 0x3e, 0x7b, 0xdc,
    0xc0, 0xbd, 0xc6, 0x06, 0xd3, 0xbc, 0x1b, 0x85, 0x58, 0x3b,
    0x0a, 0x48, 0xe2, 0x3b, 0x59, 0x62, 0x39, 0x3e, 0xb5, 0x42,
    0xf9, 0x3c, 0x38, 0x67, 0x99, 0xbb, 0x94, 0xa1, 0x16, 0xbe,
