#include "axis_sensor_data.h"

ai_handle ai_axis_sensor_data_weights_get(void)
{

  AI_ALIGNED(4)
  static const ai_u8 s_axis_sensor_weights[ 17200 ] = {
    0x96, 0xf8, 0x18, 0x3d, 0x6e, 0x34, 0x42, 0x3d, 0x2a, 0x72,
    0xb3, 0x3d, 0x6b, 0x5f, 0xe6, 0x3d, 0xaa, 0x83, 0xb8, 0xbc,
    0xa0, 0x3f, 0xaf, 0x3d, 0xc2, 0x2f, 0xd6, 0xbd, 0x2c, 0xbf,
    0x15, 0xbc, 0x05, 0x79, 0x71, 0x3d, 0x1e, 0x7f, 0x53, 0x3b,
    0xf7, 0x49, 0xd1, 0xbc, 0x0e, 0x6f, 0x0c, 0x3d, 0x9b, 0xaa,
    0x96, 0x3e, 0xe9, 0xba, 0x2b, 0xbc, 0xe5, 0x4c, 0xe1, 0xbe,
    0xff, 0x9b, 0x09, 0x3e, 0x6b, 0x28, 0x19, 0xbe, 0x8e, 0xf2,
    0xfe, 0xbc, 0x12, 0x06, 0x9e, 0xbd, 0x07, 0x26, 0x47, 0x3e,
    0xb7, 0x82, 0xef, 0x3d, 0xea, 0x0a, 0xb6, 0xbd, 0xef, 0x55,
    0x0f, 0xbe, 0xb6, 0xc1, 0xde, 0xbe, 0x85, 0xb5, 0x80, 0x3d,
    0x7c, 0x8d, 0x9e, 0xbd, 0x4d, 0xe8, 0xa5, 0xbd, 0xd0, 0xa1,
    0x24, 0x3e, 0xeb, 0x6d, 0x42, 0x3d, 0x31, 0xba, 0xe7, 0xbc,
    0x9b, 0x91, 0x46, 0x3e, 0xb1, 0xbb, 0xc2, 0xbd, 0x56, 0xc2,
    0x92, 0x3b, 0x73, 0x29, 0x22, 0x3e, 0x8f, 0x31, 0x71, 0x3d,
    0xb3, 0x85, 0xa7, 0x3c, 0x98, 0x8e, 0x92, 0xbe, 0x56, 0x90,
    0xcf, 0xbc, 0x08, 0x62, 0xcc, 0xbd, 0x79, 0x72, 0xc0, 0x3e,
    0xe4, 0xdb, 0x72, 0xbd, 0x84, 0xad, 0xc1, 0xbe, 0x85, 0x9e,
    0x29, 0xbe, 0xf2, 0xc6, 0xe8, 0xbd, 0x8a, 0xb3, 0x55, 0xbe,
    0x00, 0xa7, 0xc1, 0xbe, 0xd2, 0xd1, 0xc7, 0x3c, 0x88, 0xbc,
    0x04, 0xbe, 0x90, 0xa5, 0x49, 0xbe, 0x5b, 0x1a, 0x52, 0xbd,
    0x97, 0x8c, 0x7d, 0x3e, 0xc7, 0xdf, 0x1d, 0xbd, 0xcf, 0xa9,
    0x90, 0xbd, 0x0b, 0x2d, 0x84, 0x3e, 0x14, 0x90, 0xa9, 0x3d,
    0x16, 0x10, 0xf8, 0xbd, 0xf3, 0xbb, 0x0a, 0xbe, 0x1b, 0x20,
    0x18, 0x3c, 0xaf, 0xb4, 0xdd, 0x3c, 0xf6, 0x6b, 0xe0, 0xbe,
    0x31, 0x02, 0x44, 0x3e, 0x7c, 0x9b, 0x09, 0xbe, 0x11, 0x11,
    0x02, 0xbe, 0xe0, 0xe8, 0x73, 0xbd, 0xf4, 0xf0, 0x45, 0xbd,
    0x67, 0x8e, 0x99, 0x3d, 0xaf, 0x5d, 0x38, 0x3a, 0x19, 0xac,
    0xd1, 0xbd, 0xb9, 0xc2, 0xaf, 0xbd, 0x3e, 0x1e, 0x03, 0x3e,
    0xa8, 0x64, 0x4c, 0xbe, 0xbb, 0xdf, 0x8c, 0xbd, 0xc2, 0xb5,
    0xb6, 0xbd, 0xf6, 0xd6, 0x17, 0xbe, 0x29, 0x88, 0x8b, 0xbd,
    0x4d, 0x92, 0xc3, 0x3c, 0xe6, 0x01, 0x04, 0xbe, 0x6f, 0x41,
    0x0a, 0x3d, 0xe7, 0xd4, 0xc7, 0x3d, 0x96, 0x55, 0xc7, 0xbd,
    0x96, 0x4c, 0x24, 0xbe, 0xad, 0xc6, 0x15, 0x3e, 0xfd, 0xdd,
    0x52, 0xbe, 0xe2, 0x99, 0x70, 0x3d, 0xcc, 0x73, 0xca, 0xbd,
    0xf4, 0xf2, 0xa1, 0xbd, 0xd7, 0x9a, 0xbb, 0xbe, 0x13, 0x03,
    0x87, 0x3d, 0x9f, 0xc6, 0x59, 0xbd, 0xf5, 0x21, 0x5f, 0x3d,
    0x39, 0x98, 0xed, 0x3d, 0xb4, 0x5b, 0xb7, 0x3d, 0xb6, 0x01,
    0x35, 0x3e, 0x9d, 0xec, 0x9c, 0xbd, 0xb8, 0x2e, 0xa5, 0x3d,
    0x40, 0xf7, 0x8a, 0x3e, 0xe4, 0xe4, 0x18, 0xc0, 0x88, 0x26,
    0xfc, 0x3e, 0xf2, 0x1d, 0x98, 0xbf, 0x5a, 0xa1, 0x57, 0x3f,
    0x7e, 0x93, 0xfa, 0xbf, 0x87, 0x11, 0xcf, 0xbf, 0xcb, 0xab,
    0x9c, 0xbf, 0x6a, 0x2d, 0x1b, 0xc0, 0x05, 0xab, 0xb1, 0xbe,
    0xc2, 0x6a, 0x8a, 0xbd, 0xd1, 0x72, 0x01, 0xbe, 0xc6, 0x04,
    0x07, 0x3c, 0x3b, 0xea, 0x09, 0x3d, 0xb4, 0xea, 0x8f, 0x3e,
    0x43, 0x1e, 0xce, 0x3e, 0xeb, 0xab, 0x71, 0xbe, 0xea, 0x0c,
    0xa0, 0xbe, 0x7e, 0x97, 0xe6, 0xbd, 0xa6, 0x3e, 0x1a, 0xbe,
    0xb6, 0xa8, 0xf7, 0x3d, 0x27, 0xa7, 0x78, 0x3e, 0x22, 0xd5,
    0x45, 0x3d, 0x28, 0x91, 0xb8, 0xbd, 0xdc, 0xc1, 0x65, 0xbe,
    0xdf, 0xb2, 0xa4, 0xbe, 0x5f, 0x2f, 0xde, 0xbc, 0xac, 0x58,
    0x84, 0xbc, 0xbb, 0xdf, 0x9b, 0x3e, 0x1f, 0x3a, 0x17, 0xbe,
    0xd5, 0x05, 0xce, 0xbd, 0x49, 0xb5, 0x04, 0xbd, 0x26, 0x8e,
    0x39, 0xbc, 0x15, 0xee, 0xbb, 0xbd, 0x32, 0xad, 0x7a, 0xbe,
    0xd2, 0xda, 0x8a, 0x3e, 0xc3, 0x77, 0x36, 0xbe, 0x55, 0xeb,
    0xc2, 0xbe, 0xd2, 0xfa, 0x33, 0xbe, 0x2a, 0x3c, 0x13, 0xbe,
    0xae, 0xc1, 0x23, 0x3e, 0x5b, 0x59, 0x36, 0x3e, 0xe4, 0x03,
    0x28, 0x3e, 0x05, 0xeb, 0x53, 0xbe, 0x4e, 0x29, 0x56, 0x3e,
    0xda, 0x19, 0x0d, 0xbe, 0x3a, 0x53, 0xd8, 0xbd, 0x6d, 0xb7,
    0x7f, 0xbd, 0xbe, 0x73, 0x67, 0x3e, 0xa4, 0x5a, 0xc1, 0xbc,
    0xae, 0xd2, 0x6a, 0x3e, 0x2a, 0x60, 0x2c, 0xbe, 0x93, 0x6a,
    0x83, 0x3e, 0xe9, 0xe8, 0x12, 0x3d, 0x21, 0x22, 0xff, 0xba,
    0x91, 0xb2, 0x14, 0x3c, 0xbd, 0x67, 0x4d, 0xbe, 0x54, 0x74,
    0xa8, 0xbe, 0x77, 0x69, 0xe3, 0x3d, 0x92, 0xe3, 0x30, 0xbe,
    0x52, 0xf1, 0x68, 0xbd, 0xf1, 0xcc, 0xd0, 0xbd, 0x38, 0x1b,
    0x9c, 0x3d, 0xa7, 0x19, 0xb5, 0x3d, 0x09, 0x7c, 0xa2, 0x3c,
    0xec, 0x41, 0x90, 0xbe, 0x20, 0x83, 0x0e, 0x3e, 0x8b, 0x37,
    0x87, 0xbb, 0xd1, 0xee, 0x59, 0x39, 0x28, 0xd4, 0x02, 0x3e,
    0x27, 0xf8, 0x72, 0xbc, 0x6d, 0x0b, 0x16, 0xbd, 0x6d, 0xa8,
    0xa1, 0xbd, 0x87, 0xe4, 0x95, 0xbe, 0xe5, 0x05, 0x94, 0xbe,
    0x8b, 0x2d, 0xd6, 0x3c, 0xca, 0x80, 0x62, 0xbe, 0x76, 0x91,
    0xbb, 0xbc, 0xef, 0xaa, 0xd0, 0x3d, 0xa3, 0xc1, 0x44, 0xbd,
    0x8b, 0x3e, 0x52, 0xbe, 0x90, 0x0d, 0x4f, 0xbe, 0xea, 0x89,
    0xd9, 0xbe, 0xe5, 0xe9, 0x01, 0xbe, 0x4f, 0x1d, 0x0e, 0xbf,
    0xd3, 0x6d, 0xdd, 0xbd, 0xcb, 0x4b, 0x8e, 0xbe, 0xae, 0xeb,
    0x89, 0xbe, 0x79, 0x4f, 0x63, 0x3e, 0x70, 0x5e, 0xd3, 0xbd,
    0x81, 0x79, 0xf7, 0xbd, 0x23, 0x0d, 0x96, 0xbd, 0xc4, 0xdb,
    0xe5, 0x3d, 0x91, 0x51, 0x4a, 0xbe, 0x98, 0x3c, 0x5a, 0xbe,
    0x6a, 0x85, 0x92, 0xbe, 0x98, 0xe8, 0x9b, 0x3e, 0x8d, 0x8c,
    0xad, 0x3e, 0xf0, 0x7a, 0x18, 0xbd, 0x8b, 0xd9, 0x4b, 0xbd,
    0x6f, 0x0f, 0x5c, 0x3d, 0x98, 0xe8, 0x62, 0x3e, 0xae, 0x51,
    0x7f, 0x3d, 0xec, 0x6b, 0x0a, 0x3e, 0x7e, 0xbb, 0x8c, 0x3e,
    0xc3, 0xb0, 0xa9, 0x3c, 0xc2, 0x28, 0x63, 0x3e, 0x34, 0x81,
    0x04, 0x3d, 0xf4, 0xb1, 0xb8, 0x3e, 0x55, 0xfc, 0x34, 0x3d,
    0x75, 0x86, 0x9e, 0x3c, 0x5e, 0xfb, 0xe6, 0x3d, 0x3f, 0xbb,
    0xd9, 0x3d, 0xd5, 0x84, 0x16, 0x3e, 0xd3, 0x1f, 0x3f, 0x3e,
    0xbc, 0x3a, 0xc4, 0x3c, 0xaa, 0x5f, 0x2e, 0x3e, 0x1a, 0x34,
    0x9e, 0x39, 0x7d, 0x9d, 0x23, 0xbe, 0xe3, 0x72, 0x4c, 0xbe,
    0x06, 0xf7, 0xef, 0xbb, 0x90, 0xbe, 0xe6, 0xbb, 0x7c, 0x4d,
    0xd2, 0xbd, 0xc9, 0xb9, 0x14, 0xba, 0xd5, 0x36, 0x6a, 0xbe,
    0x7a, 0x0a, 0xfe, 0xbd, 0x9c, 0xfd, 0x4f, 0xbf, 0x2b, 0xd4,
    0x57, 0xbf, 0x4a, 0x76, 0x46, 0xbc, 0x51, 0xca, 0x03, 0xbd,
    0x11, 0x80, 0x1a, 0xbe, 0x62, 0x69, 0x45, 0xbc, 0x5d, 0xc4,
    0xaa, 0xbf, 0x56, 0xd2, 0x06, 0xbe, 0x63, 0x5f, 0x93, 0xbf,
    0x2b, 0x17, 0x62, 0xbf, 0xf0, 0xad, 0x90, 0x3d, 0x3f, 0x97,
    0xf4, 0xbd, 0x36, 0x06, 0x21, 0xbe, 0xc4, 0xb7, 0xf6, 0x3c,
    0xa2, 0xc8, 0x2e, 0xbd, 0x5e, 0x5a, 0xc9, 0x3d, 0xbf, 0xa3,
    0x96, 0x3e, 0xa1, 0xf4, 0x02, 0x3e, 0xdf, 0x1b, 0x19, 0xbe,
    0x7f, 0xbf, 0xf7, 0xbd, 0xa5, 0x49, 0xf3, 0xbd, 0x49, 0x87,
    0x83, 0xbb, 0x37, 0x0c, 0x48, 0xbd, 0x3b, 0xa3, 0xba, 0x3e,
    0x6c, 0xb2, 0x41, 0x3d, 0xc5, 0xaf, 0x1c, 0x3e, 0x52, 0x2b,
    0x84, 0xbe, 0xef, 0xa0, 0x81, 0xbd, 0xc9, 0x64, 0x2b, 0xbe,
    0xa5, 0xc9, 0xed, 0xba, 0x4a, 0x2d, 0x8b, 0xbd, 0x0e, 0xe9,
    0x3f, 0xbe, 0x2c, 0xe5, 0x80, 0xbe, 0xbd, 0x86, 0x3a, 0xbe,
    0x25, 0x56, 0x8c, 0x3e, 0xf7, 0x69, 0x15, 0x3e, 0xc3, 0xc7,
    0x8b, 0x3d, 0x61, 0x64, 0x82, 0x3d, 0x77, 0x3e, 0x08, 0xbf,
    0xc4, 0x29, 0xa6, 0xbe, 0xbf, 0xd5, 0xa1, 0xbe, 0xf9, 0x06,
    0x7f, 0xbe, 0xce, 0x5d, 0xc1, 0x3d, 0xba, 0x5b, 0x98, 0xbd,
    0x94, 0x31, 0x5a, 0xbe, 0xc0, 0x43, 0xc2, 0xbd, 0xd6, 0x1e,
    0x2c, 0x3c, 0x62, 0xf6, 0xa2, 0x3d, 0x6e, 0x9d, 0xb5, 0xbe,
    0x50, 0x14, 0x98, 0xbe, 0x9f, 0xd7, 0xcf, 0x3d, 0x30, 0x3e,
    0x88, 0x3d, 0xc5, 0x99, 0x37, 0xbc, 0x11, 0x3d, 0x7c, 0x3d,
    0xdd, 0x0a, 0x9c, 0xbd, 0xca, 0x24, 0xee, 0xbd, 0x17, 0x08,
    0xf3, 0xbe, 0xdc, 0x78, 0xa7, 0xbe, 0x81, 0xda, 0xcd, 0x3e,
    0x0c, 0xea, 0x0b, 0x3d, 0xcf, 0x91, 0x67, 0x39, 0xde, 0x0f,
    0x4b, 0xbe, 0x7f, 0x43, 0xbf, 0x3d, 0x83, 0x7b, 0x72, 0x3d,
    0x8f, 0x7f, 0x48, 0xbe, 0x48, 0x15, 0x31, 0xbe, 0x29, 0x73,
    0xa8, 0xbe, 0x12, 0xe0, 0x0d, 0xbb, 0x57, 0x3f, 0x2f, 0xbe,
    0x84, 0xd0, 0x1d, 0xbe, 0xb2, 0x53, 0xb4, 0x3d, 0x73, 0x7c,
    0x00, 0x3d, 0xd7, 0x9e, 0xcb, 0x3e, 0xbe, 0x62, 0xf0, 0x3e,
    0x2f, 0x65, 0x30, 0xbe, 0x69, 0xf1, 0xa5, 0x3d, 0xed, 0x2c,
    0x43, 0xbd, 0xa2, 0x03, 0x31, 0x3d, 0xc6, 0xe4, 0x40, 0x3e,
    0x15, 0x08, 0x24, 0xbd, 0x0b, 0xdd, 0xa8, 0xbe, 0x86, 0xe7,
    0xef, 0xbc, 0xc3, 0xd8, 0xed, 0x3e, 0xd7, 0x26, 0x7b, 0x3e,
    0x4b, 0x7c, 0x9e, 0x3d, 0x76, 0xcc, 0x21, 0x3c, 0x0e, 0xee,
    0xcd, 0xbc, 0x7d, 0xbc, 0xb5, 0x3c, 0x6e, 0xdb, 0xd3, 0xbe,
    0x8d, 0x73, 0x0f, 0xbd, 0xc0, 0x70, 0xd3, 0xbd, 0xa5, 0xd7,
    0x3d, 0xbe, 0x53, 0x66, 0xca, 0xba, 0x28, 0xff, 0x74, 0x39,
    0x36, 0xc6, 0x76, 0xbe, 0x1f, 0xa5, 0x8a, 0x3e, 0xd2, 0x6c,
    0xa8, 0xbe, 0x65, 0x10, 0xc3, 0xbe, 0x0a, 0x3a, 0xe4, 0xbe,
    0xb6, 0x79, 0x75, 0xbe, 0x45, 0xc6, 0xae, 0x3c, 0x3a, 0xff,
    0x5c, 0xbd, 0xe9, 0x9a, 0x67, 0x3d, 0x54, 0x5e, 0xbf, 0x3d,
    0x4a, 0xaa, 0xd1, 0xbd, 0x70, 0xca, 0x99, 0xbe, 0x63, 0x18,
    0xfa, 0xbe, 0x44, 0xba, 0x7b, 0xba, 0xe9, 0x4d, 0xa5, 0x3e,
    0x5c, 0x41, 0xe0, 0xbb, 0xb5, 0xec, 0x81, 0xbe, 0x9b, 0xb2,
    0x17, 0xbe, 0xd1, 0xc8, 0x41, 0x3e, 0x0f, 0xad, 0x11, 0x3d,
    0x88, 0x38, 0x11, 0x3d, 0x53, 0x67, 0x36, 0xbd, 0x80, 0xa6,
    0xbc, 0x3d, 0x2e, 0xd9, 0x86, 0x3e, 0x01, 0xa4, 0xf9, 0xbe,
    0xee, 0x1c, 0x59, 0xbe, 0x98, 0x5f, 0x86, 0x3e, 0x2e, 0x85,
    0xb1, 0xbd, 0x1e, 0x56, 0x9a, 0xbd, 0x3a, 0x33, 0xc2, 0xbd,
    0x77, 0x51, 0xff, 0x3d, 0x6a, 0xa8, 0xa0, 0xbd, 0x21, 0x22,
    0xb9, 0xbe, 0xce, 0xa7, 0x99, 0xbe, 0xec, 0xf2, 0x1c, 0x3e,
    0xf7, 0x72, 0xf3, 0xbe, 0x60, 0x95, 0xf0, 0xbb, 0x0a, 0x53,
    0x1b, 0xbd, 0x9a, 0xc8, 0xc1, 0x3a, 0xdd, 0xad, 0xb9, 0xbd,
    0x26, 0xd6, 0x72, 0xbe, 0xdf, 0xb3, 0xfa, 0xbd, 0xf5, 0x78,
    0x9c, 0xbe, 0x3d, 0x9c, 0xd0, 0xbe, 0xe4, 0xa6, 0x1e, 0xbc,
    0x65, 0x55, 0x97, 0xbb, 0xa8, 0xe6, 0x0e, 0xbf, 0x9c, 0xb6,
    0xca, 0xbe, 0xb0, 0x5c, 0xa0, 0x3b, 0xd7, 0xb5, 0x54, 0x3c,
    0xf7, 0xae, 0x0d, 0x3e, 0xd3, 0xba, 0x07, 0x3e, 0x8c, 0xa5,
    0x36, 0x3e, 0x15, 0xe8, 0x47, 0x3e, 0x24, 0x02, 0x27, 0xbf,
    0xb8, 0x55, 0xad, 0xbe, 0xc4, 0xe3, 0x92, 0xbd, 0xb1, 0xd1,
    0xf7, 0xbd, 0x60, 0x41, 0xc8, 0x3c, 0x3b, 0xd9, 0x60, 0x3d,
    0x60, 0x4d, 0x21, 0xbc, 0x3c, 0xdc, 0xb6, 0xbc, 0x66, 0x4d,
    0x77, 0x3d, 0x46, 0xd8, 0x94, 0xbd, 0xf3, 0x4b, 0x79, 0xbe,
    0x73, 0xce, 0x27, 0xbe, 0x4d, 0xa7, 0x02, 0xbe, 0x40, 0x43,
    0x81, 0xbd, 0x05, 0xb0, 0x03, 0x3e, 0x3e, 0xaa, 0x13, 0xbe,
    0x61, 0xa0, 0xa9, 0x3e, 0x0c, 0x5b, 0x99, 0x3e, 0x71, 0x64,
    0x29, 0xbf, 0xf5, 0x5b, 0x73, 0x3d, 0xea, 0xb3, 0xb3, 0xbe,
    0xea, 0x54, 0xb4, 0xbe, 0xe6, 0x93, 0xcc, 0xbd, 0x4a, 0xa5,
    0xfb, 0xbd, 0x29, 0x76, 0xd8, 0xbe, 0x66, 0xd9, 0xf9, 0xbe,
    0xf3, 0xfb, 0xa0, 0xbe, 0x84, 0xc3, 0xbc, 0xbe, 0x90, 0xed,
    0xf0, 0xbe, 0x1b, 0x84, 0xdb, 0xbe, 0xa7, 0x0a, 0x7f, 0xbe,
    0x04, 0x4d, 0xb4, 0x3d, 0xc8, 0x24, 0xd7, 0x3e, 0x9d, 0x73,
    0x22, 0xbe, 0x80, 0x8d, 0xe9, 0x3e, 0x22, 0x6d, 0xad, 0x3d,
    0x61, 0x10, 0x8c, 0xbe, 0xfd, 0xa8, 0x48, 0xbe, 0x32, 0xdd,
    0xdc, 0xbc, 0x01, 0xf8, 0x2b, 0x3e, 0x86, 0xed, 0x48, 0x3e,
    0x18, 0xbb, 0xf7, 0xbd, 0xa3, 0xee, 0xef, 0x3d, 0xe9, 0x61,
    0x4f, 0x3d, 0xa2, 0xc5, 0x05, 0xbe, 0x1d, 0x62, 0x11, 0xbe,
    0x81, 0x6d, 0x97, 0xbd, 0x57, 0x34, 0x58, 0x3c, 0xf4, 0x9b,
    0x27, 0x3e, 0x64, 0xae, 0x0b, 0xbe, 0x77, 0x5b, 0x23, 0x3d,
    0xe5, 0x7b, 0xb3, 0x3b, 0x9a, 0xee, 0x11, 0xbd, 0x5d, 0x9d,
    0xef, 0xbd, 0x92, 0xcb, 0xdf, 0xbc, 0xc6, 0x07, 0x24, 0xbe,
    0xcb, 0xb3, 0x74, 0xbe, 0xbf, 0x16, 0x3d, 0xbe, 0x4d, 0x9d,
    0xb3, 0x3b, 0x34, 0x86, 0x90, 0x3d, 0xcd, 0x5e, 0x18, 0x3d,
    0xab, 0xfe, 0xc7, 0xbd, 0x9f, 0xc5, 0x16, 0x3d, 0x80, 0xe9,
    0x4c, 0x3c, 0x3a, 0xb0, 0x6e, 0xbe, 0xb6, 0x4d, 0x09, 0xbc,
    0x80, 0x89, 0x38, 0xbe, 0x1b, 0xe5, 0x9a, 0xbd, 0x3d, 0xdf,
    0xa7, 0x3e, 0x79, 0xf2, 0x91, 0x3e, 0x4c, 0x98, 0x04, 0xba,
    0x51, 0x56, 0xa8, 0x3d, 0x10, 0xf8, 0x01, 0xbe, 0xca, 0xb9,
    0x90, 0xbd, 0x60, 0x18, 0x01, 0xbe, 0xbc, 0x49, 0x03, 0x3d,
    0x27, 0xe6, 0xb6, 0x3d, 0x94, 0xe1, 0xf6, 0x3d, 0xe1, 0x03,
    0x8c, 0xbd, 0x9b, 0x62, 0x25, 0x3d, 0x15, 0x2b, 0x8d, 0xbd,
    0x61, 0xc9, 0xa5, 0xbd, 0xea, 0xca, 0xec, 0xbd, 0x79, 0x30,
    0x8c, 0x3d, 0x5d, 0x2e, 0x57, 0xbd, 0x94, 0xfd, 0xc2, 0x3c,
    0x7d, 0xc7, 0x8f, 0xbd, 0x3a, 0x7d, 0xbd, 0x3e, 0x87, 0x77,
    0x90, 0x3d, 0x90, 0x03, 0x34, 0xbe, 0x94, 0x92, 0x66, 0x3d,
    0xd2, 0xe8, 0x6d, 0x3e, 0x3b, 0xc2, 0x61, 0xbe, 0xfc, 0x9d,
    0xb7, 0xbd, 0x42, 0xc4, 0x20, 0xbe, 0xa7, 0xd9, 0x14, 0x3e,
    0x20, 0x8b, 0x32, 0xbe, 0x1b, 0x1d, 0x9e, 0xbe, 0x30, 0xf2,
    0xa3, 0xbd, 0x58, 0xba, 0x3a, 0x3f, 0x3f, 0x1d, 0x86, 0xbe,
    0xcd, 0x15, 0x3e, 0xbe, 0x9a, 0x82, 0xe6, 0xbe, 0x30, 0x83,
    0x88, 0xbe, 0x21, 0xee, 0x90, 0xbc, 0x68, 0x8d, 0x97, 0xbd,
    0x1d, 0x66, 0x83, 0x3c, 0x1b, 0xc8, 0xcb, 0xbc, 0xbd, 0xf9,
    0x78, 0xbd, 0xed, 0x74, 0x7f, 0xbd, 0xbb, 0xa7, 0xa1, 0xbe,
    0x89, 0x20, 0xf8, 0xbe, 0x4e, 0x56, 0xa8, 0xbd, 0x3e, 0xd6,
    0x69, 0x3e, 0xe8, 0x95, 0x07, 0xbd, 0x21, 0xc3, 0x84, 0xbe,
    0x80, 0x5a, 0x9c, 0x3d, 0xf5, 0x2a, 0x2a, 0x3d, 0x41, 0x18,
    0x69, 0xbe, 0x68, 0x53, 0x6a, 0xbe, 0x73, 0x86, 0x30, 0x3e,
    0x7c, 0x0e, 0x50, 0x3e, 0xbc, 0xbc, 0x87, 0xbc, 0x31, 0x5e,
    0x74, 0xbe, 0xc0, 0x82, 0x82, 0xbe, 0x33, 0xd9, 0x62, 0xbe,
    0xa1, 0xec, 0x66, 0xbe, 0x5b, 0x00, 0x94, 0xbe, 0xc0, 0xcb,
    0xea, 0xbd, 0xe9, 0xd9, 0x61, 0xbe, 0x6f, 0x1c, 0xc9, 0x3d,
    0xd4, 0xe0, 0x94, 0xbe, 0xb2, 0xca, 0xa9, 0x3d, 0x9c, 0x4b,
    0x78, 0x3d, 0x84, 0xc5, 0xc4, 0xbe, 0x49, 0x76, 0xaa, 0xbe,
    0x36, 0xaf, 0xae, 0x3d, 0xf3, 0x17, 0x80, 0x3e, 0x6f, 0xc5,
    0x85, 0x3d, 0x04, 0xc8, 0xc5, 0xbd, 0x08, 0xe9, 0xc4, 0xbd,
    0xcf, 0x84, 0x8f, 0xbd, 0x21, 0x62, 0xf9, 0xbd, 0x27, 0xf7,
    0xd9, 0xbe, 0x6a, 0x6e, 0xb0, 0x3d, 0xb6, 0x72, 0x34, 0x3d,
    0x5b, 0x30, 0x53, 0xbe, 0x6b, 0xa4, 0x40, 0x3e, 0x38, 0xe8,
    0x9d, 0xbd, 0x57, 0xb4, 0x0c, 0x3e, 0xfc, 0x40, 0x4f, 0xbe,
    0xa4, 0x86, 0xa0, 0x3e, 0x6c, 0xb7, 0x2f, 0xbd, 0x2c, 0x91,
    0xd7, 0xbc, 0xf2, 0xa3, 0x87, 0x3e, 0x8e, 0x69, 0xad, 0xbe,
    0x03, 0x5b, 0x10, 0xbf, 0xd8, 0xc3, 0xcb, 0xbe, 0x30, 0x68,
    0xfa, 0xbc, 0x76, 0xd5, 0x94, 0xbd, 0xe8, 0x5d, 0x5e, 0x3d,
    0xbd, 0x29, 0xbe, 0x3c, 0xc0, 0x04, 0x2a, 0x3d, 0xb6, 0xb4,
    0xf2, 0xbd, 0x03, 0xca, 0xca, 0xbe, 0xb3, 0x3b, 0xd7, 0xbe,
    0xd3, 0x25, 0x9c, 0xbd, 0x19, 0x7c, 0x1e, 0x3d, 0x14, 0xd5,
    0xa4, 0xbd, 0x62, 0x55, 0x08, 0xbb, 0xe2, 0x31, 0xfb, 0x3d,
    0xae, 0x72, 0x88, 0xbe, 0xa3, 0x1c, 0x89, 0xbe, 0xdb, 0xdb,
    0x0d, 0x3e, 0x79, 0xff, 0x05, 0x3d, 0xa1, 0xa5, 0xcd, 0xbc,
    0x26, 0x0d, 0xb0, 0xbd, 0x3e, 0xb5, 0x3a, 0x3e, 0xe5, 0x96,
    0xfe, 0xbe, 0x0c, 0xac, 0xde, 0xbe, 0x29, 0x77, 0x04, 0xbf,
    0xe4, 0x04, 0x3f, 0xbe, 0xd1, 0xe9, 0xae, 0x3d, 0xe0, 0x8a,
    0xbc, 0x3e, 0x7c, 0x76, 0x0b, 0xbe, 0x8b, 0x8f, 0x02, 0xbf,
    0xe9, 0xbf, 0x82, 0xbd, 0xe1, 0xd4, 0xa5, 0xbd, 0xb2, 0x7f,
    0x9c, 0xbc, 0x01, 0x41, 0xa6, 0xbd, 0x43, 0xb5, 0xdb, 0xbc,
    0x33, 0xc4, 0x04, 0x3e, 0xe3, 0xcd, 0x88, 0xbd, 0x36, 0xdd,
    0x1d, 0xbf, 0x56, 0xe0, 0x1d, 0x3e, 0xc0, 0xe2, 0x4f, 0xbd,
    0xfd, 0xd5, 0x9b, 0x3c, 0x5a, 0xde, 0x23, 0xbc, 0x7e, 0x8a,
    0xc0, 0x3e, 0xe6, 0x0b, 0x02, 0xbe, 0x5d, 0x6c, 0x85, 0xbe,
    0x4d, 0x55, 0xf3, 0xbe, 0x7c, 0x39, 0x2d, 0x3d, 0xa0, 0x2b,
    0x50, 0x3d, 0xee, 0x66, 0x46, 0xbb, 0xea, 0x7f, 0xf4, 0x3c,
    0x37, 0xd6, 0xa3, 0xbc, 0x78, 0x2f, 0x42, 0x3d, 0xb7, 0x13,
    0x25, 0xbe, 0x48, 0x62, 0x72, 0xbe, 0x0c, 0x9f, 0x20, 0xbd,
    0x17, 0xfa, 0x4a, 0x3d, 0x8d, 0x85, 0x04, 0x3d, 0xa0, 0x6e,
    0x72, 0x3c, 0xfd, 0xb3, 0xc6, 0xbd, 0x6d, 0xe7, 0x83, 0xbd,
    0xdb, 0x70, 0x57, 0x3d, 0xb8, 0xc8, 0xc5, 0x3d, 0xda, 0x54,
    0x02, 0xbd, 0xb3, 0xc6, 0x85, 0x3c, 0x2c, 0x10, 0x1a, 0xbe,
    0x35, 0x36, 0x2e, 0xbd, 0x63, 0x6c, 0xa6, 0xbd, 0x9d, 0x09,
    0xc4, 0xbd, 0xfb, 0x96, 0x04, 0x3d, 0x7e, 0x9c, 0x17, 0x3e,
    0x83, 0x29, 0x02, 0xbe, 0x06, 0x7f, 0x8f, 0x3e, 0x6a, 0x38,
    0x9d, 0x3d, 0x69, 0x80, 0x1f, 0x3e, 0x28, 0x1f, 0x6c, 0xbe,
    0x38, 0x7f, 0xd9, 0xbd, 0x9e, 0x02, 0x84, 0xbd, 0x3c, 0xc3,
    0xba, 0xbd, 0x8c, 0xef, 0x86, 0xbd, 0x3d, 0x65, 0xa5, 0xbd,
    0xf1, 0xcf, 0x58, 0x3a, 0x5f, 0x6b, 0x6d, 0xbd, 0x69, 0xad,
    0x0f, 0x3d, 0x11, 0xbd, 0x92, 0xbd, 0x1b, 0xc1, 0x88, 0xbd,
    0xa8, 0x4f, 0xa7, 0x3b, 0x6b, 0x8a, 0xb2, 0x3c, 0xe9, 0xb1,
    0x88, 0xbd, 0x16, 0xc6, 0xa9, 0x3b, 0xb7, 0x9a, 0xb3, 0x3e,
    0x81, 0xb8, 0x24, 0xbc, 0xd9, 0x52, 0xcd, 0x3e, 0x61, 0x69,
    0x65, 0x3f, 0xaa, 0xc5, 0x85, 0xbe, 0x2a, 0xb9, 0x4f, 0x3f,
    0x03, 0x1d, 0x9f, 0xbf, 0xae, 0x3c, 0x1e, 0xbe, 0xc6, 0x2d,
    0x5b, 0xbf, 0xae, 0x3c, 0x1f, 0x3f, 0xed, 0x1f, 0xad, 0xbf,
    0x1d, 0xd7, 0x82, 0x3f, 0x37, 0xf4, 0x94, 0xbf, 0xb3, 0x2e,
    0x21, 0xbf, 0xe2, 0x6f, 0x57, 0x3d, 0x27, 0x58, 0x47, 0x3f,
    0x21, 0x47, 0x07, 0x3e, 0x90, 0xf2, 0x8f, 0x3d, 0x9b, 0xa0,
    0xf3, 0xbd, 0x39, 0xed, 0xa2, 0x3e, 0x2c, 0x6b, 0x2c, 0x3d,
    0x96, 0x7d, 0xa1, 0x3e, 0x4f, 0xff, 0x85, 0x3d, 0x65, 0x89,
    0xde, 0xbc, 0xb8, 0x1b, 0xb0, 0x3d, 0x44, 0x1c, 0x18, 0x3e,
    0xc2, 0x16, 0x98, 0x3c, 0x33, 0x4a, 0x24, 0x3f, 0xdb, 0xee,
    0x68, 0xbf, 0xcf, 0x75, 0x98, 0x3e, 0x43, 0x19, 0x94, 0x3e,
    0x70, 0xbc, 0xa4, 0x3e, 0xea, 0x89, 0x7c, 0x3e, 0xad, 0x62,
    0x80, 0xbe, 0xa4, 0x89, 0x48, 0x3e, 0x6d, 0x08, 0x05, 0x3e,
    0x93, 0x38, 0xe5, 0x3d, 0x73, 0x6e, 0xbf, 0xbd, 0x01, 0x7b,
    0x48, 0xbd, 0x1e, 0xb5, 0x65, 0xbc, 0x77, 0xbb, 0x0b, 0xbe,
    0x57, 0x8a, 0x81, 0xbc, 0x7c, 0x92, 0x8a, 0xbd, 0x8c, 0x0d,
    0xe4, 0xbd, 0x0c, 0x56, 0x30, 0xbf, 0x18, 0x8a, 0x16, 0xbe,
    0xbc, 0x66, 0xb3, 0x3e, 0xc1, 0x62, 0x91, 0x3e, 0x0d, 0x4d,
    0x21, 0x3e, 0x91, 0x9b, 0x1d, 0xbe, 0x44, 0x98, 0x91, 0x3d,
    0x8e, 0x7e, 0x25, 0xbd, 0x4f, 0x66, 0x0a, 0x3d, 0x1c, 0x72,
    0xa5, 0xbd, 0xf4, 0xbd, 0x62, 0xbd, 0xfe, 0x5f, 0x93, 0x39,
    0x89, 0x9e, 0xa5, 0xbd, 0xc5, 0x80, 0x0b, 0x3e, 0xb1, 0xed,
    0xc8, 0xbd, 0xbd, 0x8f, 0xfe, 0xbd, 0x10, 0x44, 0xee, 0xbe,
    0x15, 0x69, 0x16, 0xbe, 0xfb, 0xd2, 0xb8, 0x3e, 0xdf, 0x55,
    0x15, 0xbd, 0x51, 0x90, 0x40, 0x3d, 0x25, 0x19, 0x8f, 0xbe,
    0xf6, 0xce, 0x93, 0xbc, 0x65, 0x00, 0xf6, 0xbd, 0xf0, 0x16,
    0xe4, 0xbb, 0xd9, 0x93, 0xbc, 0x3c, 0xa4, 0x05, 0x68, 0x3e,
    0x01, 0xc6, 0xa6, 0x3e, 0xaf, 0x2f, 0x86, 0xbd, 0xda, 0x5f,
    0x91, 0xbc, 0xcb, 0x37, 0x0d, 0x3d, 0x87, 0x1b, 0x18, 0x3e,
    0x71, 0x40, 0x5c, 0xbe, 0xe2, 0xa7, 0x99, 0xbd, 0xff, 0xe3,
    0x88, 0xbd, 0x0f, 0xe2, 0x74, 0xbd, 0x51, 0x59, 0xa7, 0xbc,
    0xf4, 0xcb, 0x1a, 0xbe, 0xc8, 0x17, 0x6c, 0xbe, 0x84, 0xff,
    0x80, 0x3c, 0xe5, 0x02, 0x13, 0xbe, 0x95, 0x8c, 0x07, 0x3d,
    0x9b, 0xbe, 0x64, 0x3e, 0xa1, 0xa9, 0xc5, 0x3e, 0x4d, 0x8d,
    0x10, 0xbe, 0x24, 0xc9, 0xba, 0x3d, 0x5c, 0x19, 0x96, 0x3d,
    0x0c, 0x89, 0x7d, 0x3e, 0x43, 0xd3, 0x0d, 0x3e, 0xc3, 0xba,
    0x90, 0xbb, 0x46, 0x4c, 0x90, 0xbc, 0xcb, 0x94, 0x15, 0xbd,
    0x0d, 0x4b, 0x16, 0xbe, 0x76, 0xbf, 0x47, 0xbd, 0x70, 0x37,
    0x90, 0xbd, 0x45, 0x9f, 0xf4, 0xbc, 0xc1, 0x2e, 0xc7, 0x3d,
    0x6b, 0x45, 0xd9, 0x3d, 0x40, 0x2e, 0x81, 0x3e, 0x49, 0xac,
    0xf7, 0x3e, 0xc8, 0xd0, 0x95, 0x3d, 0xfe, 0x24, 0x60, 0x3e,
    0x29, 0x0f, 0x54, 0xbd, 0x28, 0xb0, 0x04, 0x3e, 0xba, 0xa4,
    0xd6, 0x3b, 0xd6, 0xf3, 0x96, 0xbd, 0xce, 0xc5, 0x30, 0x3d,
    0x95, 0xf5, 0xb9, 0xbd, 0x8d, 0x3f, 0x1a, 0xbe, 0xe9, 0xf8,
    0x80, 0x3e, 0x80, 0xda, 0xc3, 0xbd, 0x90, 0x2d, 0x14, 0xbe,
    0x41, 0xcd, 0x96, 0x3c, 0x83, 0x13, 0x8d, 0x3d, 0x0a, 0x05,
    0xb9, 0x3e, 0xb4, 0xb2, 0xab, 0x3e, 0xee, 0xa6, 0xfb, 0xbc,
    0xae, 0x56, 0xfe, 0x3c, 0xcc, 0x04, 0xb6, 0x3e, 0xb3, 0xc3,
    0x18, 0x3e, 0x89, 0xd8, 0xa4, 0x3e, 0x85, 0x20, 0xf1, 0xbd,
    0x2c, 0x3d, 0x09, 0x3e, 0x1c, 0xc5, 0x28, 0x3d, 0xba, 0x73,
    0x19, 0xbe, 0xe9, 0x9e, 0x65, 0x3e, 0x16, 0x66, 0x02, 0xbe,
    0x71, 0x1a, 0x1b, 0xbd, 0xb2, 0xbd, 0x4c, 0xbe, 0xea, 0x85,
    0x9d, 0x3d, 0x7f, 0x28, 0x3e, 0x3e, 0x5d, 0x95, 0x36, 0x3e,
    0x8e, 0x01, 0x93, 0xbd, 0x10, 0x0b, 0x53, 0x3e, 0x69, 0x56,
    0xb3, 0xbd, 0x6a, 0x64, 0xca, 0x3d, 0x88, 0x22, 0x24, 0x3e,
    0x73, 0x71, 0x53, 0x3d, 0x2b, 0x3b, 0x3f, 0x3e, 0xe7, 0x72,
    0xd0, 0x3d, 0xce, 0xaf, 0xf6, 0x3d, 0x79, 0x07, 0x06, 0x3c,
    0xed, 0x07, 0x59, 0x3c, 0x5f, 0x4f, 0x9a, 0x3c, 0x7e, 0x07,
    0x05, 0xbc, 0xcc, 0x35, 0x23, 0x3d, 0x78, 0x75, 0x57, 0x3e,
    0xaf, 0x3e, 0xd0, 0x3d, 0x32, 0x3c, 0xca, 0x3c, 0x54, 0xf7,
    0xac, 0x3d, 0x9a, 0x54, 0x5e, 0x3d, 0xa4, 0x43, 0xef, 0x3d,
    0x23, 0x59, 0x94, 0xbe, 0x5b, 0xd6, 0xdf, 0xba, 0x7d, 0xe1,
    0x5b, 0x3e, 0x1e, 0x86, 0x64, 0x3d, 0x26, 0x85, 0x9b, 0xbd,
    0x98, 0xb4, 0x6e, 0xbd, 0xd5, 0xb3, 0x55, 0xbd, 0xd5, 0x19,
    0xa7, 0xbc, 0x21, 0x80, 0x9d, 0x3d, 0x2f, 0x83, 0x3f, 0x3d,
    0x85, 0x72, 0x07, 0x3d, 0xc6, 0x6c, 0xe8, 0x3d, 0xe5, 0xb0,
    0x4a, 0xbe, 0x94, 0x22, 0x55, 0xbd, 0x37, 0x04, 0xfb, 0x3d,
    0xfb, 0xd8, 0xe2, 0x3d, 0xe2, 0x61, 0xae, 0xbe, 0xf2, 0xd8,
    0x76, 0xbd, 0x6b, 0x81, 0xa1, 0x3d, 0x0a, 0xd0, 0x87, 0x3d,
    0x1a, 0x65, 0x2f, 0xbe, 0x03, 0xe2, 0x79, 0xbe, 0x29, 0xf7,
    0x49, 0x3d, 0x4f, 0xb2, 0x5f, 0x3d, 0x60, 0xf1, 0x76, 0xbd,
    0x91, 0x14, 0x5a, 0xbd, 0x7a, 0x3d, 0xe8, 0x3d, 0xe5, 0x1a,
    0xab, 0xbd, 0x66, 0xe4, 0x20, 0xbe, 0xd2, 0x1a, 0x8d, 0x3c,
    0xa5, 0x1e, 0x91, 0xbd, 0x32, 0x16, 0x83, 0x3e, 0x7a, 0xa9,
    0xff, 0xbe, 0x8a, 0x32, 0xf5, 0x3d, 0xbb, 0x87, 0xa5, 0x3d,
    0xae, 0xa7, 0x34, 0x3e, 0x8c, 0x56, 0x81, 0xbd, 0x6e, 0x00,
    0xed, 0xbd, 0x9e, 0x4d, 0x58, 0x3e, 0xd0, 0x75, 0x09, 0x3d,
    0x3d, 0x1c, 0x65, 0xbd, 0xbb, 0x9b, 0xc5, 0x3d, 0x2d, 0x93,
    0x01, 0x3e, 0xac, 0x77, 0xd2, 0x3d, 0xfd, 0x62, 0x0b, 0xbe,
    0xe1, 0x00, 0x64, 0x3e, 0xdf, 0x02, 0x10, 0x3e, 0x44, 0x73,
    0x92, 0x3e, 0x36, 0xc2, 0xb5, 0xbe, 0x8f, 0xc2, 0x8b, 0xbe,
    0xb9, 0xb6, 0x58, 0x3e, 0x06, 0x86, 0xe3, 0x3c, 0x49, 0xfa,
    0x6a, 0xbe, 0x8c, 0x7f, 0x51, 0xbe, 0x1f, 0xd2, 0x82, 0x3e,
    0x71, 0x18, 0x44, 0x3e, 0x23, 0xe1, 0xbb, 0xbd, 0x96, 0x48,
    0x6e, 0xbc, 0xde, 0x0a, 0xbd, 0x3d, 0x45, 0xe3, 0xe4, 0xba,
    0x66, 0xed, 0x1b, 0xbe, 0x1f, 0xa5, 0xa3, 0x3d, 0xe4, 0x08,
    0xb3, 0xbd, 0xf5, 0x4e, 0x34, 0x3c, 0x03, 0xaa, 0xd1, 0xbe,
    0xd3, 0x3d, 0x71, 0xbd, 0x57, 0xfe, 0x8c, 0x3d, 0x87, 0xee,
    0xc1, 0x3d, 0xff, 0x60, 0x0d, 0xbe, 0x12, 0x3e, 0x1a, 0xbd,
    0x30, 0xf5, 0x2c, 0x3c, 0x62, 0x40, 0xfc, 0x3d, 0x92, 0x6e,
    0x8d, 0xbe, 0xb3, 0x31, 0x39, 0x3e, 0x5f, 0xd0, 0x47, 0x3d,
    0xe1, 0x10, 0x07, 0x3e, 0x77, 0xaf, 0xe8, 0xbc, 0x34, 0xda,
    0x7e, 0xbd, 0xec, 0xca, 0xaa, 0xbe, 0x22, 0x39, 0x42, 0x3e,
    0xaa, 0x77, 0xe3, 0xbe, 0x01, 0xf4, 0xa2, 0x3d, 0x28, 0xe6,
    0x53, 0x3e, 0x4a, 0xd1, 0xa6, 0x3e, 0x01, 0x0f, 0x9c, 0xbd,
    0xa5, 0xf0, 0x3d, 0x3d, 0x26, 0x71, 0x9a, 0xbd, 0x59, 0x55,
    0x25, 0x3d, 0x5e, 0xed, 0xb9, 0xbd, 0xd6, 0xe2, 0xc0, 0xbd,
    0x1e, 0xb3, 0xc0, 0xbd, 0x33, 0x82, 0x49, 0xbe, 0x01, 0x3e,
    0x80, 0x3d, 0x93, 0x31, 0xe1, 0xbb, 0x9a, 0xe6, 0x3a, 0xbe,
    0x99, 0x95, 0x0a, 0x3e, 0x95, 0x5f, 0xf0, 0xbd, 0x4b, 0x23,
    0xb1, 0xbd, 0xb4, 0x5d, 0x99, 0xbd, 0x71, 0x86, 0x1d, 0x3e,
    0x1a, 0xe0, 0x64, 0xbe, 0x87, 0x34, 0x88, 0xbd, 0xbb, 0xd2,
    0xb6, 0x3b, 0x3b, 0xc8, 0x0f, 0xbe, 0xea, 0x02, 0x14, 0xbd,
    0x5a, 0x38, 0x4b, 0x3d, 0x3a, 0x6c, 0x84, 0xbd, 0x15, 0x28,
    0xff, 0x3d, 0xfa, 0x60, 0xb0, 0xbc, 0x78, 0xba, 0xbb, 0xbd,
    0x30, 0x03, 0x58, 0x3d, 0xf4, 0x56, 0xe2, 0xbd, 0xec, 0xc1,
    0x3a, 0xbe, 0xea, 0x30, 0xf4, 0xbd, 0xbe, 0xb0, 0x1d, 0x3e,
    0x62, 0x88, 0x17, 0xbe, 0x43, 0x04, 0x0c, 0xbe, 0x63, 0xd1,
    0xa3, 0x3d, 0x60, 0xfc, 0xce, 0xbd, 0x08, 0xc1, 0xc4, 0x3d,
    0x3d, 0xad, 0x98, 0x3c, 0x81, 0x0a, 0xc1, 0xbd, 0x0a, 0x30,
    0x14, 0xbe, 0xf2, 0x9c, 0x9a, 0x3c, 0xe7, 0x29, 0x35, 0x3e,
    0x4b, 0x81, 0x3c, 0xbc, 0x8e, 0x7f, 0x13, 0x3e, 0x77, 0x7e,
    0x96, 0xbc, 0x2a, 0xb1, 0x1b, 0xbe, 0x2d, 0x77, 0xaf, 0x3e,
    0x8f, 0x3d, 0xf3, 0x3d, 0x59, 0x73, 0x21, 0xbe, 0x2e, 0x89,
    0x1f, 0xbe, 0xc1, 0xf0, 0x16, 0xbe, 0xa5, 0x3c, 0xde, 0x3c,
    0x0e, 0xcb, 0x6f, 0xbd, 0x64, 0x95, 0x60, 0x3d, 0xa7, 0xdc,
    0x2a, 0xbe, 0x46, 0xca, 0x75, 0x3c, 0x6b, 0xb9, 0xd1, 0x3d,
    0xe5, 0xfc, 0x15, 0x3c, 0xde, 0x80, 0xc8, 0x3b, 0x05, 0xa2,
    0x6e, 0x3c, 0x59, 0x31, 0x27, 0xbe, 0x88, 0x9e, 0x3c, 0xbe,
    0xc2, 0xa7, 0x03, 0x3e, 0xa1, 0x95, 0x02, 0x3d, 0x3d, 0x97,
    0x19, 0xbe, 0xda, 0xa6, 0x00, 0x3d, 0x5f, 0x11, 0x35, 0xbe,
    0x39, 0x52, 0xa4, 0xbd, 0x91, 0xed, 0x4c, 0xbc, 0xc9, 0x8f,
    0xfa, 0x3d, 0x6e, 0xf4, 0x9d, 0x3d, 0x49, 0xf7, 0xb3, 0xbc,
    0x96, 0xc6, 0x83, 0x3d, 0x50, 0x8c, 0x1a, 0x3e, 0xea, 0x93,
    0x4c, 0x3d, 0x86, 0xf1, 0xba, 0x3d, 0x1f, 0xcb, 0x7a, 0x3d,
    0xae, 0x92, 0x18, 0xbe, 0x36, 0x6b, 0x08, 0x3e, 0xaa, 0xd6,
    0x7e, 0x3d, 0xd8, 0xc8, 0x12, 0xbd, 0x4b, 0x53, 0xa7, 0xbd,
    0x68, 0xea, 0xad, 0xbd, 0x16, 0x40, 0x6b, 0xbd, 0x09, 0x76,
    0x24, 0xbe, 0x6d, 0x77, 0x4e, 0xbe, 0x1f, 0x51, 0x6a, 0xbe,
    0x23, 0xe0, 0x45, 0xbd, 0x73, 0xbd, 0xe0, 0xbd, 0x13, 0x78,
    0x80, 0x3d, 0x0b, 0xb9, 0xa0, 0x3d, 0x4f, 0x50, 0x05, 0x3d,
    0x8a, 0x9f, 0x97, 0xbc, 0x61, 0x64, 0x44, 0xbe, 0x55, 0x0d,
    0x84, 0x3e, 0xd2, 0x54, 0xa2, 0xbd, 0x6b, 0xe3, 0x87, 0xbd,
    0x1f, 0x83, 0x34, 0xbe, 0xff, 0x32, 0x3b, 0x3d, 0xd8, 0x37,
    0x12, 0xbe, 0x88, 0x3f, 0x22, 0xbe, 0x31, 0x83, 0x6c, 0x3d,
    0x8b, 0xae, 0x0f, 0xbd, 0x22, 0x86, 0xe0, 0xbd, 0x2f, 0x25,
    0x07, 0xbd, 0x6a, 0x08, 0x86, 0xbe, 0x45, 0x66, 0x4b, 0xbe,
    0x89, 0xc9, 0x88, 0x3d, 0x1f, 0xc6, 0x8a, 0xbd, 0x4f, 0x54,
    0x29, 0xbe, 0x03, 0x87, 0x3b, 0x39, 0x82, 0x7d, 0x17, 0x3e,
    0xbd, 0x7b, 0xb1, 0x3d, 0xf1, 0x26, 0xaa, 0x3d, 0xe3, 0xde,
    0x03, 0xbe, 0xd8, 0x3e, 0x75, 0x3d, 0x7e, 0xce, 0x4d, 0xbe,
    0x3f, 0xfc, 0xfe, 0xbd, 0xb5, 0x46, 0xde, 0xbd, 0x28, 0x93,
    0x60, 0x3d, 0xf4, 0xea, 0x96, 0x3c, 0xc9, 0x1e, 0x21, 0xbe,
    0xdf, 0x56, 0x15, 0x3d, 0xd8, 0x3f, 0x38, 0xbe, 0x8e, 0x46,
    0x1a, 0x3e, 0x49, 0xae, 0x16, 0xbd, 0x09, 0x18, 0x6c, 0xbd,
    0xf3, 0xbe, 0xe0, 0xbd, 0x23, 0x98, 0x88, 0xbd, 0x43, 0x70,
    0x18, 0xbd, 0xf5, 0xce, 0x97, 0x3d, 0x73, 0xaa, 0x3f, 0x3c,
    0x38, 0xcc, 0x40, 0xbe, 0xaa, 0x4b, 0xcb, 0x3b, 0xa6, 0x62,
    0x1f, 0xbe, 0x1a, 0x65, 0xdb, 0xbd, 0xe3, 0x5a, 0xf5, 0x3d,
    0xa9, 0x75, 0x59, 0xbd, 0x7d, 0x33, 0x2e, 0x3d, 0x8f, 0x9f,
    0xa3, 0xbd, 0x09, 0x34, 0xce, 0xbb, 0xeb, 0x9a, 0x15, 0x3d,
    0xdf, 0x98, 0x50, 0x3e, 0x4b, 0x76, 0xc9, 0xbd, 0xe8, 0xae,
    0xeb, 0xba, 0x26, 0x83, 0x29, 0xbd, 0x19, 0x78, 0x0d, 0xbe,
    0xd3, 0x8f, 0x59, 0xbd, 0x03, 0xa6, 0x73, 0x3c, 0x9c, 0xd7,
    0xe5, 0x3d, 0x99, 0xa5, 0x78, 0x3d, 0x16, 0x93, 0x59, 0xbd,
    0xb4, 0xad, 0x81, 0xbc, 0x97, 0x36, 0x46, 0x3d, 0xcf, 0x9d,
    0xa2, 0xbd, 0x79, 0x58, 0x3f, 0xbd, 0xf1, 0x9d, 0xfe, 0xbd,
    0xfb, 0xdb, 0x05, 0x3c, 0xc5, 0xb2, 0xca, 0x3c, 0xdc, 0x47,
    0x01, 0xbe, 0x66, 0x60, 0x50, 0xbe, 0x09, 0x73, 0xa9, 0x3d,
    0xae, 0xc5, 0x8f, 0x3c, 0x37, 0xa9, 0x78, 0xbc, 0x7d, 0xc4,
    0x5a, 0x3d, 0xa6, 0xc0, 0x17, 0xbe, 0xdb, 0x57, 0x44, 0xbb,
    0xe3, 0xcc, 0x18, 0x3c, 0xcb, 0xa4, 0x73, 0xba, 0x49, 0x82,
    0x33, 0x3e, 0x20, 0x67, 0xc9, 0xbd, 0xad, 0x1f, 0x6d, 0x3d,
    0xe7, 0x1e, 0x4a, 0x3d, 0xc1, 0x10, 0x4e, 0xbd, 0xe9, 0xbf,
    0x25, 0x3e, 0xd9, 0x41, 0x90, 0x3c, 0x71, 0x10, 0x2f, 0xbe,
    0xf9, 0xd8, 0xd7, 0x3c, 0x8f, 0x88, 0x29, 0xbd, 0x3d, 0xa8,
    0x45, 0xbe, 0x06, 0x9d, 0x38, 0xbe, 0xe2, 0x73, 0xd3, 0x3d,
    0xd9, 0xee, 0x45, 0xbe, 0xb8, 0x70, 0x11, 0xbe, 0xe1, 0xbe,
    0xd5, 0xbd, 0xe2, 0x73, 0xf7, 0x3c, 0xaa, 0x2b, 0xa1, 0xbd,
    0x55, 0x6b, 0x1d, 0x3e, 0xf4, 0x87, 0xe9, 0x3d, 0x40, 0x77,
    0x01, 0xbe, 0xea, 0x66, 0xad, 0x3e, 0x36, 0xe8, 0x8b, 0x3d,
    0xb3, 0xf8, 0x54, 0x3d, 0x07, 0xf9, 0x29, 0xbe, 0xe5, 0xbb,
    0x35, 0x3d, 0x3c, 0x09, 0x06, 0x3e, 0x57, 0x33, 0x31, 0xbc,
    0x5d, 0x50, 0x7a, 0xbd, 0x4b, 0xc7, 0x47, 0x3d, 0x39, 0x1f,
    0xcb, 0xbd, 0x45, 0x99, 0x73, 0xbe, 0x6c, 0x49, 0x48, 0xbe,
    0x41, 0x29, 0xa6, 0x3d, 0x5e, 0x9b, 0x35, 0x3e, 0x55, 0x81,
    0xc8, 0x3c, 0x5f, 0xf4, 0x77, 0xbe, 0x2c, 0xce, 0xa1, 0xbd,
    0x8b, 0xe4, 0xff, 0xbd, 0xff, 0xd3, 0x45, 0xbc, 0x3e, 0x74,
    0x18, 0xbe, 0x4e, 0xf1, 0x92, 0xbc, 0xbd, 0xb7, 0x2b, 0xbe,
    0xc3, 0x46, 0x35, 0xbe, 0x69, 0xcc, 0xca, 0xbc, 0xc6, 0x6c,
    0xfe, 0xbd, 0x71, 0xe3, 0xa9, 0xbd, 0xdb, 0x21, 0x8f, 0xbe,
    0xb6, 0x53, 0xa2, 0xbe, 0x06, 0x43, 0xbc, 0x3d, 0xd3, 0x91,
    0x6c, 0xbd, 0x32, 0xf0, 0x27, 0xbc, 0x4f, 0x74, 0xa8, 0xbc,
    0x6e, 0x88, 0xab, 0xbe, 0x44, 0x6f, 0x07, 0x3e, 0xbf, 0x0c,
    0xaa, 0xbe, 0x23, 0x4c, 0x3f, 0xbe, 0xcf, 0x53, 0x22, 0xbe,
    0x53, 0x83, 0x94, 0x3d, 0xba, 0x54, 0xc4, 0xbe, 0x35, 0x3b,
    0x8c, 0x3e, 0x96, 0x52, 0x78, 0xbd, 0xaa, 0x9e, 0x2e, 0x3e,
    0xa2, 0xae, 0x0e, 0xbd, 0xe1, 0xa1, 0xa0, 0xbd, 0x65, 0xb5,
    0x03, 0x3e, 0xcb, 0x41, 0xee, 0xbd, 0xfd, 0x87, 0x6a, 0xbf,
    0x45, 0x76, 0x18, 0xbd, 0x97, 0xc9, 0x2a, 0xbe, 0xc1, 0xf5,
    0xe4, 0xbd, 0x4f, 0xf7, 0xa4, 0x3d, 0x08, 0x9a, 0x75, 0xbe,
    0x40, 0xac, 0x3c, 0xbd, 0x95, 0x5d, 0x2f, 0x3d, 0x48, 0xff,
    0x9e, 0xbd, 0xce, 0x52, 0x4e, 0x3e, 0xb0, 0xd3, 0xc3, 0xbe,
    0x06, 0xd0, 0xe1, 0x3d, 0xfa, 0x5c, 0xad, 0x3d, 0x7b, 0x66,
    0x03, 0x3e, 0x1a, 0xe6, 0xd7, 0x3d, 0x20, 0x34, 0x47, 0xbe,
    0x3d, 0xc4, 0xdd, 0x3d, 0x67, 0x04, 0x27, 0xbc, 0x79, 0xeb,
    0x9a, 0x3d, 0x98, 0x15, 0x59, 0x3e, 0x68, 0x01, 0x9f, 0x3d,
    0x17, 0x3e, 0x88, 0x3d, 0x85, 0xe8, 0xe7, 0xbd, 0x1f, 0x51,
    0x44, 0x3e, 0x69, 0x2b, 0x95, 0xbc, 0x87, 0x1e, 0x76, 0x3e,
    0xee, 0x09, 0xf7, 0xbd, 0xe8, 0x60, 0xfb, 0x3d, 0x74, 0xf2,
    0x0d, 0xbc, 0x09, 0xe5, 0x17, 0x3e, 0xca, 0x84, 0x1d, 0x3d,
    0x2e, 0xc8, 0x25, 0xbe, 0x97, 0x75, 0x77, 0x3d, 0xa1, 0xf2,
    0xa9, 0xbd, 0xac, 0x70, 0xb5, 0x3e, 0x3d, 0xa0, 0x43, 0x3e,
    0xb3, 0xc8, 0xab, 0xbe, 0x03, 0xa6, 0x02, 0x3e, 0x96, 0x0b,
    0x8a, 0xbd, 0x24, 0x3d, 0x38, 0x3d, 0x96, 0x22, 0xb7, 0xbd,
    0xc9, 0x4b, 0x6d, 0x3e, 0xbc, 0xf8, 0xb9, 0xbd, 0xf6, 0x6b,
    0x18, 0x3e, 0x13, 0xa4, 0x16, 0x3d, 0x08, 0x25, 0x4e, 0x3d,
    0x39, 0x52, 0xe5, 0xbd, 0x06, 0xcc, 0x10, 0xbe, 0x42, 0x6d,
    0x75, 0x3d, 0x9c, 0xa3, 0xa9, 0xbd, 0x46, 0x88, 0x72, 0x3e,
    0xc6, 0xce, 0xb7, 0x3c, 0x1e, 0x3a, 0xa3, 0xbe, 0x93, 0xe3,
    0xe1, 0x3d, 0xae, 0x70, 0xbe, 0xbc, 0x68, 0x81, 0xb1, 0xbc,
    0x81, 0x7d, 0x54, 0xbd, 0x5d, 0xec, 0xb2, 0x3e, 0xe2, 0x93,
    0x74, 0xbd, 0x91, 0x10, 0x14, 0x3e, 0x47, 0xff, 0x9d, 0xbd,
    0x75, 0xa5, 0xf6, 0x3d, 0xe1, 0x3a, 0x0c, 0xbd, 0xe9, 0x30,
    0x32, 0xbe, 0xff, 0xd4, 0x36, 0x3e, 0xe5, 0x29, 0x23, 0xbd,
    0xdf, 0x6b, 0xc2, 0x3e, 0xb6, 0xf5, 0xb8, 0xbd, 0x73, 0x09,
    0xbd, 0xbe, 0x47, 0x61, 0x81, 0x3b, 0x48, 0xca, 0x8a, 0xbd,
    0x55, 0x7f, 0x2b, 0x3e, 0x58, 0xfd, 0xbb, 0xbd, 0xc6, 0xcb,
    0x49, 0x3e, 0xb1, 0x25, 0x92, 0x3c, 0xa0, 0x56, 0xce, 0x3d,
    0x52, 0x1e, 0xda, 0xbd, 0xf8, 0x24, 0x04, 0x3d, 0xd4, 0x5e,
    0xb9, 0x3c, 0x87, 0xfd, 0x8a, 0x3b, 0xf2, 0x51, 0x6b, 0x3a,
    0x77, 0xef, 0xae, 0xbd, 0xe0, 0xd3, 0xcb, 0x3e, 0xcf, 0xaa,
    0x26, 0x3c, 0x6e, 0x70, 0x35, 0xbe, 0x2e, 0x0f, 0xa1, 0x3d,
    0x0c, 0xd0, 0x34, 0xbd, 0xf1, 0x43, 0xf3, 0x3d, 0x0d, 0x26,
    0xa1, 0xbd, 0x08, 0x31, 0x01, 0x3e, 0x34, 0xa5, 0x81, 0xbd,
    0x00, 0xc0, 0xbb, 0x3d, 0xb9, 0x8c, 0xf5, 0xbc, 0x18, 0x02,
    0xf3, 0xba, 0x85, 0x34, 0x61, 0xbc, 0x8a, 0x59, 0xc2, 0xbd,
    0x4e, 0x05, 0xfb, 0x3c, 0xfb, 0xc2, 0x1f, 0xbd, 0x93, 0xc9,
    0xa7, 0x3e, 0x5a, 0x16, 0xaa, 0xbb, 0x58, 0xef, 0x1f, 0xbe,
    0x09, 0x98, 0x3f, 0x3d, 0x41, 0x62, 0xa8, 0xbd, 0xf2, 0xa4,
    0x3e, 0x3e, 0xbd, 0x62, 0xbb, 0xbc, 0x1f, 0x41, 0x58, 0x3e,
    0x53, 0x71, 0x07, 0xbd, 0x6c, 0xa4, 0x14, 0x3e, 0xce, 0x6d,
    0x60, 0xbd, 0x85, 0xe0, 0xc2, 0x3d, 0xd9, 0x46, 0x7f, 0xbc,
    0xdb, 0x46, 0x79, 0xbd, 0x09, 0xd9, 0x03, 0x3d, 0x6c, 0x95,
    0x70, 0xbd, 0xc8, 0x08, 0x7f, 0x3e, 0xb4, 0x22, 0x14, 0x3e,
    0xd1, 0xe9, 0x2a, 0xbe, 0x93, 0x4f, 0xde, 0x3d, 0x30, 0x7c,
    0x07, 0x3d, 0x8a, 0xd5, 0x4b, 0x3e, 0xc4, 0x90, 0x7f, 0x3c,
    0x8d, 0xa9, 0x28, 0x3e, 0xd4, 0xbf, 0x97, 0xbc, 0xbe, 0x0f,
    0x01, 0x3e, 0x46, 0x3e, 0x9f, 0x3d, 0x45, 0xb7, 0x61, 0x3b,
    0x07, 0xb6, 0x1c, 0x3c, 0x39, 0x3a, 0x18, 0xbe, 0x09, 0x54,
    0x07, 0xbe, 0x30, 0x69, 0x94, 0xbc, 0xfe, 0xa9, 0x8a, 0x3e,
    0x55, 0xc5, 0x59, 0x3e, 0x39, 0x63, 0x79, 0xbe, 0x9b, 0x7c,
    0x18, 0x3e, 0xa5, 0x74, 0x29, 0x3d, 0x21, 0x81, 0xe1, 0x3c,
    0xca, 0x97, 0x12, 0xbd, 0xfd, 0x09, 0x57, 0x3e, 0x27, 0xf6,
    0xf5, 0xbd, 0x18, 0x76, 0x51, 0x3e, 0xb3, 0xfe, 0x24, 0x3e,
    0x88, 0xf1, 0xf4, 0xbb, 0x02, 0xb4, 0x20, 0xbd, 0xdb, 0xd1,
    0x5a, 0xbd, 0xde, 0x0c, 0xd7, 0x3d, 0x60, 0x56, 0x0b, 0x3d,
    0x01, 0x9a, 0x97, 0x3e, 0x72, 0x28, 0x03, 0x3e, 0x67, 0x3b,
    0x81, 0xbe, 0x14, 0xea, 0x2a, 0x3d, 0xb7, 0xb3, 0x7d, 0xbd,
    0x56, 0x02, 0xb4, 0xbc, 0x94, 0x9b, 0x25, 0x3d, 0xf1, 0xcc,
    0xb1, 0x3e, 0x23, 0xa2, 0x39, 0xbe, 0xd1, 0xc6, 0xbf, 0x3d,
    0xd5, 0xc9, 0x13, 0x3e, 0x0f, 0x2d, 0xce, 0x3d, 0xb1, 0xd9,
    0x49, 0x3c, 0x3c, 0xa8, 0xf3, 0xbd, 0x59, 0x25, 0x74, 0x3c,
    0x84, 0x05, 0x7c, 0x3b, 0xf8, 0xc8, 0x96, 0x3e, 0xef, 0xf1,
    0x5d, 0xbd, 0x18, 0xae, 0x90, 0xbe, 0xf6, 0xea, 0x67, 0x3e,
    0xd8, 0xc6, 0x68, 0x3d, 0x16, 0x07, 0x8c, 0xbe, 0xcb, 0x3a,
    0x6e, 0xbd, 0xd7, 0x8e, 0x3b, 0x3e, 0x75, 0x55, 0xb5, 0xbe,
    0x02, 0x31, 0xaf, 0x3a, 0xfa, 0x23, 0xe6, 0xbd, 0x17, 0x24,
    0x1b, 0x3e, 0xa1, 0x2e, 0x51, 0xbd, 0x6c, 0xd1, 0xfb, 0xbd,
    0x17, 0xd1, 0x9f, 0x3d, 0x5a, 0x1a, 0x33, 0xbd, 0xfc, 0x1a,
    0xd5, 0x3e, 0x94, 0xf2, 0xd0, 0xbd, 0x83, 0x0f, 0x80, 0xbe,
    0x2b, 0xd8, 0x0c, 0x3e, 0x6b, 0x0d, 0xc4, 0xbb, 0x13, 0x07,
    0xdc, 0xbe, 0xbd, 0x81, 0x99, 0xbe, 0xeb, 0xd0, 0x9b, 0x3e,
    0x63, 0xc3, 0xad, 0xbe, 0x20, 0x1d, 0xc4, 0xbe, 0xe0, 0x51,
    0x5f, 0x3a, 0xe9, 0x1c, 0x04, 0x3e, 0x09, 0xde, 0x32, 0xbe,
    0x71, 0x15, 0x82, 0x3d, 0x7b, 0xb5, 0x93, 0x3d, 0x00, 0xb2,
    0x29, 0xbd, 0x49, 0xfc, 0xb9, 0x3e, 0x6d, 0x8f, 0x4f, 0x3c,
    0x20, 0x51, 0xc3, 0x3c, 0x15, 0x4f, 0x8d, 0x3c, 0x45, 0x70,
    0xb9, 0x3d, 0xa8, 0x25, 0xa6, 0xbb, 0x56, 0xb9, 0x2e, 0xbf,
    0x93, 0xa3, 0xba, 0xbe, 0xf4, 0x5b, 0x4f, 0xbe, 0x52, 0x6a,
    0x25, 0xbd, 0xc8, 0xb9, 0x27, 0xbf, 0x66, 0xf0, 0xf8, 0xbe,
    0xaa, 0x62, 0xb2, 0x3d, 0x7c, 0x18, 0x51, 0xbe, 0x30, 0xaa,
    0x33, 0xbe, 0xc9, 0x9b, 0x44, 0xbd, 0x47, 0x80, 0x88, 0xbe,
    0x78, 0x90, 0x04, 0x3e, 0x0d, 0xf3, 0x04, 0xbf, 0x79, 0xb8,
    0x20, 0xbf, 0x2d, 0x1f, 0x06, 0x3d, 0x1c, 0x47, 0x39, 0x3d,
    0xb1, 0x86, 0x48, 0xbd, 0xdf, 0x23, 0xcd, 0xbd, 0x77, 0x50,
    0xb8, 0x3c, 0xe5, 0x44, 0x2d, 0xbe, 0x4b, 0x26, 0xa5, 0xbd,
    0x41, 0x17, 0x4d, 0x3d, 0xf1, 0x73, 0x0e, 0x3e, 0x1f, 0x2d,
    0x0f, 0x3d, 0x30, 0x29, 0x8a, 0x3e, 0x28, 0x72, 0x55, 0xbe,
    0x10, 0xb0, 0x32, 0xbe, 0xbd, 0x87, 0xdf, 0xbd, 0x6a, 0xfb,
    0x66, 0x3d, 0x30, 0xae, 0x02, 0x3e, 0x2b, 0xdb, 0x51, 0x3d,
    0xe4, 0xcf, 0x3c, 0x3d, 0xa8, 0x1e, 0xd5, 0xbd, 0xea, 0x9e,
    0xad, 0x3d, 0xb4, 0x6e, 0x6a, 0xbe, 0x9a, 0x61, 0x27, 0xbe,
    0x6a, 0x52, 0x28, 0xbe, 0x8c, 0xab, 0x4b, 0xbe, 0x7d, 0xdc,
    0x87, 0xbd, 0x1f, 0xa4, 0xc7, 0xb8, 0xb1, 0xfe, 0xb8, 0xbd,
    0x35, 0x01, 0x01, 0x3e, 0x83, 0xdf, 0x2d, 0x3d, 0xa8, 0x71,
    0xf4, 0xbd, 0x58, 0x01, 0x8a, 0x3d, 0x50, 0x5d, 0x0f, 0x3e,
    0x5b, 0x23, 0xb5, 0xbd, 0xd1, 0x0b, 0x4b, 0xbe, 0xb4, 0x72,
    0x12, 0xbe, 0xd5, 0x42, 0x8b, 0x3d, 0x30, 0xd9, 0x7f, 0xbe,
    0xda, 0xec, 0x4b, 0x3d, 0xfa, 0x66, 0xbe, 0xbc, 0xe0, 0x66,
    0x19, 0xbd, 0x6c, 0xdd, 0x8a, 0x3d, 0xe1, 0x0f, 0x12, 0xbe,
    0x29, 0xd7, 0xe7, 0xbc, 0x3f, 0xa1, 0x3c, 0x3d, 0xff, 0x25,
    0xc1, 0x3c, 0x70, 0x33, 0x13, 0xbc, 0x93, 0x8f, 0x1e, 0xbe,
    0xea, 0xe0, 0x6e, 0xbd, 0x65, 0xf5, 0x31, 0xbe, 0x96, 0x04,
    0x17, 0x3e, 0xac, 0xc3, 0x12, 0xbe, 0x45, 0xdf, 0x14, 0x3e,
    0xe8, 0x2f, 0x90, 0xbd, 0x32, 0xab, 0x13, 0xbe, 0x3c, 0x40,
    0x9f, 0xbc, 0x2d, 0xa3, 0x7f, 0xbd, 0x24, 0xe8, 0x0c, 0xbe,
    0x85, 0x89, 0x65, 0xbd, 0xab, 0x79, 0x02, 0xbb, 0xad, 0xcb,
    0x11, 0x3d, 0x57, 0x07, 0x9a, 0xbd, 0x0e, 0xe1, 0x19, 0xbd,
    0xec, 0x65, 0x0e, 0xbe, 0x2b, 0xf5, 0x50, 0x3d, 0x05, 0x0a,
    0xbd, 0xbd, 0x1c, 0x6b, 0x14, 0xbe, 0x25, 0xbb, 0x4e, 0xbe,
    0x27, 0xb6, 0xf2, 0x3d, 0xc4, 0xeb, 0xbb, 0xbd, 0x59, 0xb3,
    0x01, 0xbe, 0x76, 0x15, 0x24, 0xbe, 0x1e, 0x90, 0x1e, 0xbd,
    0x2f, 0xf8, 0x58, 0x3d, 0x09, 0x83, 0xeb, 0x3d, 0xad, 0xca,
    0x3f, 0x3d, 0xe2, 0x30, 0x33, 0x3d, 0x58, 0x26, 0xaf, 0xbd,
    0x7e, 0x47, 0x89, 0x3d, 0x7e, 0x35, 0x0a, 0xbe, 0xd5, 0x26,
    0x9a, 0x3d, 0xc2, 0x8f, 0x4f, 0xbd, 0x46, 0x38, 0x82, 0x3d,
    0x05, 0xfb, 0x60, 0xbe, 0xdc, 0xe4, 0x80, 0xbd, 0x76, 0x0d,
    0x27, 0xbe, 0x7e, 0x9a, 0x33, 0xbe, 0x15, 0x07, 0x35, 0xbe,
    0xdf, 0x29, 0xcc, 0x3d, 0xf7, 0x0f, 0x88, 0xbd, 0x3e, 0xf6,
    0x1f, 0x3e, 0xd2, 0x1d, 0x0e, 0xbd, 0x4f, 0xc5, 0x51, 0xbd,
    0x2c, 0x07, 0x5e, 0xbe, 0xf4, 0x87, 0xc3, 0xbd, 0x70, 0xf3,
    0x7b, 0xbe, 0x73, 0x6e, 0x9a, 0xbd, 0x82, 0x6d, 0x3d, 0xbe,
    0xc6, 0x4d, 0x47, 0xbc, 0xdc, 0x4c, 0x5b, 0xbe, 0x6e, 0x17,
    0x9b, 0xbd, 0xe5, 0xd8, 0x57, 0xbe, 0x7b, 0x03, 0x80, 0x3d,
    0xa4, 0x40, 0xc2, 0xbc, 0x23, 0xcd, 0xd0, 0xbc, 0x80, 0x7c,
    0x23, 0x3d, 0xba, 0x0c, 0xa2, 0x3e, 0x54, 0x9c, 0x92, 0x3e,
    0x8d, 0xf3, 0xed, 0xbd, 0xc8, 0x9b, 0xd6, 0x3d, 0x0d, 0xc8,
    0x09, 0xbe, 0xee, 0x27, 0x47, 0xbd, 0xf5, 0x21, 0x2d, 0x3d,
    0x0c, 0x59, 0xe9, 0x3d, 0x4b, 0xd7, 0x81, 0xbd, 0xc2, 0x49,
    0x28, 0xbd, 0x5f, 0x7d, 0x65, 0x3e, 0x3b, 0xd4, 0x15, 0xbd,
    0xe2, 0xa5, 0xeb, 0xbd, 0x10, 0xc5, 0x73, 0xbe, 0xc9, 0x4d,
    0xfb, 0xbd, 0xd7, 0xa5, 0xd3, 0x3c, 0xb6, 0x4f, 0x7f, 0xbd,
    0xd2, 0x31, 0x49, 0x3e, 0x1b, 0xc1, 0x01, 0xbe, 0x3e, 0xfb,
    0x22, 0xbc, 0x44, 0xd4, 0x85, 0x3d, 0x64, 0x08, 0xe8, 0x3c,
    0xe4, 0x1e, 0x87, 0x3d, 0x59, 0x4a, 0x11, 0xbd, 0xb2, 0x04,
    0x42, 0xbe, 0xee, 0x7b, 0x43, 0xbe, 0x73, 0x24, 0x8b, 0x3e,
    0xa6, 0x51, 0x99, 0x3d, 0xac, 0xd5, 0xc9, 0xbd, 0xfd, 0x99,
    0x35, 0x3c, 0x85, 0xde, 0xe0, 0x3d, 0xc4, 0x90, 0xd6, 0xbd,
    0xba, 0xa6, 0xf7, 0xbc, 0x38, 0x61, 0x8a, 0x3e, 0xee, 0x51,
    0x53, 0xbd, 0xf7, 0x61, 0x8d, 0xbd, 0xf9, 0x06, 0x54, 0xbd,
    0xd8, 0xe5, 0x84, 0x3e, 0x8f, 0x15, 0xb9, 0xbd, 0x8d, 0x59,
    0x07, 0xbe, 0xc3, 0x82, 0x83, 0xbe, 0x46, 0x83, 0xeb, 0xbd,
    0xb3, 0xfc, 0x32, 0xbe, 0x69, 0x9a, 0x4e, 0x3c, 0xca, 0xcd,
    0xf0, 0x3c, 0xb0, 0x5d, 0x1b, 0x3d, 0x8d, 0x85, 0x0a, 0x3e,
    0x3b, 0x66, 0x14, 0x3e, 0x94, 0xdd, 0x00, 0x3e, 0x91, 0x37,
    0xd0, 0x3d, 0x65, 0x1e, 0x10, 0xbe, 0x44, 0x12, 0xee, 0xbd,
    0x2b, 0x88, 0xa9, 0x3d, 0x4c, 0x66, 0x50, 0x3c, 0x5e, 0x98,
    0x8f, 0xbd, 0x22, 0x91, 0x8f, 0x3d, 0xb9, 0x47, 0x98, 0x3d,
    0x4c, 0xa8, 0x05, 0xbc, 0x82, 0x21, 0xc2, 0x3c, 0xf5, 0x29,
    0x2c, 0xbe, 0xc5, 0xdd, 0xa0, 0xbd, 0x04, 0xfd, 0xb8, 0x3d,
    0xc4, 0x21, 0xbd, 0xbd, 0x81, 0x01, 0x0a, 0x3e, 0x44, 0x26,
    0xbc, 0xbd, 0xcb, 0xfb, 0x91, 0x3c, 0x19, 0x7c, 0x95, 0x3d,
    0x60, 0x93, 0x02, 0x3e, 0xf6, 0x02, 0xde, 0x3d, 0x18, 0xe6,
    0x81, 0xbd, 0x6f, 0x3e, 0x23, 0xbb, 0xe8, 0xbd, 0x95, 0x3d,
    0x6e, 0x62, 0x0e, 0x3e, 0xb9, 0x30, 0x7c, 0xbe, 0x15, 0x6d,
    0x69, 0x3c, 0x32, 0x95, 0x19, 0xbe, 0x7a, 0x97, 0xea, 0xbd,
    0xa8, 0x50, 0x8f, 0xbd, 0xea, 0xff, 0xc2, 0x3a, 0x44, 0x73,
    0xde, 0x3b, 0xdc, 0xdc, 0xcf, 0xbd, 0x46, 0x9a, 0x57, 0xbd,
    0xf2, 0xd8, 0x04, 0x3e, 0xe9, 0xbf, 0xd3, 0xbd, 0x43, 0x26,
    0xa8, 0xbd, 0x61, 0xd8, 0x2a, 0xbe, 0x73, 0x1a, 0x05, 0xbb,
    0xa3, 0x19, 0x6c, 0xbc, 0x15, 0x4e, 0x55, 0x3e, 0x24, 0x58,
    0xc2, 0xbd, 0x7a, 0xda, 0x59, 0xbd, 0x2f, 0xab, 0xd2, 0xbd,
    0x50, 0x5f, 0x8c, 0xbc, 0x9b, 0xa8, 0x36, 0xbe, 0xba, 0xbc,
    0xca, 0x3c, 0x2f, 0x92, 0xb2, 0xbd, 0x24, 0x70, 0x89, 0xbe,
    0x3f, 0x7a, 0x31, 0xbe, 0x0b, 0x16, 0x72, 0x3d, 0x5e, 0xc9,
    0x0a, 0x3c, 0x26, 0xe0, 0x00, 0xbe, 0x13, 0xa7, 0x42, 0xbe,
    0xb2, 0x26, 0x01, 0xbe, 0x82, 0xfb, 0x3a, 0x3d, 0xe3, 0x84,
    0x8f, 0x3c, 0x18, 0xcb, 0xc6, 0xbe, 0x14, 0xf5, 0xf5, 0x3c,
    0xf7, 0x2f, 0xcb, 0xbe, 0xcf, 0x14, 0x1b, 0xbe, 0xf0, 0x19,
    0xbe, 0xbd, 0xc6, 0x2a, 0x2f, 0xbe, 0xcc, 0x7e, 0xd4, 0xbd,
    0x97, 0xb8, 0xe5, 0x3d, 0x2a, 0xed, 0x9c, 0x3d, 0x93, 0xdd,
    0x74, 0x3c, 0xe2, 0xad, 0x1d, 0xbe, 0x52, 0xba, 0xf8, 0xbd,
    0xaf, 0xa2, 0xa1, 0xbd, 0x33, 0xe7, 0xf0, 0x39, 0x36, 0x77,
    0x6d, 0xbe, 0xe9, 0x94, 0x78, 0x3e, 0x8f, 0xbd, 0x9d, 0xbe,
    0x57, 0xf1, 0x73, 0x3e, 0xd7, 0xa7, 0x73, 0xbe, 0x04, 0x5b,
    0x29, 0x3e, 0xe7, 0x0d, 0x11, 0x3c, 0x3b, 0xf2, 0x1e, 0x3e,
    0x51, 0x29, 0x86, 0x3d, 0x0b, 0x4c, 0xa3, 0xbd, 0x86, 0x60,
    0x69, 0xbf, 0x0f, 0xd9, 0xd7, 0xbd, 0xbc, 0x52, 0x5e, 0xbe,
    0x95, 0xe0, 0xb1, 0x3d, 0x6c, 0xc3, 0x5a, 0xbe, 0xdb, 0xe8,
    0xc6, 0xbe, 0x00, 0x0d, 0x01, 0xbe, 0xda, 0xf9, 0x42, 0x3e,
    0xee, 0x7d, 0x07, 0x3e, 0xdc, 0xc0, 0x31, 0x3e, 0x19, 0xd1,
    0x06, 0xbe, 0xee, 0x8c, 0x3c, 0x3e, 0x6f, 0x36, 0x16, 0x3e,
    0x35, 0x3f, 0xb5, 0x3d, 0xfb, 0xff, 0x0c, 0xbc, 0x75, 0x5a,
    0x42, 0xbe, 0x5e, 0xd0, 0xb9, 0xbc, 0x45, 0xc7, 0x2a, 0x3e,
    0xdd, 0x17, 0xdc, 0x3e, 0xfa, 0xda, 0x92, 0x3d, 0x48, 0xab,
    0x2d, 0xbe, 0xf6, 0x70, 0xb9, 0xbb, 0xa1, 0x2f, 0x42, 0xbe,
    0x46, 0x83, 0x5a, 0x3e, 0x57, 0x09, 0x64, 0x3d, 0x99, 0xc8,
    0xa8, 0x3e, 0xdb, 0x88, 0x4d, 0xbd, 0x8a, 0xc9, 0x7b, 0x3d,
    0x1a, 0x21, 0x13, 0x3e, 0x09, 0x73, 0xbf, 0x3d, 0x33, 0xe8,
    0x83, 0x3c, 0x7c, 0xcb, 0xfa, 0xbd, 0x2d, 0x26, 0x31, 0xbd,
    0x3d, 0x3b, 0x45, 0xbd, 0x7f, 0xd9, 0xb5, 0x3e, 0xba, 0x27,
    0xe3, 0x3d, 0x6f, 0xb7, 0x96, 0xbe, 0xe7, 0xa3, 0xf3, 0x3d,
    0x76, 0x7b, 0xe4, 0xbd, 0xb1, 0xf3, 0x3a, 0x3d, 0xf5, 0x0d,
    0x2c, 0x3d, 0x87, 0xc5, 0x77, 0x3e, 0x66, 0x2f, 0x31, 0xbd,
    0x63, 0x3b, 0x02, 0x3e, 0x4b, 0xba, 0x9c, 0x3d, 0x72, 0x1f,
    0x99, 0x3d, 0x66, 0x1a, 0xb0, 0xbe, 0xd7, 0xd2, 0x12, 0xbd,
    0xf7, 0x89, 0x63, 0x3c, 0xf0, 0xd9, 0xbc, 0xbd, 0x72, 0x54,
    0x88, 0x3e, 0x82, 0x0f, 0x35, 0x3e, 0x4d, 0x88, 0xa0, 0xbe,
    0xf7, 0xf4, 0x27, 0x3e, 0x0a, 0x03, 0xa0, 0xbd, 0x54, 0xb1,
    0x19, 0x3e, 0x17, 0xd7, 0xac, 0x3d, 0x7f, 0xb0, 0x55, 0x3e,
    0x63, 0xda, 0xc4, 0xbc, 0xc5, 0x6f, 0x23, 0x3d, 0xfc, 0xfb,
    0x8d, 0xbd, 0x94, 0x3b, 0x18, 0x3e, 0x18, 0x95, 0xd2, 0xbd,
    0x66, 0x7b, 0xa5, 0xbc, 0x1a, 0x9e, 0x11, 0xbd, 0x9c, 0x20,
    0x26, 0xbd, 0x79, 0x5f, 0xc4, 0x3e, 0x3e, 0xa4, 0xd2, 0x3d,
    0x26, 0x96, 0xcf, 0xbe, 0xfa, 0xb1, 0xc8, 0x3d, 0x96, 0x2f,
    0xf3, 0xbc, 0x9f, 0x65, 0x79, 0x3d, 0xa2, 0x43, 0x83, 0xbd,
    0xce, 0x22, 0x03, 0x3d, 0x89, 0x21, 0x15, 0x3b, 0x83, 0x13,
    0x85, 0xbc, 0x35, 0x9c, 0xbf, 0xbd, 0xcb, 0xe5, 0x06, 0x3e,
    0x4e, 0xf1, 0xc7, 0xbd, 0xf2, 0xfe, 0x85, 0x3c, 0x6a, 0x49,
    0x2c, 0x3d, 0x00, 0xdb, 0x23, 0xbd, 0x6f, 0x97, 0xb5, 0x3e,
    0xb5, 0x6d, 0x2c, 0x3e, 0x7a, 0x7c, 0x00, 0xbe, 0x9c, 0x59,
    0x1b, 0x3e, 0xe4, 0x44, 0x35, 0x3a, 0xbf, 0x46, 0x9b, 0x3d,
    0xe8, 0xca, 0x90, 0xbd, 0x31, 0xa7, 0x82, 0x3e, 0xd4, 0x2a,
    0x4a, 0x3c, 0x68, 0x12, 0xca, 0x3d, 0xab, 0xde, 0xab, 0x3d,
    0xfb, 0x80, 0x42, 0x3e, 0x72, 0xff, 0xa3, 0xbc, 0xa7, 0x49,
    0x14, 0xbe, 0x23, 0xf0, 0x95, 0x3d, 0x08, 0xd7, 0x4e, 0xbd,
    0x9a, 0xe7, 0x85, 0x3e, 0xfd, 0xd6, 0xdc, 0x3d, 0xfc, 0xdf,
    0x9b, 0xbd, 0x4e, 0xe5, 0x16, 0x3d, 0x6d, 0x0b, 0x1b, 0xbd,
    0xd6, 0x3e, 0xb8, 0x3c, 0xf6, 0x7c, 0x24, 0x3d, 0x11, 0xa3,
    0x8f, 0x3e, 0x5e, 0x1b, 0xf5, 0xbd, 0xc0, 0x24, 0xb2, 0x3d,
    0xbb, 0xb1, 0x03, 0x3b, 0xdf, 0x3e, 0xa1, 0xbd, 0x5c, 0x78,
    0x88, 0x3d, 0xd3, 0x1e, 0xfa, 0xbd, 0xe8, 0x27, 0x8a, 0xbc,
    0x10, 0xa0, 0xb4, 0xbd, 0x27, 0xed, 0x0f, 0x3f, 0x49, 0x07,
    0xf4, 0xbc, 0x2a, 0x5d, 0x5b, 0xbe, 0xd5, 0x28, 0x38, 0x3e,
    0x65, 0x16, 0xed, 0x3c, 0x00, 0x2a, 0xcb, 0xbd, 0x69, 0x10,
    0x67, 0xbe, 0xa2, 0x2a, 0xd9, 0xbc, 0xcc, 0xbb, 0xa0, 0x3b,
    0x0a, 0x52, 0x89, 0x3d, 0xc2, 0x5c, 0x14, 0xbe, 0xa4, 0x72,
    0xa7, 0x3c, 0x00, 0x26, 0x1d, 0xbe, 0x19, 0x79, 0x90, 0xbd,
    0x07, 0x4b, 0xc3, 0xbc, 0x1d, 0x37, 0xca, 0xbd, 0xad, 0x85,
    0xbd, 0x3e, 0x63, 0xf3, 0x2a, 0x3d, 0x11, 0x11, 0x93, 0xbd,
    0xbf, 0x7d, 0x61, 0x3e, 0x88, 0x11, 0xd6, 0x3d, 0x69, 0x70,
    0x9a, 0xbc, 0x39, 0x19, 0x81, 0xbe, 0x29, 0x44, 0x8c, 0x3e,
    0x08, 0x5f, 0xb4, 0xbc, 0x11, 0x10, 0xc0, 0x3c, 0xc8, 0x96,
    0x65, 0x3c, 0xf4, 0x0f, 0x8d, 0xbd, 0x71, 0xae, 0x51, 0xbe,
    0x69, 0xae, 0x56, 0xbd, 0x24, 0x32, 0xcb, 0x3e, 0xa2, 0xbd,
    0x35, 0x3c, 0xff, 0xd7, 0x04, 0x3f, 0x57, 0x35, 0xfc, 0x3d,
    0x47, 0x5d, 0xd0, 0xbd, 0x90, 0x2e, 0x3d, 0x3e, 0x3f, 0xa8,
    0x38, 0x3c, 0x38, 0x11, 0x21, 0xbe, 0x89, 0x28, 0x6f, 0xbe,
    0x3c, 0x14, 0x22, 0x3e, 0xda, 0x17, 0x38, 0x3d, 0x95, 0xa4,
    0x49, 0xbe, 0xc1, 0xa6, 0xf7, 0x3b, 0x81, 0x39, 0x82, 0x3d,
    0x62, 0x13, 0xfb, 0x3d, 0x04, 0xd3, 0x90, 0x3d, 0x4b, 0xe8,
    0x09, 0x3d, 0x77, 0x30, 0xcc, 0xbc, 0xd6, 0x84, 0xb7, 0x3e,
    0x1d, 0x93, 0x47, 0xbd, 0x64, 0x6d, 0x7d, 0x3e, 0x72, 0x85,
    0xdc, 0x3c, 0x37, 0xc0, 0x3a, 0x3d, 0x7e, 0xa6, 0xc4, 0xbd,
    0x34, 0xc2, 0x58, 0xbe, 0xfc, 0xe3, 0xc3, 0xbe, 0x77, 0x40,
    0xfa, 0xbe, 0x98, 0x23, 0x42, 0xbe, 0xed, 0x1d, 0xb8, 0xbe,
    0xf8, 0xa6, 0x52, 0xbe, 0xc2, 0x1c, 0x87, 0xbd, 0x08, 0x02,
    0xcf, 0xbd, 0x97, 0xb6, 0x09, 0xbe, 0xa9, 0x30, 0xb7, 0xbd,
    0xf5, 0xb9, 0xd5, 0x3e, 0x88, 0x05, 0x86, 0xbd, 0x34, 0x2c,
    0x9f, 0x3d, 0x5b, 0xdd, 0xc3, 0x3c, 0xe9, 0xa7, 0x6c, 0x3d,
    0x61, 0x8a, 0x29, 0xbe, 0xcf, 0x05, 0x9e, 0xbe, 0x90, 0x7b,
    0x49, 0xbe, 0xeb, 0x21, 0xf8, 0xbe, 0x05, 0x19, 0x9f, 0xbe,
    0x84, 0x1e, 0x0b, 0xbf, 0xdc, 0x01, 0x40, 0xbf, 0xc0, 0x83,
    0xc3, 0x3d, 0x49, 0x2e, 0x84, 0xb9, 0x99, 0xa3, 0x9b, 0xbd,
    0x0c, 0xf7, 0x72, 0xbd, 0xad, 0xaf, 0xb4, 0xbe, 0x7f, 0x6d,
    0xd9, 0x3c, 0xfb, 0x9a, 0x26, 0xbd, 0xe1, 0x11, 0xb8, 0xbe,
    0xeb, 0xdd, 0x5e, 0x3d, 0x57, 0x64, 0x1a, 0xbd, 0x43, 0x44,
    0x10, 0xbf, 0x72, 0xe0, 0x94, 0xbb, 0x91, 0x11, 0xd8, 0xbd,
    0x17, 0x2b, 0x3c, 0xbd, 0xc5, 0x5d, 0xc4, 0xbe, 0x5c, 0x11,
    0x7d, 0xbe, 0x85, 0x17, 0xf6, 0x3d, 0x28, 0x06, 0x55, 0xbe,
    0xea, 0xfb, 0xde, 0x3c, 0x15, 0x0b, 0x69, 0xbd, 0xe0, 0xe7,
    0xee, 0xbe, 0x7b, 0xf6, 0x6c, 0xbe, 0x0f, 0xe7, 0x58, 0xbe,
    0x3a, 0xbf, 0xf4, 0xbe, 0xcf, 0xf5, 0x6a, 0xbc, 0x04, 0x67,
    0xf4, 0x3d, 0xb8, 0x8c, 0x9e, 0x3e, 0x04, 0x9f, 0xe8, 0xbd,
    0x96, 0x17, 0x6f, 0x3f, 0xda, 0xf8, 0x8e, 0x3c, 0xd8, 0xce,
    0xb8, 0x3d, 0x7d, 0x27, 0x49, 0xbe, 0x91, 0x5a, 0x6c, 0x3e,
    0x13, 0xbf, 0x82, 0xbd, 0xcb, 0x5e, 0xfd, 0x3e, 0x61, 0x89,
    0x0b, 0x3e, 0x22, 0xeb, 0xd8, 0x3e, 0xb6, 0x95, 0x9b, 0x3e,
    0x92, 0xc3, 0x5c, 0x3e, 0x52, 0x7c, 0xa2, 0x3d, 0x4f, 0x74,
    0x66, 0xbc, 0xb2, 0x52, 0xd8, 0x3d, 0xff, 0x33, 0xba, 0x3d,
    0x78, 0xc3, 0xc4, 0x3d, 0xd4, 0x3f, 0x31, 0xbe, 0x40, 0x13,
    0x9b, 0x3d, 0x8f, 0xb4, 0xc2, 0x3c, 0xc8, 0x55, 0x93, 0xbe,
    0xef, 0x02, 0x2a, 0x3d, 0xfa, 0xdd, 0x34, 0xbd, 0x32, 0x78,
    0xc1, 0x3d, 0x8f, 0x28, 0x7d, 0xbc, 0xd3, 0xba, 0x26, 0x3e,
    0xd6, 0x3c, 0x8d, 0x3e, 0x56, 0xd7, 0x61, 0x3e, 0x2f, 0x5d,
    0x61, 0xbc, 0x9c, 0x43, 0x41, 0x3d, 0x23, 0x01, 0x63, 0x3e,
    0xb2, 0x07, 0x92, 0xbd, 0x3c, 0xd2, 0x83, 0x3d, 0x8e, 0x54,
    0x2d, 0xbe, 0xea, 0x95, 0x34, 0x3e, 0x04, 0x5c, 0xec, 0x3d,
    0x29, 0x14, 0xfc, 0xbd, 0xba, 0x02, 0x53, 0xbc, 0x51, 0xb6,
    0xca, 0x3c, 0x23, 0x24, 0x02, 0x3e, 0x9c, 0x01, 0xfa, 0xbd,
    0xf8, 0x7e, 0xd4, 0xbd, 0xd9, 0x87, 0x85, 0x3e, 0x2c, 0xe9,
    0x9d, 0x3d, 0xed, 0xd2, 0x2f, 0x3d, 0x07, 0x24, 0xc5, 0x3c,
    0x35, 0x5e, 0x20, 0x3e, 0xc5, 0x76, 0x05, 0x3c, 0x21, 0xb3,
    0xbd, 0xbc, 0xa0, 0x01, 0x19, 0xbe, 0xea, 0x4d, 0x7e, 0x3e,
    0xb2, 0xa2, 0x19, 0x3e, 0x7e, 0xee, 0x7b, 0xbe, 0x02, 0x6e,
    0x97, 0xbd, 0xf2, 0xa1, 0x91, 0xbc, 0x16, 0x3a, 0x7e, 0x3d,
    0x90, 0x56, 0xd6, 0xbd, 0xd7, 0x2e, 0x09, 0x3d, 0xc7, 0xe5,
    0xde, 0xbd, 0xa0, 0xbd, 0xc5, 0xbd, 0x03, 0xd4, 0xb3, 0xbc,
    0xec, 0xa7, 0x88, 0x3b, 0x58, 0x5a, 0xce, 0x3d, 0xed, 0xc7,
    0x5e, 0xbd, 0x86, 0x87, 0x06, 0x3e, 0x5b, 0x32, 0xe4, 0xbd,
    0xe5, 0xab, 0x82, 0x3e, 0x22, 0xdc, 0xce, 0x3d, 0xc6, 0xe9,
    0x00, 0xbe, 0xd1, 0xcb, 0xeb, 0xbd, 0x1d, 0x97, 0x94, 0xbd,
    0xf9, 0x8c, 0xc2, 0x3d, 0xfb, 0xfb, 0x53, 0xbd, 0x66, 0x0a,
    0x4a, 0xbe, 0x58, 0x73, 0x41, 0xbe, 0xb2, 0x4f, 0x27, 0xbd,
    0xe8, 0x0f, 0xe9, 0x3b, 0xd3, 0xfa, 0xac, 0xbb, 0xcb, 0x7d,
    0x0c, 0x3e, 0x4b, 0xff, 0x56, 0x3d, 0x1b, 0x47, 0xcb, 0xbd,
    0xe4, 0x67, 0xc5, 0xbd, 0x56, 0x4e, 0x57, 0x3e, 0xdf, 0xb1,
    0x27, 0x3e, 0x02, 0x78, 0x8f, 0xbd, 0x45, 0x78, 0xba, 0xbc,
    0x64, 0x5b, 0xe6, 0x3a, 0xc0, 0x38, 0x31, 0x3c, 0xb0, 0xc6,
    0x0f, 0xbe, 0x60, 0x7f, 0x19, 0xbe, 0x4f, 0x8c, 0x4c, 0x3e,
    0xd4, 0xc5, 0x23, 0xbc, 0x07, 0x5b, 0x1d, 0xbc, 0xc6, 0x70,
    0x33, 0xbd, 0xf6, 0xf5, 0x25, 0x3e, 0x8d, 0xaa, 0x02, 0x3d,
    0xf6, 0x6c, 0x28, 0xbe, 0xed, 0x3b, 0xe3, 0xbd, 0x04, 0x0a,
    0x39, 0x3e, 0xde, 0xd2, 0x65, 0x3e, 0x9d, 0x6d, 0x9f, 0xbd,
    0xa2, 0xc8, 0x3b, 0xbd, 0xc9, 0x4f, 0x89, 0xba, 0xbc, 0x66,
    0xbb, 0xba, 0x8a, 0xa2, 0x9c, 0xbd, 0x80, 0x57, 0xb0, 0x3d,
    0xae, 0xbf, 0x8c, 0xbd, 0xb5, 0x93, 0x22, 0x3d, 0x10, 0xec,
    0x2a, 0x3d, 0x08, 0x0a, 0x94, 0x3b, 0xdb, 0x5c, 0xc6, 0x3d,
    0xe2, 0x9f, 0xce, 0x3c, 0xc8, 0xd8, 0xdf, 0xbd, 0x6e, 0x5f,
    0x93, 0xbb, 0x9e, 0x82, 0x6c, 0x3e, 0x60, 0x2a, 0x2d, 0x3e,
    0x73, 0x81, 0x0e, 0xbe, 0x54, 0x1d, 0x6b, 0xbc, 0x8c, 0x4e,
    0x3c, 0xbc, 0x25, 0x3b, 0x06, 0x3e, 0x97, 0xa8, 0xf0, 0x3c,
    0x9a, 0xae, 0x92, 0xbd, 0x13, 0x92, 0xbb, 0x3b, 0x62, 0x00,
    0xb0, 0x3d, 0x8b, 0xfd, 0x36, 0xbd, 0x84, 0x48, 0x18, 0x3d,
    0x20, 0x68, 0xd3, 0x3d, 0x09, 0xd6, 0x71, 0x3c, 0x03, 0x60,
    0x54, 0xbd, 0xfd, 0x0b, 0x2f, 0xbd, 0x33, 0xcb, 0xd6, 0x3d,
    0xf0, 0x1f, 0x53, 0x3e, 0x6b, 0xf5, 0x09, 0xbe, 0x66, 0x71,
    0x4e, 0xbe, 0x5b, 0xeb, 0xce, 0xbd, 0xeb, 0x76, 0xd5, 0xbc,
    0xa6, 0x2c, 0x66, 0xbd, 0x3d, 0x3f, 0xaf, 0x3d, 0xb6, 0xab,
    0x03, 0xbe, 0x8f, 0xbd, 0x4d, 0xbd, 0x6b, 0xe1, 0x21, 0xbe,
    0x5e, 0x8d, 0x91, 0x3b, 0xb3, 0x34, 0x2e, 0x3e, 0x03, 0x6a,
    0x17, 0xbd, 0x2e, 0x02, 0x5e, 0x3d, 0x0f, 0x50, 0x5a, 0x3b,
    0x55, 0x00, 0xd9, 0x3d, 0xf9, 0x08, 0x04, 0x3d, 0x4f, 0x71,
    0x0c, 0xbe, 0x92, 0xe8, 0x39, 0xbe, 0x57, 0xcc, 0x72, 0xbd,
    0x20, 0xe5, 0x14, 0x3e, 0x7f, 0x11, 0x8a, 0xbd, 0x93, 0xc6,
    0xaf, 0xbd, 0x03, 0x49, 0x9c, 0x3d, 0x20, 0x98, 0x4a, 0xbd,
    0xb0, 0xba, 0xb8, 0xbb, 0x30, 0xb1, 0xa2, 0xbc, 0xa4, 0xe2,
    0x25, 0x3e, 0x3c, 0xed, 0x20, 0x3d, 0xac, 0xf1, 0x9e, 0x3d,
    0x02, 0x6d, 0x94, 0xbd, 0x7e, 0x46, 0xe9, 0x3d, 0x1f, 0xed,
    0xe4, 0x3d, 0x63, 0x70, 0x54, 0xbe, 0x57, 0x65, 0x04, 0x3d,
    0xd8, 0x13, 0x48, 0xbe, 0xcd, 0x68, 0x47, 0x3e, 0x51, 0x1a,
    0x1b, 0xbe, 0xdc, 0xd2, 0xfe, 0x3d, 0x40, 0x51, 0x86, 0x3d,
    0xf1, 0x36, 0x95, 0x3d, 0x6b, 0xb6, 0x19, 0x3d, 0xe1, 0xd2,
    0xba, 0x3b, 0x29, 0x7b, 0x2a, 0x3d, 0x6a, 0xa5, 0xf5, 0xbc,
    0x73, 0x29, 0xc0, 0x3d, 0x10, 0xb7, 0x58, 0xbd, 0x3a, 0xaf,
    0xef, 0x3b, 0x72, 0x32, 0x46, 0x3d, 0xb8, 0x08, 0x1d, 0xbd,
    0xd3, 0x2c, 0xd2, 0x3d, 0x91, 0xb5, 0x25, 0xbe, 0x4d, 0x31,
    0x11, 0x3e, 0xc0, 0x21, 0xa7, 0xbd, 0x36, 0x78, 0x69, 0xbd,
    0x7e, 0xb0, 0x67, 0xbd, 0xf4, 0x0f, 0x57, 0x3d, 0x13, 0xb4,
    0xc1, 0x3d, 0xbe, 0x5f, 0x13, 0x3d, 0x55, 0xf9, 0xed, 0x3b,
    0x57, 0x50, 0x55, 0xbd, 0xcb, 0x42, 0x7c, 0x3c, 0xac, 0xbc,
    0xb0, 0x3c, 0xc2, 0x66, 0x0c, 0x3c, 0x63, 0x77, 0x47, 0x3d,
    0x54, 0x23, 0xf0, 0xbd, 0x70, 0x10, 0x84, 0xbd, 0x72, 0xdc,
    0x23, 0xbe, 0x61, 0x09, 0x22, 0x3e, 0xfb, 0xbc, 0x37, 0xbd,
    0x23, 0xf1, 0xc9, 0x3d, 0xf3, 0x61, 0xea, 0x3d, 0xa8, 0x20,
    0x15, 0x3b, 0x47, 0x86, 0xb3, 0x3d, 0xb0, 0xe9, 0x5d, 0xbd,
    0xdc, 0x40, 0x70, 0xbe, 0x47, 0xc4, 0xc9, 0xbc, 0x64, 0x1c,
    0x0b, 0xbe, 0x4e, 0xd6, 0xe4, 0x3d, 0x0f, 0xe9, 0x82, 0xbd,
    0x05, 0x06, 0xe4, 0xbb, 0xd4, 0xaa, 0xdd, 0x3d, 0xe8, 0xe8,
    0x35, 0x3e, 0x96, 0x98, 0x17, 0xbe, 0x61, 0x29, 0x22, 0x3e,
    0xa3, 0x51, 0x29, 0xbe, 0x23, 0xfc, 0xbd, 0x3c, 0x45, 0xe0,
    0x40, 0xbd, 0x9e, 0x79, 0x16, 0x3e, 0x00, 0xa6, 0x2f, 0x3e,
    0x3d, 0x93, 0x2e, 0xbb, 0xb9, 0x1d, 0x0c, 0xbd, 0x52, 0xf8,
    0x2a, 0xbe, 0x11, 0x28, 0xab, 0x3d, 0xc7, 0x77, 0x74, 0x3e,
    0x69, 0x9a, 0xf1, 0xbd, 0x52, 0x35, 0x02, 0xbe, 0x74, 0xe5,
    0x46, 0x3d, 0x79, 0xff, 0x40, 0x3e, 0x4e, 0x6b, 0xb5, 0xbc,
    0x88, 0xdc, 0xa5, 0x3e, 0xcd, 0x69, 0x1a, 0xbe, 0xa5, 0x49,
    0x7f, 0x3d, 0x90, 0x71, 0x8b, 0x3d, 0x66, 0x01, 0xe7, 0x3e,
    0x1a, 0xbe, 0xb8, 0xbd, 0x3d, 0x7a, 0x2a, 0xbe, 0xe6, 0xe1,
    0xe9, 0x3c, 0x5f, 0x3c, 0x80, 0xbd, 0x91, 0xd5, 0xa9, 0xbd,
    0x74, 0xda, 0x51, 0xbe, 0x79, 0xb7, 0x21, 0xbd, 0x70, 0xbb,
    0xd6, 0x3d, 0x98, 0xec, 0x30, 0xbe, 0x09, 0xfe, 0x99, 0xbd,
    0xab, 0xa4, 0xf6, 0xbd, 0x99, 0x10, 0xc9, 0xbc, 0x75, 0xa1,
    0x90, 0xbe, 0x49, 0x93, 0x1b, 0x3d, 0x00, 0x41, 0xee, 0x3b,
    0x7b, 0xbb, 0x9a, 0xbd, 0x9e, 0x30, 0x0c, 0xbe, 0x62, 0x8c,
    0x91, 0xbe, 0xd5, 0xe7, 0x39, 0x3d, 0xa7, 0xaa, 0x50, 0xbd,
    0x66, 0xbf, 0x25, 0xbe, 0xae, 0x87, 0x27, 0xbe, 0xad, 0x3f,
    0x68, 0xbe, 0xb5, 0x2e, 0x3a, 0xbd, 0xbd, 0xa7, 0x6b, 0x3c,
    0xd5, 0x84, 0xf0, 0xbd, 0x3c, 0x43, 0x80, 0x3c, 0x25, 0x1c,
    0x7f, 0x3e, 0xe8, 0x14, 0xb9, 0x3c, 0xa4, 0x0f, 0xfc, 0x3c,
    0x7e, 0xb4, 0xb5, 0x3d, 0x55, 0xb2, 0x00, 0xbe, 0xa7, 0xbf,
    0x8b, 0xbe, 0xef, 0xa9, 0x3f, 0xbe, 0xae, 0x06, 0xda, 0x3d,
    0x3f, 0xd6, 0x15, 0xbe, 0xb6, 0x83, 0xc0, 0xbd, 0x8b, 0x69,
    0x8f, 0xbd, 0xfe, 0x43, 0x1c, 0xbc, 0x7b, 0x44, 0x14, 0xbd,
    0x3b, 0x11, 0x1d, 0xbc, 0x04, 0xdc, 0x0a, 0xbd, 0x97, 0x13,
    0xd6, 0x3d, 0xdc, 0xde, 0x97, 0x3d, 0x0d, 0x6f, 0x28, 0xbd,
    0xd8, 0x5d, 0x52, 0xbc, 0xa0, 0xa2, 0x86, 0xbd, 0xcf, 0x7b,
    0x44, 0x3e, 0xfe, 0x6b, 0x2d, 0xbe, 0x80, 0x83, 0x40, 0xbe,
    0xb6, 0x6c, 0x47, 0x3d, 0x40, 0xcd, 0x15, 0xbe, 0xce, 0x70,
    0xbe, 0x3d, 0x1a, 0x5f, 0x35, 0xbe, 0x79, 0x11, 0x03, 0x3d,
    0xc9, 0x1c, 0xcf, 0x3b, 0xe6, 0xd6, 0x26, 0xbe, 0x97, 0xe6,
    0xf2, 0x3b, 0xe9, 0xca, 0xf4, 0xbb, 0x82, 0x96, 0x83, 0x3e,
    0x38, 0x1d, 0x11, 0xbe, 0xe3, 0x30, 0x0e, 0xbe, 0x6a, 0x38,
    0x95, 0xbd, 0x3a, 0x3a, 0xaa, 0x3d, 0xb1, 0xff, 0x88, 0xbd,
    0xbd, 0x2b, 0x39, 0xbd, 0x01, 0xc2, 0xab, 0xbd, 0xb4, 0x76,
    0x9c, 0xbd, 0xe0, 0xe6, 0x02, 0xbc, 0x6b, 0x32, 0x03, 0xbd,
    0x3c, 0x7e, 0x50, 0x3d, 0x6d, 0xd8, 0xa9, 0xbd, 0xce, 0xcf,
    0xd7, 0xbd, 0x01, 0x1e, 0x0f, 0x3e, 0xc4, 0x74, 0x2f, 0xbd,
    0x99, 0x58, 0xd2, 0x3d, 0x13, 0x5a, 0x8b, 0xbe, 0xeb, 0x34,
    0xbc, 0x3d, 0xaa, 0x7f, 0xd4, 0xbc, 0x50, 0xb9, 0xb8, 0xbd,
    0xf8, 0x92, 0x59, 0xbd, 0x76, 0x54, 0x58, 0xbe, 0x8e, 0x33,
    0x3f, 0x3d, 0x30, 0xa0, 0x17, 0xbe, 0x84, 0x7c, 0x16, 0x3e,
    0xd7, 0x45, 0xec, 0x3b, 0x36, 0xeb, 0xa2, 0x3d, 0x3a, 0x9b,
    0x67, 0x3c, 0x53, 0x32, 0x2b, 0x3e, 0x81, 0x65, 0xe1, 0x3c,
    0xec, 0xed, 0xda, 0x3d, 0x5f, 0x01, 0xfc, 0x3d, 0x52, 0x77,
    0x33, 0xbe, 0xa9, 0x0e, 0x9e, 0x3d, 0xd4, 0x3a, 0xdd, 0xbd,
    0x19, 0x33, 0xb1, 0x3d, 0xa4, 0x89, 0x4e, 0xbd, 0xd3, 0x34,
    0x11, 0x3d, 0xf4, 0x92, 0xcb, 0x3d, 0xbd, 0x10, 0xa6, 0xbd,
    0x2f, 0xf1, 0x83, 0xbd, 0xeb, 0x8b, 0x2f, 0xbd, 0xc5, 0xa0,
    0x98, 0xbd, 0x8c, 0x50, 0xe5, 0xbb, 0x1f, 0x09, 0xff, 0xbd,
    0x02, 0xc9, 0x16, 0xbe, 0x4c, 0x17, 0xe5, 0xbd, 0x15, 0xd7,
    0x08, 0x3e, 0xed, 0x32, 0x2f, 0xbe, 0xb2, 0xf8, 0x4d, 0x3d,
    0xdb, 0x3d, 0x09, 0xbe, 0x5e, 0xf2, 0x15, 0xbd, 0x81, 0xbc,
    0x59, 0x3e, 0xc7, 0xa6, 0xa7, 0xbe, 0x36, 0x2b, 0xff, 0xbd,
    0xab, 0x8e, 0x8e, 0xbe, 0x4a, 0x74, 0x69, 0x3e, 0xf5, 0xd0,
    0xc3, 0x3d, 0x2e, 0xe7, 0xb9, 0xbc, 0x31, 0xd4, 0x01, 0x3c,
    0x9d, 0x0e, 0x09, 0xbe, 0xf0, 0x3d, 0x10, 0x3e, 0x6f, 0x7c,
    0x24, 0xbd, 0x48, 0xb6, 0xef, 0xbc, 0xca, 0xce, 0xac, 0xbe,
    0x7d, 0x8f, 0xb2, 0xbc, 0x0a, 0x59, 0x90, 0xbb, 0x76, 0xad,
    0xbf, 0x3c, 0x0a, 0x47, 0x21, 0x3d, 0xc0, 0xcd, 0x6d, 0xbe,
    0xcb, 0xc7, 0x24, 0x3d, 0x5d, 0x06, 0x30, 0xbe, 0x55, 0xbd,
    0x00, 0xbe, 0xea, 0xdb, 0x5f, 0xbe, 0xdb, 0x04, 0xc1, 0x3d,
    0x7a, 0x70, 0x73, 0xbc, 0x29, 0x3c, 0xeb, 0x3c, 0x47, 0x4c,
    0xdd, 0xbb, 0x5c, 0x27, 0x57, 0x3d, 0x6e, 0x6c, 0x6b, 0x3e,
    0xf9, 0x19, 0xd8, 0xbd, 0xf0, 0xf9, 0x74, 0xbd, 0x6f, 0xaf,
    0xf9, 0x3d, 0x86, 0xd3, 0x7c, 0x3c, 0xd1, 0x65, 0x48, 0xbc,
    0x98, 0x24, 0xe5, 0xbd, 0xe6, 0x39, 0x59, 0xbd, 0x99, 0x45,
    0x54, 0x3d, 0x38, 0xbe, 0x77, 0x3d, 0x0b, 0x62, 0x8a, 0x3d,
    0xb8, 0x4f, 0xde, 0x3d, 0x64, 0x8b, 0xa6, 0xbd, 0x4d, 0x26,
    0xf8, 0xbb, 0x43, 0x45, 0x10, 0x3d, 0xac, 0x60, 0x12, 0x3e,
    0x8e, 0xbe, 0x4d, 0x3e, 0xe2, 0xc4, 0x4c, 0xbe, 0xa1, 0x96,
    0xae, 0xbd, 0xf9, 0x19, 0xb8, 0x3d, 0x3e, 0xec, 0xbb, 0x3d,
    0x62, 0xa2, 0x98, 0x3c, 0x32, 0xc8, 0x5c, 0xbe, 0x53, 0x97,
    0xfb, 0x3d, 0x0e, 0x3f, 0x4a, 0xbe, 0x27, 0x0b, 0x8a, 0x3e,
    0xd8, 0x1c, 0x1f, 0x3c, 0xb4, 0x2a, 0x89, 0xbc, 0x45, 0xe0,
    0xea, 0xbd, 0x09, 0x80, 0x88, 0x3c, 0xde, 0x4e, 0x83, 0xbd,
    0x62, 0x01, 0xe0, 0x3c, 0x38, 0x45, 0x58, 0x3e, 0xd0, 0xb7,
    0xae, 0xbe, 0x65, 0x41, 0xe4, 0xbd, 0x39, 0x99, 0x08, 0x3d,
    0x56, 0xb3, 0xed, 0x3d, 0x65, 0x14, 0x3b, 0xbe, 0xc5, 0x06,
    0xa1, 0xbe, 0x26, 0xd9, 0x81, 0x3d, 0xc0, 0x23, 0x89, 0xbd,
    0x39, 0xf3, 0x04, 0x3e, 0x13, 0x18, 0x4d, 0x3c, 0xa5, 0x7f,
    0xbe, 0xbc, 0x3b, 0xa7, 0x1d, 0xbd, 0x57, 0x9d, 0x1f, 0xbd,
    0x8c, 0xce, 0xbf, 0x3d, 0xcb, 0xe3, 0x40, 0xbe, 0x9b, 0x3c,
    0xa1, 0x3e, 0xd8, 0xe1, 0x0e, 0xbe, 0xfe, 0x94, 0x05, 0xbc,
    0x07, 0xa1, 0x82, 0x3d, 0xb8, 0xc4, 0x4b, 0x3e, 0xcb, 0x00,
    0x2d, 0xbe, 0xd6, 0xe2, 0x87, 0xbd, 0xd0, 0xec, 0x61, 0xbd,
    0xb4, 0xcc, 0x63, 0xbe, 0x96, 0xcb, 0xaa, 0x3d, 0x50, 0x18,
    0xe3, 0xbe, 0xf5, 0xee, 0x43, 0xbe, 0xe3, 0x79, 0x13, 0xbc,
    0xd1, 0xdc, 0xd3, 0xbd, 0xca, 0x46, 0x05, 0x3d, 0x33, 0x86,
    0x5b, 0xbe, 0x50, 0x0d, 0xb3, 0x3e, 0x2f, 0x62, 0x8d, 0xbd,
    0x9b, 0xea, 0x09, 0xbe, 0x05, 0x50, 0xc7, 0xbc, 0x25, 0x1a,
    0x3c, 0x3e, 0x8c, 0x3a, 0x63, 0xbe, 0x3f, 0x93, 0x1f, 0xbe,
    0xc7, 0x50, 0xc5, 0x3e, 0x2d, 0x80, 0x4a, 0xbe, 0xbb, 0xcb,
    0xd9, 0xbe, 0xa4, 0xee, 0xd6, 0x3e, 0x21, 0xf9, 0x47, 0x3e,
    0xa5, 0xb2, 0x3f, 0xbd, 0x7a, 0x74, 0xac, 0xbe, 0x24, 0xa3,
    0xb4, 0x3d, 0x68, 0x12, 0x0e, 0xbe, 0xb4, 0x3c, 0xbc, 0xbe,
    0x08, 0x88, 0xea, 0x3d, 0xe1, 0xbe, 0x52, 0x3e, 0x33, 0x49,
    0x16, 0xbe, 0xec, 0x3c, 0x43, 0xbf, 0x5f, 0xae, 0xac, 0xbd,
    0x82, 0x3c, 0xa0, 0x3e, 0x89, 0x41, 0x78, 0x3e, 0x81, 0x15,
    0x90, 0xbc, 0x76, 0x42, 0x46, 0x3d, 0xcf, 0x87, 0x2a, 0xbc,
    0x5c, 0x72, 0xe0, 0xba, 0x39, 0x03, 0x2e, 0xbc, 0x8e, 0x3d,
    0xe3, 0x3d, 0x36, 0x0c, 0xfe, 0x3e, 0x8d, 0xe3, 0x14, 0x3e,
    0xe1, 0x9a, 0xe9, 0x3d, 0xff, 0x99, 0x94, 0x3e, 0x38, 0x86,
    0xad, 0xbd, 0x2a, 0x9a, 0x96, 0xbe, 0x6e, 0x77, 0xc7, 0xbe,
    0x80, 0x48, 0xce, 0xbd, 0xc0, 0xa5, 0x98, 0xbe, 0xd4, 0xbd,
    0x17, 0x3e, 0xb3, 0xa8, 0x1f, 0x3d, 0x44, 0x17, 0x66, 0xbe,
    0xdc, 0x05, 0xff, 0x3d, 0xbf, 0x63, 0x25, 0x3c, 0x5f, 0xca,
    0x8e, 0xbe, 0x92, 0x93, 0xda, 0x3d, 0xfc, 0xce, 0x8e, 0x3e,
    0xd8, 0xbb, 0xb9, 0x3b, 0x33, 0x85, 0x81, 0x3d, 0xa9, 0x41,
    0x24, 0xbb, 0x42, 0x0b, 0x57, 0xbe, 0x87, 0xc6, 0x6e, 0x3c,
    0x32, 0xe3, 0x26, 0xbe, 0xf1, 0x2e, 0x6d, 0xbd, 0x98, 0xd1,
    0x00, 0xbf, 0x9b, 0x7a, 0x12, 0xbd, 0x9a, 0xf9, 0xc8, 0x3b,
    0x4c, 0x3b, 0x12, 0xbe, 0x33, 0xaa, 0x92, 0x3d, 0xa6, 0x2f,
    0xbf, 0xbe, 0x2b, 0x1a, 0x21, 0x3d, 0x78, 0x79, 0xc2, 0x3d,
    0x83, 0xf1, 0x30, 0x3e, 0x34, 0x8c, 0x68, 0xbe, 0x6c, 0x74,
    0x99, 0x3d, 0xcf, 0xac, 0x4e, 0xbd, 0x82, 0x9d, 0x80, 0xbe,
    0xe1, 0x28, 0xf2, 0xbd, 0xe1, 0x1e, 0xcb, 0xbd, 0xfc, 0x44,
    0xcf, 0x3d, 0x11, 0xae, 0x94, 0xbe, 0x35, 0x85, 0x6c, 0xbe,
    0xe5, 0xb8, 0xee, 0x3c, 0xe3, 0x8f, 0x78, 0xbb, 0x01, 0xd0,
    0xaa, 0x3d, 0xc0, 0x68, 0xd2, 0xbe, 0x6a, 0x1d, 0xf0, 0xbb,
    0xac, 0x6b, 0x89, 0xbd, 0x68, 0x07, 0x42, 0x3e, 0xc0, 0x60,
    0x30, 0xbe, 0x80, 0x52, 0xef, 0x3d, 0x7a, 0x40, 0x0a, 0x3e,
    0x8e, 0xb2, 0x9e, 0x3d, 0x25, 0xb8, 0x59, 0xbe, 0xbd, 0xcc,
    0x05, 0x3e, 0x28, 0x4f, 0x99, 0x3d, 0x91, 0xfc, 0x61, 0xbf,
    0xab, 0x4f, 0x12, 0x3d, 0xca, 0x11, 0xaf, 0x3d, 0xaf, 0x09,
    0xdd, 0x3d, 0x70, 0x17, 0x79, 0x3d, 0x8f, 0x24, 0xd8, 0xbe,
    0x8e, 0x63, 0x79, 0xbe, 0x4b, 0x04, 0x50, 0xbd, 0x92, 0x85,
    0xe7, 0xbd, 0x2d, 0x6d, 0x1a, 0xbe, 0x0e, 0xd7, 0x90, 0xbd,
    0xd1, 0x69, 0xe6, 0x3d, 0x67, 0x8e, 0x83, 0xbd, 0xfc, 0xad,
    0x4b, 0xbe, 0x18, 0x68, 0xcd, 0xbd, 0x5d, 0x1e, 0xc2, 0x3d,
    0xd0, 0x48, 0x7f, 0xbe, 0xbe, 0xf9, 0xe9, 0xbe, 0x65, 0x7d,
    0x4e, 0x3d, 0xae, 0x8d, 0x09, 0x3e, 0x11, 0xc1, 0x1d, 0xbe,
    0x9d, 0x23, 0x0e, 0xbf, 0x75, 0x67, 0x93, 0xbe, 0x8a, 0xfb,
    0x89, 0xbe, 0x9d, 0xa9, 0x08, 0xbe, 0xe3, 0x13, 0xf5, 0xbd,
    0x33, 0x24, 0xa5, 0x3c, 0x44, 0xe1, 0xac, 0x3d, 0xc8, 0xf6,
    0x02, 0xbf, 0x6f, 0xf1, 0x0d, 0xbe, 0x83, 0xd2, 0x6f, 0x3c,
    0x6d, 0x83, 0x22, 0x3d, 0xd4, 0xa3, 0xa6, 0xbc, 0x88, 0x0b,
    0xcf, 0xbd, 0x04, 0xe4, 0x0a, 0xbd, 0x02, 0x46, 0x9d, 0xbd,
    0xa9, 0xc4, 0x8c, 0xbe, 0xb3, 0x34, 0xd4, 0xbe, 0x3e, 0x01,
    0x2d, 0xbe, 0x32, 0x34, 0x9a, 0xbe, 0x79, 0x82, 0x70, 0xbd,
    0xb2, 0x48, 0x18, 0xbe, 0xbb, 0xff, 0xba, 0x3a, 0x3e, 0x5f,
    0x46, 0x3d, 0x5e, 0x23, 0xf6, 0xbd, 0x42, 0x4f, 0x9a, 0xbe,
    0xe3, 0x6d, 0x81, 0xbd, 0x9b, 0x36, 0x8e, 0x3d, 0x07, 0x18,
    0xa1, 0xbe, 0xbe, 0xee, 0xcd, 0xbe, 0xea, 0xfa, 0x8b, 0x3a,
    0x8d, 0x09, 0x4f, 0x3e, 0x87, 0xd7, 0x4e, 0xbe, 0xc0, 0x9a,
    0x67, 0xbe, 0x5a, 0x08, 0x91, 0xbe, 0x31, 0xa5, 0x9e, 0xbe,
    0x0c, 0x46, 0x03, 0xbe, 0x64, 0x96, 0x27, 0x3d, 0x3f, 0x84,
    0x2e, 0x3d, 0x4d, 0xba, 0x08, 0x3a, 0x2e, 0xfd, 0x4c, 0xbe,
    0x8a, 0xa4, 0xab, 0x3d, 0x7f, 0x56, 0x94, 0x3b, 0x71, 0x62,
    0x0a, 0x3e, 0x3a, 0xe7, 0xa4, 0xbe, 0x63, 0x5e, 0xc2, 0xbe,
    0x16, 0x90, 0xc3, 0xbd, 0xbd, 0x90, 0xb9, 0x3d, 0x57, 0xd1,
    0x0a, 0xbd, 0x51, 0xbf, 0xf0, 0xbe, 0x99, 0x75, 0xbd, 0xbd,
    0xce, 0x9e, 0x4a, 0xbe, 0xfc, 0x0f, 0xcd, 0xbe, 0xe2, 0x01,
    0xea, 0xbd, 0xd7, 0x5f, 0x05, 0xbd, 0xea, 0x4e, 0x7c, 0xbd,
    0x67, 0x6a, 0x87, 0x3c, 0x35, 0xef, 0xc2, 0x3d, 0x2d, 0xed,
    0x19, 0xbb, 0x84, 0x7f, 0x35, 0x3e, 0xa3, 0x04, 0xcb, 0xbd,
    0xaa, 0x62, 0x48, 0xbd, 0x8a, 0x8f, 0x5f, 0x3c, 0x67, 0xcf,
    0x2e, 0x3d, 0x2c, 0xf3, 0x2f, 0xbe, 0xa9, 0xb2, 0xbb, 0xbe,
    0xbf, 0x78, 0x24, 0x3c, 0xc3, 0xb3, 0x53, 0xbe, 0xb4, 0x3c,
    0xc9, 0xbe, 0xe7, 0x13, 0x3c, 0xbe, 0x22, 0xe7, 0x2b, 0x3c,
    0xbd, 0x66, 0x49, 0xbd, 0x47, 0x6f, 0xf4, 0xbc, 0x06, 0x62,
    0x5f, 0xbe, 0x61, 0xf0, 0xe3, 0xbc, 0x23, 0x64, 0x56, 0x3e,
    0x40, 0x4b, 0x0f, 0xbd, 0x6e, 0xc1, 0x3b, 0xbe, 0xcf, 0x0a,
    0x6e, 0xbb, 0x7f, 0x01, 0xe3, 0xbd, 0x65, 0x97, 0x34, 0xbd,
    0x16, 0xb6, 0x13, 0x3e, 0xb6, 0x0d, 0xf3, 0xbd, 0x59, 0x01,
    0x29, 0x3e, 0x0c, 0xef, 0x3b, 0x3a, 0x2a, 0x43, 0x30, 0x3e,
    0x94, 0xea, 0xb2, 0x3b, 0x3b, 0xe1, 0x8e, 0xbc, 0x64, 0x97,
    0xb8, 0xbe, 0x10, 0x66, 0x04, 0xbe, 0x37, 0x65, 0x8c, 0xbc,
    0x44, 0xfd, 0xb2, 0x3d, 0x1b, 0xb4, 0x3b, 0xbe, 0x70, 0x77,
    0x46, 0xbe, 0x29, 0x0b, 0x93, 0xbc, 0xbc, 0xd7, 0xb2, 0x3d,
    0x9b, 0x64, 0x8f, 0x3d, 0x5e, 0x1d, 0xbe, 0xbe, 0xc5, 0x85,
    0x7c, 0xbe, 0x91, 0x95, 0x64, 0x3d, 0x95, 0x4c, 0x79, 0x3d,
    0x5e, 0x83, 0xd7, 0xbc, 0xfb, 0xca, 0xf3, 0x3a, 0x8a, 0x3f,
    0x78, 0xbd, 0x63, 0x52, 0xd8, 0xbe, 0x3a, 0x02, 0x6d, 0xbe,
    0xa3, 0xe6, 0xed, 0x3d, 0x1b, 0xe9, 0x99, 0x3d, 0x17, 0xe2,
    0x1e, 0xbe, 0x0a, 0x6f, 0x7b, 0xbe, 0x0c, 0xc2, 0x10, 0x3e,
    0xe9, 0x38, 0x6b, 0x3e, 0x00, 0x46, 0x1b, 0x3d, 0xe6, 0xd7,
    0x39, 0xbe, 0x45, 0xc7, 0x13, 0xbe, 0xdc, 0x14, 0x17, 0x3c,
    0x05, 0x0f, 0x1e, 0xbe, 0x1d, 0x53, 0x99, 0xbd, 0xa3, 0x6c,
    0xf2, 0xbc, 0x22, 0x7f, 0xff, 0xbd, 0x3c, 0xb7, 0x34, 0xbd,
    0x40, 0xab, 0xc7, 0xbd, 0x41, 0x41, 0x26, 0x3e, 0x12, 0xad,
    0x18, 0x3e, 0xa7, 0xd6, 0x89, 0xbe, 0x38, 0x94, 0x8b, 0xbd,
    0xef, 0x8e, 0x42, 0xbe, 0x33, 0xcf, 0xf7, 0x3c, 0xe4, 0x88,
    0xec, 0xbd, 0x57, 0x10, 0x0d, 0xbe, 0xa8, 0xa4, 0xb8, 0xbd,
    0xf9, 0x61, 0x86, 0xbd, 0xae, 0x0a, 0xdf, 0xbc, 0x78, 0xbb,
    0xd8, 0x3c, 0xb1, 0x4f, 0x9e, 0xbd, 0x13, 0x05, 0x62, 0xbd,
    0x2f, 0x4a, 0x1d, 0x3d, 0x8e, 0xc1, 0x28, 0x3d, 0xac, 0x4a,
    0x64, 0xbd, 0xff, 0x34, 0x1d, 0xbe, 0x0c, 0x88, 0x0f, 0xbe,
    0x24, 0x9e, 0xd4, 0x3d, 0x2d, 0x9d, 0xcc, 0xbc, 0xec, 0x7c,
    0x7b, 0x3b, 0xae, 0x72, 0x58, 0xbe, 0x70, 0x7f, 0x96, 0x3d,
    0xb1, 0x26, 0x68, 0xbd, 0xea, 0x67, 0x30, 0xbd, 0xb4, 0x7c,
    0xd0, 0xba, 0x8f, 0xa2, 0x40, 0xbe, 0x59, 0x0a, 0xfc, 0xbd,
    0xa0, 0xcb, 0x34, 0xbe, 0x40, 0xc9, 0x38, 0xbd, 0x1a, 0x33,
    0x91, 0x3d, 0x76, 0xd5, 0x1f, 0xbe, 0x47, 0x81, 0x5d, 0x3d,
    0x5a, 0xe0, 0x66, 0xbd, 0x3d, 0xc5, 0xd2, 0xbd, 0x40, 0x5f,
    0x35, 0xbe, 0xe1, 0x03, 0x6c, 0xbe, 0x65, 0xcb, 0xd1, 0xbd,
    0xa9, 0x6a, 0x59, 0x3d, 0x80, 0xf4, 0x92, 0x3d, 0xae, 0x07,
    0xf9, 0xbd, 0x64, 0xe2, 0x34, 0xbe, 0x91, 0xc0, 0x89, 0x3c,
    0xd3, 0x6c, 0xf7, 0x3d, 0xd1, 0xf8, 0xab, 0xbc, 0x91, 0x55,
    0xe8, 0x3b, 0x0b, 0xbe, 0x5d, 0xbd, 0x61, 0x0b, 0x8c, 0x3d,
    0x4a, 0x3b, 0x2b, 0xbc, 0x5b, 0xe0, 0x67, 0xbe, 0xe9, 0xf5,
    0x8b, 0x3d, 0xfb, 0x81, 0x2e, 0xbe, 0xb2, 0x0c, 0x1e, 0xbe,
    0x49, 0x5c, 0xdd, 0xbc, 0x0a, 0xd7, 0x32, 0x3d, 0x0b, 0x13,
    0xc8, 0xbd, 0x77, 0x29, 0x49, 0xbe, 0xd8, 0x97, 0xe2, 0xbb,
    0xda, 0xbf, 0x02, 0x3d, 0xe7, 0xa4, 0xb8, 0xbb, 0xee, 0x72,
    0x9d, 0x3b, 0x15, 0x5c, 0x0a, 0x3d, 0xe8, 0xc2, 0xfd, 0xbb,
    0x15, 0xdd, 0xb4, 0x3d, 0x4d, 0x69, 0x49, 0xbe, 0x66, 0xd2,
    0x3c, 0xbe, 0x0f, 0xea, 0x95, 0xbd, 0x9c, 0x93, 0x0d, 0xbe,
    0x17, 0xd2, 0xc6, 0xba, 0x76, 0x78, 0x36, 0xbe, 0x01, 0x51,
    0xba, 0xbd, 0x82, 0x94, 0x26, 0xbe, 0xb2, 0x2e, 0xad, 0xbd,
    0xef, 0x10, 0xcb, 0xbd, 0x5b, 0x06, 0xd5, 0xbb, 0x7c, 0xd3,
    0x44, 0x3d, 0x72, 0xe6, 0xa1, 0xbd, 0xc6, 0x5b, 0x13, 0xbd,
    0xcb, 0xe3, 0x0e, 0xbe, 0x9e, 0x22, 0xaa, 0xbd, 0x71, 0x32,
    0x8c, 0xbd, 0xe6, 0x17, 0xdb, 0x3c, 0xde, 0x8c, 0x04, 0x3e,
    0xb9, 0x2b, 0x83, 0xbd, 0x78, 0xb2, 0x43, 0x3e, 0x8a, 0xc4,
    0xbc, 0xbd, 0x0d, 0x50, 0xc7, 0xbd, 0x48, 0x75, 0x33, 0x3e,
    0x61, 0x71, 0xc7, 0xbc, 0x2d, 0xf3, 0x15, 0x3e, 0x18, 0xd9,
    0x97, 0xbd, 0x20, 0x56, 0xcc, 0x3c, 0xd1, 0xb0, 0x1c, 0x3d,
    0xcf, 0xfd, 0x04, 0xbe, 0xbc, 0x79, 0xbd, 0xbd, 0xa6, 0x49,
    0xc3, 0xbb, 0x78, 0x47, 0xd8, 0x3d, 0x99, 0xfc, 0x0d, 0xbe,
    0x77, 0x3c, 0xac, 0xbd, 0x88, 0x04, 0x5b, 0xbe, 0x32, 0xa5,
    0x62, 0xbe, 0x29, 0x8b, 0x97, 0x3d, 0xa4, 0x1e, 0xe1, 0xbd,
    0x3b, 0x70, 0x22, 0x3e, 0x50, 0x8a, 0x3b, 0x3e, 0x85, 0x0a,
    0x81, 0x3d, 0xd1, 0xca, 0x27, 0xbe, 0x3a, 0x4f, 0x8c, 0xbd,
    0xcf, 0x7d, 0x9a, 0xbc, 0x6a, 0x9b, 0x57, 0x3e, 0xaa, 0xb9,
    0xa6, 0x3d, 0x90, 0xa3, 0x24, 0xbe, 0x76, 0x70, 0x1c, 0xbe,
    0x0b, 0x71, 0x99, 0xbc, 0x8d, 0x19, 0x91, 0x3d, 0x47, 0x27,
    0x93, 0x3d, 0xfc, 0x70, 0x10, 0xbe, 0xd9, 0x27, 0x27, 0xbe,
    0x85, 0x16, 0xb4, 0x3d, 0x04, 0x85, 0x13, 0x3d, 0x2f, 0x82,
    0x9f, 0x3d, 0xcf, 0xca, 0x8b, 0x3c, 0xdc, 0x24, 0x03, 0xbd,
    0x20, 0x01, 0x15, 0xbd, 0x0f, 0x01, 0x29, 0xbe, 0x82, 0x3b,
    0xa3, 0xbd, 0x1f, 0xb3, 0xce, 0x3d, 0x4b, 0x16, 0x1d, 0xbe,
    0x12, 0x84, 0x06, 0x3e, 0x33, 0xf0, 0xb3, 0xbb, 0xa2, 0x71,
    0x49, 0xbe, 0x74, 0x05, 0x96, 0xbd, 0xd3, 0x67, 0x6a, 0xbe,
    0x75, 0x57, 0xf2, 0xbd, 0x9d, 0x7c, 0x0d, 0xbe, 0xb1, 0xa0,
    0x20, 0x3e, 0x2e, 0xf8, 0xcf, 0xbd, 0x5c, 0x63, 0x0a, 0xbe,
    0x65, 0xf0, 0xbb, 0xbd, 0x08, 0x11, 0x1e, 0xbd, 0x24, 0x67,
    0xb5, 0xbd, 0xd9, 0x67, 0xa4, 0xbd, 0xca, 0xee, 0x37, 0xbd,
    0x59, 0x79, 0xed, 0xbc, 0xf3, 0xe2, 0xc2, 0x3d, 0x23, 0x69,
    0x1b, 0x3e, 0x8e, 0x6a, 0x42, 0xbe, 0x44, 0x65, 0xaa, 0xbc,
    0xc4, 0x72, 0x84, 0x3d, 0xbd, 0x7e, 0x05, 0x3e, 0x1c, 0x3d,
    0x23, 0x3d, 0xfa, 0x5d, 0x8e, 0x3d, 0xb4, 0x37, 0x79, 0xbd,
    0xcf, 0xf1, 0x14, 0xbe, 0xae, 0x89, 0x09, 0xbe, 0xb8, 0xce,
    0x61, 0x3d, 0xf2, 0xe0, 0x30, 0xbe, 0xa7, 0x53, 0x45, 0x3d,
    0x42, 0x9d, 0x7e, 0x3c, 0xef, 0xdc, 0xc3, 0xbc, 0x52, 0x90,
    0xcc, 0x3d, 0x7c, 0x2f, 0xe8, 0xbd, 0xc1, 0x08, 0xae, 0xbc,
    0xdc, 0xd5, 0x55, 0xbd, 0xab, 0x84, 0x68, 0xbd, 0x6c, 0xfe,
    0xaf, 0xbd, 0x48, 0x86, 0x32, 0x3d, 0x65, 0xa0, 0xa0, 0xbd,
    0x11, 0xac, 0x96, 0xbd, 0xd3, 0x83, 0xca, 0xbd, 0xae, 0x4f,
    0x7f, 0x3d, 0x57, 0x3b, 0xa8, 0x3d, 0x0c, 0xf0, 0x33, 0x3d,
    0x62, 0x14, 0x83, 0x3e, 0x45, 0x6d, 0x66, 0x3d, 0xc3, 0x99,
    0xdd, 0x3d, 0x96, 0x27, 0x8e, 0xbb, 0x61, 0xaa, 0xb8, 0xbc,
    0xb8, 0xe5, 0x9d, 0x3c, 0x45, 0x7b, 0x2a, 0xbe, 0xc3, 0x17,
    0x28, 0x3d, 0xc7, 0x56, 0x38, 0xbe, 0xc7, 0x7c, 0x0a, 0xbe,
    0x01, 0x3c, 0x7f, 0xbd, 0x97, 0x94, 0x22, 0xbe, 0x29, 0x75,
    0x84, 0x3d, 0x0a, 0x74, 0x23, 0xbe, 0x6c, 0x11, 0x10, 0xbd,
    0x60, 0x42, 0xff, 0xbd, 0xb9, 0x90, 0xcb, 0x3d, 0xc0, 0xc6,
    0x23, 0x3d, 0xf7, 0x64, 0xa2, 0xbd, 0x3d, 0x5c, 0x15, 0xbe,
    0x2b, 0x32, 0x93, 0xbd, 0xe6, 0x5b, 0xf1, 0xbd, 0x91, 0xf5,
    0xb6, 0xbd, 0x59, 0xfa, 0x70, 0x3d, 0x5c, 0x13, 0x13, 0xbd,
    0xfe, 0x99, 0xc4, 0x3d, 0x00, 0xe3, 0xa8, 0xbd, 0x50, 0x5f,
    0x4e, 0xbe, 0xf0, 0xb3, 0x3b, 0x3c, 0x7c, 0x64, 0x5a, 0x3d,
    0x6b, 0x06, 0xae, 0x3d, 0xc2, 0x4e, 0x26, 0xbe, 0xf2, 0x17,
    0x20, 0x3e, 0xd0, 0x42, 0xf5, 0x3c, 0x6f, 0x13, 0x08, 0xbd,
    0x42, 0x56, 0x8e, 0x3d, 0xaf, 0xc4, 0x09, 0x3d, 0xe2, 0x53,
    0xe8, 0x3d, 0x15, 0x49, 0x78, 0xbe, 0xd8, 0xdb, 0xa8, 0xbc,
    0xd3, 0xf6, 0x4d, 0xbe, 0x2f, 0xfe, 0xb8, 0xbd, 0xcb, 0x1a,
    0xf9, 0xbd, 0xed, 0x31, 0xc5, 0xbd, 0x78, 0xbd, 0x21, 0x3d,
    0x85, 0x0d, 0xd7, 0xbd, 0x23, 0xd9, 0x9d, 0xbd, 0x11, 0x6c,
    0xfa, 0x3b, 0x78, 0x53, 0x9d, 0x3d, 0x67, 0x5a, 0xdc, 0x3d,
    0x97, 0x7d, 0x95, 0x3d, 0xe3, 0xab, 0x26, 0xbc, 0x23, 0x52,
    0x06, 0xbe, 0xde, 0x99, 0x62, 0xbd, 0xa3, 0xa4, 0xad, 0x3e,
    0x72, 0x0c, 0xa4, 0x3e, 0x9f, 0xf3, 0x35, 0xbe, 0xf0, 0x78,
    0xc0, 0xbe, 0x17, 0x82, 0x10, 0xbe, 0x31, 0x1a, 0x92, 0x3d,
    0x85, 0x90, 0x87, 0xbe, 0x00, 0x4b, 0x1f, 0xbc, 0x16, 0xfb,
    0xfc, 0x3c, 0xbb, 0xd6, 0x22, 0xbd, 0x45, 0xaa, 0x7c, 0xbe,
    0xba, 0x23, 0xb9, 0x3e, 0x51, 0x8f, 0x11, 0xbd, 0xe1, 0x61,
    0xa4, 0xbd, 0x66, 0xbe, 0x58, 0x3d, 0x0c, 0x12, 0xe7, 0xbd,
    0x88, 0xa0, 0x84, 0xbe, 0xe7, 0xa2, 0x7b, 0x3d, 0xdb, 0xcc,
    0x26, 0xbf, 0xe8, 0x93, 0xa3, 0xbe, 0xcb, 0xfa, 0xa7, 0xbe,
    0x7c, 0x68, 0xea, 0xbe, 0x6e, 0x6d, 0xa5, 0xbe, 0xcb, 0xc6,
    0x24, 0xbe, 0xf0, 0x00, 0xb5, 0xbe, 0xf4, 0x3c, 0xd0, 0xbc,
    0xa8, 0x74, 0x3c, 0xbe, 0xee, 0xc3, 0x2c, 0xbe, 0x40, 0x72,
    0x52, 0xbd, 0xd9, 0xc2, 0x5f, 0xbd, 0x19, 0xbd, 0xb4, 0x3d,
    0xbf, 0x35, 0x90, 0xbe, 0xd7, 0xf6, 0x8b, 0xbe, 0x01, 0x16,
    0xe8, 0x3b, 0x96, 0xfd, 0xf9, 0xbe, 0xf4, 0x2b, 0xfa, 0xbc,
    0x1d, 0xd2, 0x77, 0xbe, 0x28, 0xa2, 0xdc, 0xbe, 0x53, 0x38,
    0x9c, 0xbe, 0xd6, 0x2c, 0x14, 0xbe, 0xbd, 0xcf, 0xcd, 0xbe,
    0x3e, 0x2b, 0x41, 0x3d, 0x46, 0xd2, 0x39, 0x3e, 0xb5, 0x73,
    0xb8, 0xbd, 0x2e, 0x40, 0x73, 0x3d, 0x9d, 0xfb, 0xda, 0xbd,
    0xb5, 0x28, 0xc2, 0x3d, 0x74, 0x2f, 0xb8, 0xbe, 0x57, 0xf4,
    0x45, 0xbe, 0x93, 0x29, 0x38, 0x3e, 0x5b, 0x4c, 0xe9, 0xbe,
    0x15, 0x80, 0x70, 0xbe, 0x18, 0x6a, 0xa0, 0xbe, 0x2b, 0xd3,
    0x19, 0xbf, 0xd1, 0x9d, 0x16, 0xbe, 0xb0, 0xac, 0xa2, 0xbe,
    0x38, 0xe7, 0xaf, 0xbe, 0xe9, 0x4c, 0xbc, 0x3c, 0x6a, 0xc4,
    0xe3, 0xbc, 0x91, 0x42, 0xec, 0x3a, 0x02, 0x2f, 0x4c, 0xbd,
    0x6b, 0x6a, 0x74, 0x3c, 0x38, 0x59, 0x5b, 0x3d, 0x5d, 0x7b,
    0x9f, 0xbc, 0x05, 0x32, 0x65, 0xbe, 0xac, 0x49, 0x10, 0x3e,
    0x72, 0xa6, 0x0d, 0xbf, 0xb3, 0x9a, 0x71, 0xbe, 0x4f, 0xb1,
    0x68, 0xbe, 0x2c, 0x24, 0x46, 0xbf, 0x00, 0x02, 0xb0, 0xbe,
    0xef, 0xd1, 0xc3, 0xbe, 0xff, 0x20, 0x78, 0xbe, 0xd1, 0xa2,
    0x0b, 0xbd, 0xaf, 0x8c, 0xc9, 0xbd, 0x55, 0x7c, 0x69, 0x3e,
    0x3a, 0xbc, 0x19, 0xbe, 0x48, 0x12, 0xc7, 0xbd, 0xdd, 0xfc,
    0x2a, 0x3d, 0x1b, 0x30, 0x21, 0x3d, 0x94, 0xe7, 0x87, 0xbe,
    0x7d, 0x1c, 0x18, 0xbe, 0x90, 0xb7, 0xb6, 0x3e, 0x71, 0x33,
    0xa3, 0x3d, 0x1d, 0xa9, 0x5a, 0x3d, 0x8d, 0x90, 0x92, 0x3d,
    0x7a, 0xb7, 0x58, 0xbd, 0xf7, 0xbd, 0xae, 0xbe, 0x8f, 0x34,
    0xd1, 0xbd, 0x4a, 0x52, 0x75, 0x3a, 0xb9, 0xb9, 0xce, 0x3b,
    0x8e, 0x83, 0x0e, 0x3e, 0xb4, 0x09, 0x5d, 0xbe, 0x4b, 0xbf,
    0xf4, 0xbd, 0xef, 0xb4, 0x24, 0x3d, 0xfa, 0x58, 0x9f, 0xbc,
    0x77, 0x18, 0x4d, 0xbe, 0x8e, 0xa9, 0xac, 0xbe, 0x52, 0x9f,
    0x91, 0x3e, 0xd4, 0x79, 0x71, 0x3d, 0xbf, 0x46, 0xe9, 0xbd,
    0xc7, 0xa3, 0xa0, 0x3d, 0x30, 0x7e, 0xec, 0x3c, 0xe4, 0xe9,
    0x46, 0xbe, 0x25, 0xd2, 0x73, 0xbe, 0x58, 0x55, 0x9b, 0xbd,
    0x86, 0x3a, 0x4b, 0x3d, 0x3f, 0x34, 0xbd, 0xbc, 0xa0, 0x37,
    0x8f, 0xbc, 0x9c, 0xdd, 0xe7, 0xbd, 0x14, 0x2d, 0x89, 0x3c,
    0xb6, 0xee, 0x71, 0x3d, 0xa3, 0x19, 0x2b, 0xbe, 0x20, 0xf5,
    0xa7, 0xbe, 0x48, 0x7d, 0x61, 0x3e, 0xe8, 0xb3, 0x6f, 0x3d,
    0xb7, 0xaa, 0x66, 0xbd, 0x42, 0x79, 0x1f, 0x3d, 0x03, 0x82,
    0x1d, 0x3e, 0xa2, 0x3b, 0x46, 0xbe, 0xf6, 0xdc, 0x77, 0x3d,
    0x09, 0x16, 0x1f, 0xbd, 0xfd, 0x4a, 0x76, 0xbd, 0x5a, 0xaa,
    0x20, 0x3e, 0x82, 0xc3, 0x50, 0xbb, 0xc6, 0x21, 0x80, 0xbe,
    0xbe, 0xe3, 0xe2, 0x3a, 0xd7, 0xc0, 0x7b, 0x3e, 0x8e, 0x1d,
    0x8a, 0xbd, 0x74, 0xdf, 0x0b, 0xbf, 0xf7, 0xe0, 0x15, 0x3e,
    0x86, 0x0f, 0x1b, 0x3e, 0x64, 0x52, 0x89, 0xbe, 0x74, 0x62,
    0x8b, 0x3d, 0x9e, 0xf2, 0x4b, 0x3e, 0xc3, 0x69, 0xc6, 0x3c,
    0x16, 0x02, 0x9e, 0x3d, 0xd4, 0x78, 0x00, 0x3d, 0x63, 0x2d,
    0x8f, 0xbe, 0x2e, 0x79, 0x16, 0x3c, 0x64, 0xcc, 0xbc, 0xbd,
    0xfd, 0xf5, 0x3a, 0xbe, 0x55, 0xd4, 0xac, 0x3d, 0x23, 0x69,
    0x1b, 0x3e, 0x9b, 0x5b, 0x2d, 0xbe, 0xd6, 0xc5, 0x2b, 0x3b,
    0x48, 0xc6, 0x0f, 0x3e, 0x34, 0x51, 0x21, 0x3e, 0x00, 0x13,
    0x6e, 0xbe, 0x51, 0xe6, 0xcf, 0x3c, 0xf4, 0xcf, 0x11, 0x3d,
    0xf3, 0x45, 0x89, 0x3d, 0x9d, 0x44, 0x62, 0x3e, 0x9a, 0xc2,
    0x2e, 0x3c, 0x63, 0x08, 0x4c, 0xbd, 0x38, 0x10, 0xfe, 0x3d,
    0xde, 0x75, 0x5e, 0xbe, 0x92, 0xc4, 0x11, 0x3d, 0x80, 0x54,
    0x6a, 0xbd, 0x01, 0xd8, 0x76, 0x3e, 0xb3, 0xcf, 0x04, 0xbe,
    0xe1, 0x28, 0xc9, 0xbc, 0xf1, 0x02, 0xf6, 0x3d, 0xe6, 0x71,
    0x09, 0x3e, 0x24, 0xe6, 0xe6, 0x3c, 0x95, 0x67, 0xa0, 0x3c,
    0xc2, 0xe6, 0x97, 0x3e, 0xc1, 0x2b, 0x3f, 0xbe, 0x6f, 0x97,
    0x61, 0x3e, 0x33, 0xea, 0xe5, 0x3c, 0xf2, 0xe0, 0xa6, 0xbe,
    0xd6, 0xbe, 0x8d, 0x3e, 0xaf, 0xeb, 0xea, 0xbd, 0xc3, 0x7b,
    0xfc, 0x3d, 0xf2, 0x26, 0xb8, 0xbc, 0xc6, 0x47, 0x1c, 0x3e,
    0xff, 0x1a, 0x21, 0x3c, 0xeb, 0x09, 0x8f, 0xbe, 0x1d, 0xf3,
    0xe9, 0x3d, 0x70, 0xf3, 0xf7, 0x3d, 0x69, 0x2a, 0xac, 0xbd,
    0x57, 0x29, 0x24, 0x3d, 0x2c, 0xd5, 0xba, 0x3e, 0x88, 0x33,
    0x04, 0x3e, 0xfe, 0xb0, 0x0c, 0x3e, 0x10, 0x95, 0xe6, 0x3c,
    0x4a, 0x71, 0x7f, 0xbe, 0xfc, 0x4d, 0x88, 0x3d, 0x34, 0xce,
    0xa0, 0xbd, 0xda, 0x9a, 0x0d, 0x3e, 0x48, 0xac, 0x3e, 0x3d,
    0xbf, 0x67, 0xd9, 0x3e, 0x26, 0x22, 0x80, 0x3d, 0x2a, 0x7f,
    0xb8, 0xbe, 0x96, 0x80, 0xc2, 0xbd, 0xa6, 0x37, 0x2e, 0x3e,
    0xba, 0x84, 0x0b, 0xbe, 0x81, 0x8b, 0x47, 0xbb, 0xe9, 0xcf,
    0xd1, 0x3e, 0x77, 0xcd, 0x40, 0x3e, 0x35, 0x60, 0x04, 0x3d,
    0x52, 0x1a, 0x58, 0xbd, 0xd0, 0xfa, 0x26, 0xbe, 0x36, 0x42,
    0xd4, 0xb9, 0x06, 0x3a, 0x09, 0xbf, 0x2b, 0xa8, 0xa6, 0x3d,
    0xef, 0x94, 0xce, 0xbe, 0x16, 0xb1, 0x60, 0xbf, 0xce, 0x5a,
    0xa6, 0xbd, 0xf2, 0x4a, 0x42, 0x3e, 0x13, 0x80, 0x0d, 0x3d,
    0xd3, 0x9e, 0x1d, 0xbf, 0x0c, 0x3e, 0x9c, 0xbe, 0x84, 0xf5,
    0x23, 0x3d, 0x40, 0x5e, 0x63, 0xbe, 0xb8, 0xa1, 0x47, 0x3e,
    0xa1, 0xc6, 0x9e, 0x3e, 0xa5, 0x1f, 0x8d, 0xbe, 0x62, 0x84,
    0xa3, 0xbb, 0x79, 0xd9, 0x50, 0xbe, 0xa1, 0x76, 0xb5, 0xbe,
    0xfa, 0xf7, 0x8e, 0x3e, 0xb8, 0x43, 0x3d, 0xbf, 0xdf, 0x7c,
    0xe1, 0x3e, 0x30, 0xa2, 0x68, 0xbe, 0x82, 0x26, 0xa7, 0xbe,
    0x53, 0x85, 0xb8, 0x3e, 0x5f, 0x69, 0x72, 0x3d, 0x9a, 0x4e,
    0xb5, 0xbd, 0xb0, 0x23, 0xe7, 0xbc, 0xfd, 0xe4, 0xe8, 0xbd,
    0xb6, 0xa0, 0xa4, 0xbe, 0x39, 0xa7, 0xfd, 0xbe, 0x31, 0x9f,
    0x4a, 0x3d, 0xdf, 0xa7, 0x98, 0x3e, 0x2f, 0x8a, 0x05, 0xbc,
    0xa4, 0x70, 0x09, 0xbe, 0x32, 0x39, 0xb8, 0xbe, 0xde, 0x98,
    0x6f, 0x3e, 0x58, 0x29, 0x09, 0x3e, 0xf9, 0xf5, 0x61, 0xbd,
    0x6b, 0xbb, 0xda, 0x3b, 0x54, 0xb8, 0xd9, 0x3c, 0xfe, 0xd5,
    0x89, 0x3d, 0x88, 0xb4, 0x08, 0xbe, 0xd2, 0xd3, 0x8b, 0x3d,
    0xf0, 0x3c, 0xba, 0x3d, 0x97, 0x0d, 0x29, 0x3e, 0x7e, 0xd4,
    0x8e, 0x3e, 0x87, 0x59, 0xb7, 0x3d, 0xbc, 0x51, 0x1d, 0x3e,
    0xbd, 0xed, 0xd3, 0xbc, 0x74, 0x6b, 0xcb, 0xbe, 0x14, 0x09,
    0x55, 0xbe, 0xaa, 0x36, 0x89, 0x3d, 0xf4, 0xb7, 0x1c, 0x3e,
    0xc2, 0xa6, 0xd4, 0xbc, 0x45, 0x35, 0x4c, 0xbe, 0x63, 0x8f,
    0x1d, 0x3d, 0xd3, 0x55, 0x0d, 0xbd, 0xed, 0xe5, 0x91, 0xbe,
    0xe4, 0x2f, 0xae, 0x3d, 0x64, 0x47, 0xa7, 0x3e, 0x78, 0x27,
    0xac, 0x3b, 0xac, 0x3c, 0x21, 0x3e, 0xea, 0xa7, 0x77, 0x3d,
    0x70, 0xa6, 0xb6, 0xbe, 0xd6, 0xdc, 0x78, 0x3b, 0xa5, 0x21,
    0xf8, 0xbd, 0xf0, 0x33, 0x03, 0xbe, 0x6e, 0x09, 0xa1, 0x3c,
    0xb5, 0xa1, 0xa5, 0xbd, 0x4b, 0x9c, 0x4f, 0xbd, 0xc3, 0x8f,
    0x84, 0xbe, 0x13, 0xf9, 0x9d, 0x3d, 0x3e, 0x63, 0x4a, 0xbd,
    0x8c, 0xa8, 0x3e, 0xbe, 0xbb, 0x48, 0x9a, 0xbd, 0x3d, 0xbe,
    0x0d, 0x3e, 0xda, 0x6d, 0x54, 0xbe, 0xe4, 0x60, 0x53, 0x3e,
    0x2d, 0x0a, 0x1e, 0xbd, 0x2c, 0xd2, 0xaa, 0xbe, 0xa8, 0xd8,
    0xbf, 0xbd, 0x0a, 0x6e, 0x17, 0xbd, 0xf8, 0x53, 0x08, 0x3e,
    0x13, 0xb5, 0xb1, 0x3c, 0x1f, 0xea, 0x75, 0x3d, 0x28, 0xd2,
    0x91, 0x3d, 0xc2, 0xc2, 0x14, 0xbe, 0x9f, 0xae, 0xd3, 0x3d,
    0xa5, 0xfd, 0xfd, 0xbd, 0xc5, 0x8b, 0x54, 0xbd, 0x6c, 0x31,
    0xa2, 0x3d, 0x91, 0x65, 0x97, 0x3d, 0x5d, 0x03, 0x4b, 0xbe,
    0x47, 0x82, 0xa8, 0x3d, 0x95, 0x49, 0xfc, 0x3c, 0x79, 0x77,
    0x52, 0x3d, 0xed, 0xd6, 0x21, 0x3e, 0x96, 0xda, 0xaa, 0x3c,
    0xda, 0xda, 0x0b, 0x3e, 0xbd, 0x8e, 0x91, 0xbd, 0x04, 0x3b,
    0xd6, 0x3d, 0x01, 0xcb, 0x00, 0xbb, 0x9f, 0x5e, 0x65, 0xbc,
    0xaa, 0x8b, 0x09, 0x3e, 0x47, 0xac, 0xe8, 0xbb, 0x69, 0xa3,
    0xff, 0xbd, 0x1a, 0xef, 0xb2, 0x3b, 0x14, 0x19, 0x5f, 0xbd,
    0xcf, 0x66, 0xd4, 0xbd, 0xec, 0xe9, 0xe2, 0x3d, 0x83, 0x45,
    0x3c, 0x3d, 0xeb, 0x4b, 0xf9, 0xbd, 0xbe, 0xe7, 0xf5, 0x3d,
    0xa1, 0xf5, 0x08, 0xbe, 0x5b, 0xc8, 0x04, 0x3e, 0x01, 0x96,
    0x7c, 0x3b, 0x3a, 0xf1, 0x5d, 0x3d, 0x4e, 0x4e, 0x32, 0xbc,
    0xd3, 0x9f, 0x91, 0x3b, 0x2a, 0x8b, 0xfe, 0x3d, 0x0a, 0x11,
    0xfd, 0x3d, 0x77, 0x4f, 0xac, 0xbd, 0xea, 0x18, 0xbc, 0x3d,
    0xed, 0xe3, 0x84, 0xbd, 0x61, 0x54, 0xc1, 0x3c, 0xd9, 0xe5,
    0xbd, 0x3d, 0x40, 0x7a, 0xa9, 0x3d, 0x27, 0x2a, 0x1b, 0xbf,
    0x14, 0x50, 0x88, 0xbe, 0xda, 0x7a, 0x61, 0xbd, 0x27, 0x53,
    0x26, 0x3e, 0xee, 0x16, 0x04, 0xbd, 0xea, 0xe9, 0x0e, 0x3e,
    0x2a, 0x54, 0x3b, 0xbc, 0x89, 0xe7, 0x9a, 0xbd, 0xe3, 0x1a,
    0x32, 0xbd, 0x1c, 0xeb, 0x02, 0x3c, 0x1a, 0xf2, 0x2d, 0xbd,
    0x47, 0xd2, 0x33, 0x3d, 0xe2, 0xeb, 0x73, 0x3d, 0x67, 0xbd,
    0x0c, 0xbd, 0xc8, 0x95, 0x14, 0x3d, 0x73, 0x7c, 0x45, 0xbd,
    0xac, 0x09, 0x73, 0xbe, 0x8e, 0x66, 0x17, 0x3c, 0xd1, 0xe7,
    0x11, 0xbd, 0xe5, 0xf7, 0xa2, 0x3b, 0xb2, 0xb2, 0xf1, 0xbd,
    0x33, 0x52, 0x86, 0x3e, 0x30, 0xa7, 0x90, 0xbd, 0xc0, 0x16,
    0x4a, 0xbd, 0x14, 0x6b, 0xa9, 0x3c, 0x3d, 0x4d, 0xf5, 0x3d,
    0x25, 0x60, 0x49, 0xbe, 0xfe, 0xf4, 0x4a, 0x3d, 0x49, 0x97,
    0xa2, 0x3e, 0x11, 0xe2, 0x13, 0x3e, 0x83, 0xc3, 0x85, 0x3c,
    0x83, 0x71, 0x37, 0x3d, 0x0e, 0x41, 0x81, 0xbe, 0x22, 0x1d,
    0x7c, 0xbe, 0xce, 0x3a, 0x77, 0xbd, 0xc5, 0xff, 0x73, 0xbc,
    0xdf, 0x58, 0xc2, 0xbd, 0x87, 0x76, 0xa4, 0x3e, 0x4f, 0x6c,
    0x35, 0x3d, 0x16, 0xb0, 0x19, 0xbe, 0x5d, 0x07, 0x50, 0x3d,
    0x84, 0xe0, 0x6f, 0x3e, 0x5d, 0xb8, 0xc5, 0xbb, 0x28, 0xe8,
    0x49, 0xbd, 0xea, 0x84, 0x30, 0x3e, 0xe9, 0x07, 0x51, 0x3e,
    0xde, 0xab, 0x2f, 0x3e, 0x57, 0x05, 0xf3, 0xbd, 0xd6, 0xab,
    0x69, 0xbe, 0x6f, 0x74, 0x3f, 0x3d, 0x6a, 0xce, 0x8b, 0x3c,
    0x38, 0x79, 0x0f, 0x3d, 0xe1, 0xa6, 0xf5, 0xbe, 0x6d, 0x55,
    0xab, 0xbe, 0xa3, 0x1a, 0x7c, 0x3d, 0xd3, 0xf9, 0x00, 0x3c,
    0xc5, 0xb6, 0x37, 0x3b, 0x91, 0xb0, 0x5f, 0xbe, 0x9b, 0xc9,
    0x57, 0xbd, 0xb4, 0xdb, 0x33, 0xbd, 0xa5, 0xb0, 0xe6, 0xbd,
    0xa2, 0x93, 0xa2, 0xbd, 0xcd, 0x66, 0x00, 0x3e, 0x7d, 0x41,
    0xc6, 0xbd, 0xf8, 0xd9, 0x25, 0xbe, 0x5b, 0x87, 0x96, 0x3c,
    0x8d, 0x40, 0x95, 0xbc, 0xb0, 0xff, 0x25, 0x3c, 0x82, 0x99,
    0x26, 0xbf, 0x72, 0xa2, 0x14, 0xbf, 0x81, 0xbf, 0xc7, 0x3d,
    0x8a, 0xaf, 0x65, 0x3d, 0x42, 0x08, 0x2a, 0xbe, 0xfc, 0x92,
    0x00, 0xbf, 0xc6, 0x10, 0x2b, 0xbe, 0x43, 0x12, 0x05, 0xbe,
    0xe1, 0x1e, 0x3f, 0xbe, 0x8f, 0x1e, 0x82, 0xbc, 0xca, 0x18,
    0xb5, 0xbc, 0xd8, 0x50, 0x28, 0xbd, 0x16, 0xf9, 0xde, 0xbd,
    0xe9, 0x7c, 0xc3, 0x3d, 0x2b, 0x62, 0xa4, 0xbd, 0x7b, 0x9a,
    0x51, 0x3e, 0x0d, 0x06, 0x41, 0xbf, 0x10, 0x90, 0xff, 0xbe,
    0x7b, 0x34, 0xfc, 0x3d, 0x47, 0x08, 0x83, 0xbb, 0xfe, 0xa2,
    0x4a, 0xbe, 0xb8, 0x39, 0xbe, 0xbe, 0x23, 0x3f, 0xcd, 0xbe,
    0x15, 0x25, 0x24, 0xbe, 0xae, 0xb3, 0x5d, 0xbe, 0x0a, 0xa4,
    0x13, 0x3e, 0x2a, 0xe8, 0xa7, 0xbd, 0x61, 0xa2, 0xec, 0xbd,
    0xa1, 0xe4, 0x57, 0xbd, 0xfd, 0x8f, 0xbd, 0xbd, 0x3b, 0x99,
    0xdb, 0xbd, 0x39, 0x8e, 0x35, 0x3e, 0x83, 0x5c, 0x40, 0xbf,
    0xed, 0x94, 0xcf, 0xbe, 0xc8, 0x60, 0x20, 0x3a, 0x1b, 0xa5,
    0x9d, 0x3e, 0x30, 0xaa, 0xe5, 0xbd, 0x29, 0x5b, 0x7a, 0xbe,
    0xc8, 0xf4, 0x4c, 0xbe, 0x52, 0xac, 0xf7, 0xbc, 0x10, 0xe3,
    0xb1, 0xbe, 0x0f, 0xa2, 0x11, 0x3e, 0x3a, 0x73, 0x88, 0x3d,
    0xf8, 0xa1, 0x6f, 0xbe, 0x9a, 0xb8, 0x2a, 0x3d, 0x0f, 0x8d,
    0x8d, 0x3d, 0x72, 0x54, 0x23, 0x3e, 0x52, 0x44, 0x64, 0x3e,
    0x2f, 0xfe, 0xe1, 0xbe, 0xa1, 0x3e, 0x8c, 0xbd, 0x46, 0xb8,
    0xa6, 0x3e, 0xef, 0x11, 0xfd, 0xbc, 0x20, 0x7d, 0x90, 0xbd,
    0x87, 0x0e, 0x09, 0xbf, 0xff, 0x6f, 0xef, 0xbd, 0xde, 0xc2,
    0x33, 0x3e, 0x9b, 0xe7, 0x9d, 0x3e, 0x84, 0x94, 0xd6, 0xbe,
    0x34, 0x2a, 0x06, 0x3f, 0x6c, 0x77, 0x20, 0xbf, 0x02, 0x3c,
    0x35, 0x3e, 0x7d, 0x20, 0x26, 0x3f, 0xb2, 0xf4, 0x3b, 0x3e,
    0xda, 0x8f, 0x62, 0xbd, 0x55, 0x35, 0x43, 0x3d, 0x9f, 0xc5,
    0x8d, 0xbc, 0x88, 0xa3, 0xb3, 0x3e, 0xf2, 0xfc, 0x40, 0xbe,
    0x12, 0x84, 0xc2, 0xbe, 0x93, 0xe7, 0xa2, 0xbe, 0x04, 0x95,
    0x78, 0xbe, 0x3c, 0x59, 0xb0, 0xbe, 0xc5, 0xfd, 0x88, 0x3e,
    0x07, 0xc3, 0x5a, 0xbe, 0x9d, 0xb4, 0x22, 0x3e, 0xfc, 0x40,
    0xf8, 0xbe, 0x41, 0x1d, 0xbd, 0xbd, 0xa6, 0x1c, 0xae, 0x3e,
    0x7c, 0x73, 0xf4, 0x3d, 0xc9, 0x5b, 0xda, 0xbd, 0x36, 0x6e,
    0x2a, 0xbe, 0xd2, 0x3e, 0xe2, 0xbd, 0x9d, 0x0e, 0x65, 0x3e,
    0xa9, 0x7a, 0xfa, 0x3c, 0x11, 0xfd, 0x66, 0xbe, 0x51, 0x25,
    0xdd, 0xbb, 0xc2, 0x96, 0x0a, 0xbe, 0xa9, 0xc7, 0xa7, 0xbe,
    0x3b, 0xc3, 0x30, 0x3e, 0x39, 0xda, 0xb3, 0xbe, 0x90, 0xe5,
    0x2d, 0xbd, 0x3f, 0x78, 0xd6, 0xbe, 0x9c, 0x1b, 0x3f, 0xbd,
    0xee, 0x34, 0x7f, 0x3e, 0x85, 0x22, 0x2c, 0x3e, 0xe4, 0x7e,
    0x52, 0x3c, 0x0e, 0xe2, 0x3f, 0xbd, 0xa8, 0xed, 0x2b, 0x3e,
    0xef, 0x73, 0xd0, 0x3d, 0xe0, 0xa7, 0x04, 0x3c, 0x8b, 0x3b,
    0x20, 0xbe, 0xeb, 0xf4, 0x5b, 0x3c, 0x2b, 0xad, 0x18, 0x3e,
    0x97, 0xa7, 0x63, 0xbe, 0x2e, 0x86, 0xad, 0x3b, 0x45, 0xe2,
    0xed, 0xbd, 0x07, 0x75, 0xc7, 0xbd, 0x84, 0x7d, 0xa0, 0xbe,
    0x63, 0x2a, 0xf8, 0xbc, 0xe4, 0x48, 0x32, 0x3e, 0x5f, 0x9a,
    0x54, 0xbd, 0xd9, 0x4f, 0x06, 0xbe, 0x4d, 0x14, 0x0d, 0x3e,
    0x21, 0xbc, 0x2d, 0x3e, 0x2e, 0x80, 0x63, 0x3d, 0x89, 0xdf,
    0x70, 0x3d, 0x2e, 0xdc, 0x77, 0xbc, 0xb5, 0xa3, 0x83, 0x3d,
    0x47, 0x18, 0xff, 0x3d, 0x10, 0xc4, 0xc3, 0xbd, 0x8a, 0xe1,
    0x86, 0x3b, 0x3a, 0x65, 0xf3, 0x3d, 0xfd, 0x8c, 0xaf, 0x3d,
    0x68, 0x62, 0x35, 0xbe, 0x08, 0x60, 0xad, 0x3d, 0xab, 0xc3,
    0x9c, 0x3d, 0x28, 0xdd, 0x20, 0x3c, 0x47, 0x17, 0x31, 0xbe,
    0xa8, 0x1b, 0x71, 0xbd, 0xb9, 0x4f, 0x67, 0x3e, 0x60, 0x65,
    0x10, 0x3d, 0x56, 0xc3, 0x56, 0xbd, 0xba, 0xda, 0x04, 0xbe,
    0xc2, 0xa0, 0xeb, 0x3c, 0x97, 0xdd, 0x23, 0xbd, 0x53, 0x02,
    0xae, 0xbd, 0x90, 0x17, 0x28, 0x3d, 0xdc, 0xa3, 0xf8, 0xbd,
    0x05, 0x1c, 0xa4, 0x3d, 0x26, 0xb4, 0xf0, 0xbe, 0x63, 0x3f,
    0x3a, 0xbd, 0xe5, 0x14, 0x72, 0x3e, 0xb0, 0xa2, 0x2d, 0x3e,
    0xe1, 0xa7, 0xdf, 0xbd, 0x65, 0xba, 0x5f, 0xbe, 0x56, 0xba,
    0x34, 0x3e, 0xbd, 0xff, 0x48, 0x3d, 0xb7, 0x8a, 0xcb, 0xbd,
    0x73, 0xb9, 0x4a, 0xbc, 0x8e, 0x43, 0x94, 0xbc, 0xbb, 0xf6,
    0xa8, 0x3d, 0x05, 0xab, 0xa4, 0xbd, 0x36, 0x00, 0x88, 0x3c,
    0xb1, 0xb6, 0xd2, 0xbd, 0xe1, 0x4d, 0xf1, 0x3d, 0x00, 0x1e,
    0x4e, 0xbe, 0xf4, 0x19, 0xa4, 0x3d, 0x78, 0xae, 0x95, 0x3e,
    0x52, 0xec, 0xd4, 0xbc, 0x0d, 0xc1, 0xc8, 0x3d, 0x79, 0x89,
    0x48, 0xbe, 0x40, 0xdd, 0xc6, 0xbd, 0x4f, 0x0d, 0x3e, 0x3b,
    0xd5, 0x89, 0x0a, 0xbd, 0x97, 0xb2, 0xb2, 0xbd, 0xd7, 0x3d,
    0x00, 0xbe, 0x12, 0xa4, 0xb6, 0x3d, 0x47, 0x08, 0x77, 0xbe,
    0xce, 0x16, 0xa2, 0xbd, 0xc3, 0x52, 0xb8, 0xbd, 0xd3, 0x46,
    0x71, 0x3e, 0x45, 0xa9, 0x02, 0xbd, 0xc6, 0xe8, 0x81, 0xbd,
    0x1f, 0xff, 0x45, 0x3d, 0x40, 0xf8, 0x36, 0x3d, 0x33, 0xc4,
    0xc4, 0x3d, 0x87, 0xe9, 0x09, 0x3e, 0xf3, 0x58, 0x35, 0x3e,
    0x62, 0xc5, 0x77, 0x3c, 0x12, 0x67, 0x0f, 0xbd, 0x1a, 0x94,
    0x94, 0xbd, 0xb3, 0xa8, 0x3b, 0xbd, 0x71, 0x91, 0x4b, 0xbd,
    0x9c, 0xf8, 0xda, 0xbd, 0x00, 0x0e, 0x78, 0xbd, 0x8e, 0x66,
    0x5f, 0xbd, 0xa7, 0xb5, 0x90, 0x3e, 0x60, 0x8f, 0x1f, 0x3e,
    0x50, 0x76, 0x9e, 0x3c, 0x6c, 0xc3, 0x46, 0x3e, 0xb2, 0x9f,
    0x41, 0x3e, 0x45, 0x4e, 0x0a, 0x3d, 0xb7, 0xbd, 0xcb, 0xbd,
    0x4d, 0xd0, 0x6e, 0x3c, 0x61, 0xc6, 0xe2, 0x3d, 0xa6, 0xe8,
    0x5f, 0xbe, 0x76, 0x73, 0xb6, 0xbd, 0xb8, 0xb4, 0x3e, 0xbe,
    0x2c, 0x0a, 0xbf, 0x3d, 0xd9, 0x8e, 0x35, 0xbe, 0xd3, 0x42,
    0x08, 0xbe, 0x38, 0x2c, 0x14, 0xbe, 0x87, 0x2c, 0x51, 0xbc,
    0x7a, 0xf3, 0xa2, 0xbd, 0x8f, 0xe3, 0x5a, 0xbd, 0x6d, 0xa8,
    0x5c, 0x3e, 0x45, 0x1a, 0x60, 0x3c, 0x29, 0x4d, 0x3b, 0xbd,
    0x1f, 0x4e, 0x4b, 0xbd, 0x8e, 0xbb, 0x5e, 0x3e, 0xde, 0x3e,
    0x27, 0x3e, 0x11, 0xdd, 0x75, 0xbe, 0x85, 0x42, 0x71, 0xbc,
    0x28, 0x53, 0xb2, 0xbd, 0x69, 0x9e, 0x75, 0x3d, 0x68, 0xfd,
    0x34, 0xbe, 0x1f, 0xe7, 0x64, 0xbd, 0x68, 0xb9, 0x42, 0xbd,
    0x93, 0x78, 0x89, 0xbe, 0x45, 0x74, 0x03, 0x3d, 0x3a, 0x48,
    0x87, 0x3d, 0x3b, 0xba, 0xa8, 0x3e, 0x17, 0x78, 0xaf, 0x3d,
    0x22, 0x8e, 0x12, 0xbe, 0x46, 0xb3, 0x20, 0xbe, 0x84, 0x93,
    0x10, 0x3e, 0x87, 0x4e, 0x8b, 0xbc, 0x66, 0xe8, 0x27, 0xbe,
    0xef, 0x9d, 0x71, 0xbe, 0x85, 0x83, 0x2d, 0xbe, 0xeb, 0x64,
    0x80, 0xbd, 0x65, 0x98, 0xbe, 0xbe, 0x24, 0x40, 0x79, 0x3d,
    0xb9, 0xfc, 0x7b, 0xbd, 0x53, 0x13, 0x22, 0xbe, 0x25, 0xa7,
    0xd9, 0xbd, 0xf7, 0xdc, 0x12, 0xbe, 0xef, 0x9e, 0xc1, 0x3e,
    0xc9, 0x03, 0xc0, 0x3e, 0xb6, 0xb2, 0x8e, 0xbc, 0xbd, 0x58,
    0x99, 0xbe, 0x73, 0x2d, 0x72, 0x3e, 0x16, 0x75, 0xaa, 0xbc,
    0x7c, 0x69, 0x83, 0xbd, 0x93, 0x6a, 0xaf, 0xbd, 0x47, 0x73,
    0x6b, 0xbe, 0x07, 0x33, 0xe1, 0xbd, 0xd8, 0x99, 0x35, 0xbe,
    0x61, 0x45, 0xbd, 0xbd, 0xef, 0x6c, 0x12, 0x3c, 0xa2, 0x32,
    0xb2, 0xbe, 0x4d, 0x40, 0x2f, 0xbe, 0xb7, 0x85, 0xe0, 0xbd,
    0x26, 0x35, 0xb1, 0x3e, 0xf1, 0xb5, 0xf2, 0x3d, 0x10, 0xc9,
    0x9a, 0xbc, 0x3c, 0x3d, 0xa7, 0xbe, 0x95, 0xc6, 0x2f, 0xbd,
    0xd3, 0xec, 0x0b, 0xbe, 0xd9, 0x12, 0x8f, 0x3c, 0x10, 0x63,
    0x91, 0x3d, 0x3f, 0x58, 0x3a, 0xbe, 0xad, 0xb3, 0xb5, 0x3d,
    0x63, 0xa2, 0x82, 0x3d, 0x11, 0x4d, 0x5d, 0x3d, 0x07, 0x49,
    0x3c, 0x3e, 0xb2, 0xaf, 0x8a, 0xbe, 0xf3, 0x3f, 0x3a, 0xbe,
    0xf9, 0x61, 0xaa, 0x3d, 0xee, 0xbe, 0x03, 0x3e, 0xdd, 0x2f,
    0x32, 0x3e, 0xe7, 0x9a, 0xc1, 0x3c, 0xe1, 0x44, 0x26, 0xbe,
    0x3d, 0xe4, 0x05, 0xbe, 0xf4, 0x0c, 0x6b, 0xbd, 0x69, 0xf1,
    0xd9, 0xbd, 0x92, 0x48, 0x4e, 0xbe, 0xad, 0x7c, 0x36, 0xbe,
    0x6d, 0x84, 0x90, 0xbd, 0xdb, 0xb3, 0x00, 0xbf, 0xaa, 0xea,
    0x3b, 0x3e, 0x36, 0x8c, 0xe6, 0x3b, 0x90, 0xbb, 0x61, 0xbe,
    0xd4, 0x6e, 0xbd, 0xbd, 0x28, 0xba, 0x43, 0xbd, 0x90, 0xd1,
    0x09, 0x3e, 0x21, 0x2e, 0x69, 0x3e, 0x71, 0x27, 0x50, 0xbe,
    0x9c, 0xff, 0xbb, 0x3c, 0xbe, 0x54, 0x01, 0xbe, 0x99, 0x4a,
    0x8f, 0xbe, 0x3e, 0xca, 0x0d, 0xbf, 0x24, 0x05, 0x11, 0xbf,
    0x9d, 0x60, 0x96, 0xbe, 0x4a, 0xa2, 0xe2, 0xbe, 0x3e, 0x1c,
    0xc1, 0xbe, 0x0e, 0x88, 0x4e, 0x3d, 0x43, 0xbf, 0x12, 0xbe,
    0x64, 0x1e, 0xf3, 0xbe, 0xda, 0x3c, 0xbc, 0xbd, 0x2b, 0x2b,
    0xda, 0xbe, 0xe0, 0xdb, 0x9b, 0x3d, 0x84, 0x0f, 0xd8, 0x3d,
    0x78, 0xcf, 0x94, 0xbd, 0x84, 0x93, 0xc3, 0xbc, 0x62, 0xcd,
    0x44, 0x3d, 0x13, 0xe8, 0x84, 0xbe, 0x99, 0xb9, 0xe7, 0xbe,
    0xa8, 0xd2, 0xc8, 0xbe, 0xf8, 0x45, 0x99, 0xbe, 0xe9, 0xf3,
    0xbe, 0xbe, 0xf6, 0xa8, 0xf2, 0xbe, 0x21, 0xff, 0xb2, 0xba,
    0xe5, 0x1c, 0x60, 0x3d, 0x34, 0xdd, 0x8e, 0xbe, 0x44, 0x7b,
    0x77, 0xbd, 0x8d, 0xa9, 0x67, 0xbe, 0xc4, 0x4e, 0x37, 0x3e,
    0xff, 0xd4, 0xb0, 0xbe, 0xc4, 0x61, 0x8a, 0xbe, 0x54, 0x9d,
    0x40, 0xbd, 0x8f, 0xd4, 0x4d, 0x3d, 0xac, 0xe9, 0x07, 0xbe,
    0x40, 0xf2, 0x5e, 0x3e, 0xb6, 0xec, 0xa1, 0xbe, 0x6d, 0x4f,
    0x93, 0x3b, 0xff, 0x59, 0x36, 0xbe, 0x59, 0xe3, 0x0a, 0xbf,
    0xeb, 0x62, 0x47, 0xbd, 0x82, 0x33, 0x36, 0xbd, 0x7b, 0x0f,
    0x04, 0xbe, 0x8e, 0x89, 0x99, 0xbd, 0x05, 0xf4, 0xb6, 0xbe,
    0x3a, 0xad, 0xef, 0x3d, 0x6c, 0xcd, 0x38, 0xbe, 0xa7, 0x8b,
    0x58, 0xbe, 0x93, 0x1b, 0xff, 0x3a, 0x3f, 0x09, 0x87, 0xbe,
    0x2e, 0xea, 0x95, 0xbd, 0x50, 0x89, 0x14, 0x3e, 0x7b, 0x6f,
    0xf2, 0xbd, 0xf6, 0x64, 0x1a, 0x3d, 0xcb, 0xa2, 0x6a, 0xbe,
    0xc0, 0x55, 0x5b, 0xbe, 0x95, 0xe1, 0x4a, 0x3c, 0x2b, 0x64,
    0x03, 0xbd, 0x8a, 0x5b, 0x43, 0xbe, 0xeb, 0x11, 0x9a, 0xbd,
    0x0f, 0x9c, 0x93, 0xbd, 0xd6, 0x17, 0x37, 0xbe, 0x5f, 0x9b,
    0x27, 0x3e, 0xf0, 0x6d, 0x46, 0xbe, 0x41, 0xa1, 0x29, 0xbc,
    0xaf, 0x5d, 0xa2, 0x3d, 0xcd, 0x8a, 0x09, 0x3c, 0x17, 0x0f,
    0xb7, 0x3e, 0xb2, 0x91, 0x00, 0x3c, 0xb2, 0x5d, 0x4d, 0x3d,
    0xc7, 0xcc, 0x0a, 0x3d, 0x86, 0xf3, 0xfc, 0x3d, 0x58, 0x30,
    0xa3, 0x3d, 0x77, 0x6e, 0x89, 0xbc, 0x45, 0x7e, 0x88, 0xbd,
    0xc3, 0xb3, 0xbd, 0xbd, 0xe7, 0x77, 0x32, 0xbe, 0xf8, 0x98,
    0x6b, 0x3d, 0xd4, 0x37, 0x66, 0xbd, 0xb8, 0xc3, 0x00, 0xbd,
    0x2b, 0x0e, 0x7b, 0xbd, 0x1f, 0xe2, 0x0a, 0x3e, 0xef, 0xde,
    0x85, 0x3d, 0x0d, 0xe3, 0xa0, 0x3e, 0x0a, 0xcb, 0x1d, 0xbe,
    0xa8, 0x6a, 0x9b, 0x3d, 0x51, 0xac, 0xe4, 0x3d, 0x2e, 0x88,
    0x66, 0xbd, 0x04, 0x3b, 0x34, 0xbe, 0x51, 0xaf, 0x07, 0xbe,
    0xf3, 0x10, 0x99, 0x3d, 0x62, 0xf7, 0x24, 0xbd, 0x0c, 0x8e,
    0xfe, 0x3e, 0xfb, 0x4d, 0xe1, 0xbc, 0x64, 0xee, 0xc2, 0xbd,
    0xf3, 0x10, 0x2e, 0x3e, 0x1e, 0x25, 0x2b, 0xbe, 0x00, 0xf3,
    0x10, 0x3e, 0xe3, 0xcd, 0xb9, 0xbb, 0x94, 0x74, 0x88, 0x3e,
    0xd0, 0x0b, 0x80, 0xbd, 0xce, 0x4b, 0xbf, 0x3c, 0x3b, 0x9e,
    0x21, 0x3d, 0x0a, 0x7c, 0x0d, 0x3e, 0xab, 0x12, 0x34, 0x3d,
    0x80, 0x2b, 0x0c, 0xbe, 0x19, 0xe7, 0x45, 0xbd, 0x12, 0x76,
    0x11, 0xbc, 0x53, 0x2d, 0x9b, 0x3e, 0x41, 0x53, 0x33, 0xbe,
    0x81, 0xdb, 0x86, 0xbd, 0xbb, 0xd5, 0x45, 0xbd, 0xd6, 0x63,
    0x28, 0xbb, 0xc0, 0x73, 0x6d, 0x3e, 0x0e, 0x85, 0x86, 0x3d,
    0xae, 0xab, 0x6b, 0x3e, 0xc6, 0x47, 0x82, 0xbd, 0x59, 0x6f,
    0x81, 0x3d, 0xa0, 0x0c, 0xbc, 0x3d, 0x40, 0x8f, 0x57, 0x3e,
    0x6a, 0xe6, 0xcc, 0x3d, 0x93, 0x07, 0xac, 0xbd, 0x6a, 0x3d,
    0x6a, 0x3b, 0xae, 0x21, 0x19, 0x3d, 0x3f, 0x8c, 0xa7, 0x3e,
    0xe9, 0xde, 0xbf, 0x3d, 0xac, 0x83, 0x54, 0xbe, 0xed, 0x5c,
    0x44, 0x3d, 0x21, 0x19, 0x8b, 0xbd, 0x00, 0xf7, 0x67, 0x3e,
    0xd1, 0x98, 0xf5, 0x3c, 0x0a, 0x12, 0x2b, 0x3d, 0x1c, 0xd2,
    0x19, 0xbe, 0x37, 0x54, 0x2a, 0x3e, 0xf1, 0x98, 0x55, 0x3d,
    0x53, 0x97, 0x10, 0x3e, 0x22, 0x47, 0x2f, 0xbd, 0xf4, 0x86,
    0x1c, 0xbe, 0x7b, 0xed, 0xc3, 0x3c, 0x91, 0x38, 0xaf, 0x3b,
    0xbb, 0x8a, 0x6b, 0x3e, 0x6f, 0x55, 0x59, 0x3d, 0x81, 0xc6,
    0x4c, 0xbe, 0x56, 0x81, 0x49, 0x3d, 0x56, 0x24, 0x0a, 0xbd,
    0x9e, 0x17, 0x66, 0x3e, 0xe1, 0xfc, 0xd1, 0x3c, 0x2b, 0x2d,
    0x0e, 0x3e, 0x3d, 0x0e, 0x1c, 0xbe, 0x08, 0x3d, 0x11, 0x3e,
    0xaa, 0xde, 0x94, 0x3d, 0xb9, 0xc8, 0x49, 0x3d, 0xcc, 0x50,
    0x84, 0xbc, 0xe8, 0x21, 0x56, 0x3c, 0x60, 0x8b, 0x00, 0xbd,
    0xd2, 0x31, 0xc3, 0x3d, 0x43, 0x50, 0xa5, 0x3e, 0xf7, 0xa3,
    0x00, 0x3e, 0xeb, 0x36, 0x29, 0xbe, 0x8c, 0xc9, 0xdd, 0x3d,
    0xff, 0x9a, 0x13, 0xbe, 0x58, 0xfc, 0x2a, 0x3c, 0xd2, 0x5e,
    0x17, 0x3e, 0x58, 0x0a, 0x87, 0x3e, 0x07, 0xe9, 0x80, 0xbe,
    0x86, 0x90, 0x2e, 0x3e, 0x62, 0x60, 0x04, 0x3e, 0x63, 0x04,
    0xee, 0x3b, 0x33, 0x6d, 0x3d, 0xbe, 0x9e, 0x2d, 0xa9, 0xbd,
    0xaf, 0x43, 0xe4, 0x3d, 0x25, 0xf5, 0x73, 0x3d, 0xd9, 0xc1,
    0x82, 0x3e, 0x1b, 0xc7, 0x77, 0xbd, 0xef, 0x1c, 0x88, 0xbe,
    0x87, 0x48, 0x52, 0x3e, 0xee, 0x6a, 0xc6, 0xbc, 0xbb, 0x70,
    0x56, 0xbe, 0xfa, 0x5d, 0xb7, 0x3c, 0xec, 0xdf, 0x9c, 0x3e,
    0x63, 0x38, 0x05, 0x3d, 0x41, 0x04, 0x2a, 0x3d, 0xb9, 0x28,
    0x7e, 0x3d, 0xa3, 0xf7, 0xf6, 0x3c, 0xa3, 0x28, 0x30, 0xbe,
    0x13, 0xa2, 0x7e, 0xbd, 0x6e, 0x3b, 0x0f, 0xbd, 0x95, 0x79,
    0xde, 0xbc, 0xa6, 0x9b, 0x9c, 0x3e, 0x82, 0x17, 0x25, 0x3d,
    0xf5, 0xda, 0x8f, 0xbe, 0xb4, 0xb4, 0x7b, 0x3d, 0x64, 0x11,
    0xb7, 0x3d, 0x80, 0xee, 0x89, 0xbd, 0x0f, 0xe2, 0x88, 0x3d,
    0xf9, 0x78, 0x0e, 0x3f, 0xca, 0x1a, 0xa7, 0xbd, 0xb0, 0x86,
    0xe7, 0xbd, 0xb5, 0x5c, 0x5f, 0xbd, 0x03, 0x6f, 0x16, 0x3c,
    0x59, 0xe8, 0x5e, 0x3e, 0x77, 0xc5, 0x0a, 0xbe, 0x27, 0x57,
    0x83, 0x3d, 0x34, 0xf2, 0x6a, 0xbd, 0x58, 0x52, 0x1c, 0x3e,
    0x83, 0x44, 0xae, 0xbd, 0x6a, 0x25, 0x8d, 0x3d, 0xdd, 0x7e,
    0x2c, 0xbd, 0xf4, 0x76, 0x8a, 0x3d, 0x49, 0xc1, 0x19, 0xbe,
    0x8d, 0x0d, 0xb9, 0x3e, 0x0d, 0x82, 0xf3, 0x3e, 0x2e, 0x1e,
    0x1e, 0x3f, 0x60, 0xb6, 0x06, 0xbf, 0xef, 0xe4, 0x29, 0x3e,
    0x10, 0x0c, 0x2e, 0x3e, 0x32, 0x57, 0x07, 0x3f, 0xe7, 0x95,
    0x0e, 0xbe, 0x07, 0x82, 0x3f, 0x3f, 0x54, 0x10, 0x5c, 0xbd,
    0xa0, 0x90, 0x77, 0x3e, 0x95, 0xa1, 0xfc, 0x3d, 0x62, 0xae,
    0x76, 0x3f, 0x72, 0x1a, 0xd5, 0x3e, 0xc9, 0xde, 0x1e, 0xbc,
    0xc9, 0x5a, 0xfe, 0x3d, 0x05, 0xbc, 0x10, 0x3e, 0x03, 0x31,
    0x35, 0xbe, 0xab, 0xe4, 0xfe, 0xbe, 0xde, 0x46, 0xb4, 0xbe,
    0x96, 0x1f, 0xb9, 0xbe, 0x43, 0x26, 0x71, 0xbf, 0x87, 0xc3,
    0xd5, 0x3d, 0x8f, 0x2f, 0x16, 0xbf, 0x8f, 0x67, 0x8f, 0xbe,
    0xd7, 0x5d, 0xe6, 0xbc, 0x37, 0xf1, 0x5f, 0xbe, 0x64, 0xc9,
    0xbc, 0x3e, 0x57, 0x22, 0x2c, 0x3d, 0xb8, 0xaa, 0x30, 0xbe,
    0x9a, 0x78, 0x4f, 0x3d, 0x25, 0xb1, 0x8d, 0x3e, 0xee, 0x18,
    0x80, 0xbd, 0x4f, 0xf8, 0xd3, 0xbe, 0x2c, 0xb7, 0x9f, 0xbe,
    0x58, 0xa3, 0x80, 0x3c, 0xfd, 0x81, 0x25, 0xbf, 0xb5, 0x91,
    0x84, 0xbf, 0x7d, 0x04, 0x6a, 0x3e, 0x74, 0x00, 0xdf, 0xbe,
    0x02, 0xb2, 0xdd, 0xbd, 0x23, 0xd0, 0x3c, 0x3d, 0x7d, 0x0c,
    0x0d, 0xbf, 0xe2, 0x86, 0x83, 0x3e, 0x77, 0x3f, 0xbd, 0xbc,
    0x6e, 0xb7, 0x20, 0xbe, 0xf1, 0xf7, 0x89, 0x3d, 0x8c, 0x3b,
    0xca, 0x3d, 0xf7, 0x04, 0xd1, 0xbc, 0x7c, 0xc9, 0xab, 0xbe,
    0x9f, 0x39, 0xe1, 0xbe, 0x58, 0x4c, 0x6d, 0x3c, 0x9f, 0x59,
    0xca, 0xbe, 0x56, 0x94, 0x0c, 0xbf, 0xae, 0xfa, 0xa6, 0xbc,
    0xd6, 0xa9, 0x84, 0xbe, 0x26, 0x76, 0xb1, 0xbe, 0xc8, 0x4e,
    0x59, 0x3d, 0x91, 0x94, 0x1d, 0xbe, 0x4b, 0x40, 0x7a, 0xbd,
    0xdf, 0xa3, 0xca, 0xbd, 0x07, 0x47, 0xb2, 0xbe, 0xfe, 0xf3,
    0x66, 0x3d, 0xdf, 0x3b, 0x09, 0x3e, 0x20, 0xb9, 0x9c, 0x3d,
    0x6e, 0x7a, 0xa0, 0xbe, 0x90, 0x23, 0x60, 0xbe, 0xfc, 0x94,
    0x28, 0xbc, 0xad, 0xa6, 0x32, 0xbe, 0x58, 0xf4, 0xd9, 0xbe,
    0xd9, 0x66, 0x16, 0x3e, 0x57, 0xc5, 0x5c, 0xbe, 0x47, 0xa4,
    0x2e, 0xbe, 0x54, 0x8e, 0x8c, 0x3d, 0xb2, 0xc1, 0x98, 0xbd,
    0x70, 0x23, 0x22, 0xbe, 0x78, 0x9c, 0x59, 0xbe, 0x73, 0x3e,
    0x4c, 0xbe, 0x82, 0x2c, 0x1a, 0x3d, 0x5b, 0x5d, 0xec, 0xbd,
    0x13, 0x1e, 0x8b, 0x3b, 0x57, 0x95, 0x64, 0xbe, 0x2e, 0x4a,
    0xbc, 0xbd, 0x2e, 0x42, 0x84, 0xbd, 0x6e, 0x1b, 0x63, 0xbe,
    0x7f, 0xd6, 0xaa, 0xbe, 0xef, 0x47, 0xad, 0x3e, 0x9d, 0x0a,
    0x93, 0xbe, 0xfa, 0xf1, 0x5a, 0xbe, 0x7f, 0x69, 0x3e, 0xbb,
    0x02, 0x3e, 0x51, 0xbe, 0x84, 0x11, 0xee, 0x3d, 0x6a, 0x69,
    0x13, 0xbd, 0x1b, 0x98, 0xad, 0xbe, 0x13, 0xb0, 0x93, 0xbc,
    0x48, 0xde, 0xf1, 0xbd, 0xde, 0x5b, 0x2a, 0x3e, 0x59, 0xa5,
    0x81, 0xbe, 0xdf, 0xf8, 0x7f, 0xbe, 0xeb, 0x07, 0x74, 0xbd,
    0x37, 0xc7, 0x1a, 0xbe, 0xd7, 0xf2, 0xfd, 0xbe, 0x65, 0xa6,
    0x8e, 0x3d, 0x19, 0xaa, 0xe8, 0xbe, 0x34, 0xaf, 0x71, 0xbe,
    0x00, 0x3e, 0x8d, 0xbc, 0x41, 0x77, 0x07, 0x3e, 0x44, 0xa1,
    0x17, 0x3c, 0xab, 0xa7, 0xa0, 0xbc, 0xae, 0x92, 0xe6, 0xbd,
    0x41, 0x10, 0x0d, 0xbd, 0x05, 0x3d, 0x8e, 0x3c, 0x67, 0x32,
    0xd0, 0x3d, 0xec, 0x46, 0xb6, 0xbd, 0x91, 0xcc, 0xac, 0xbe,
    0xf6, 0xf8, 0x0e, 0x3e, 0xb1, 0xda, 0x26, 0xbe, 0x57, 0x7a,
    0x0c, 0xbf, 0x7d, 0x83, 0x24, 0x3d, 0x4d, 0x0e, 0xe0, 0xbe,
    0xd1, 0xb7, 0xfb, 0xbd, 0x7e, 0x5f, 0xd3, 0x3c, 0xb7, 0x20,
    0x2b, 0xbe, 0xc9, 0xb3, 0x1c, 0x3d, 0xe0, 0x48, 0x24, 0xbe,
    0x79, 0xb7, 0x4e, 0xbe, 0x63, 0x47, 0x1c, 0x3d, 0x52, 0x1f,
    0x84, 0x3d, 0xe4, 0x7e, 0xda, 0x3d, 0xbb, 0xd7, 0x23, 0xbe,
    0x09, 0x89, 0x0b, 0xbf, 0x18, 0x75, 0x49, 0xbe, 0x34, 0xe6,
    0x04, 0xbe, 0x4b, 0x84, 0x15, 0xbf, 0x76, 0x7b, 0x32, 0x3e,
    0x54, 0xa9, 0x00, 0xbf, 0x28, 0xd0, 0x6c, 0xbe, 0xbc, 0xd9,
    0xb3, 0xbc, 0x64, 0x7f, 0xaf, 0x3d, 0x98, 0xe2, 0xf2, 0x3d,
    0x1c, 0xe7, 0xb2, 0xbe, 0xb1, 0x8d, 0x67, 0xbe, 0x92, 0xb5,
    0xa5, 0x3b, 0x6f, 0xb5, 0xc1, 0x3d, 0x5d, 0x7d, 0xc9, 0x3d,
    0x9a, 0x30, 0xf1, 0xbe, 0x23, 0xb1, 0xd5, 0xbe, 0xa1, 0x40,
    0x5c, 0xbe, 0xa4, 0x1c, 0x93, 0xbe, 0xf6, 0x76, 0x34, 0xbf,
    0xed, 0xcd, 0x09, 0x3e, 0x17, 0xf9, 0x6b, 0xbf, 0xee, 0xee,
    0x22, 0xbe, 0x5a, 0x8c, 0x43, 0x3d, 0x05, 0x5c, 0x18, 0x3c,
    0x76, 0x6a, 0x8b, 0x3d, 0x75, 0x72, 0x76, 0xbe, 0x49, 0x8e,
    0xdb, 0xbe, 0x2e, 0x1b, 0x4c, 0x3d, 0xd0, 0x7f, 0x40, 0x3e,
    0x42, 0x7c, 0x17, 0x3e, 0x79, 0x36, 0xbc, 0xbe, 0x8c, 0x28,
    0xd2, 0xbe, 0x54, 0x3c, 0x2c, 0xbe, 0xfa, 0x7e, 0x1e, 0xbf,
    0x1e, 0x7a, 0x35, 0xbf, 0x1b, 0xd0, 0x47, 0x3e, 0xe0, 0x28,
    0xab, 0xbe, 0x51, 0x4a, 0x99, 0xbe, 0x30, 0xaf, 0xac, 0x3d,
    0x0b, 0xf0, 0x86, 0xbe, 0x05, 0xf6, 0xa8, 0x3d, 0xe9, 0x4f,
    0x04, 0xbd, 0x12, 0xde, 0xab, 0xbe, 0xb2, 0x04, 0x65, 0x3d,
    0xaa, 0x23, 0xa4, 0xbd, 0x78, 0x38, 0x51, 0x3d, 0xb0, 0xc6,
    0x0e, 0xbf, 0x54, 0x52, 0xf3, 0xbe, 0xc4, 0xce, 0x67, 0xbe,
    0x7b, 0x4a, 0xdf, 0xbe, 0x36, 0x90, 0xf6, 0xbe, 0xbf, 0x01,
    0x55, 0x3e, 0xc0, 0x75, 0x28, 0xbf, 0x8c, 0x2f, 0x01, 0xbf,
    0xe1, 0xd6, 0x46, 0xba, 0x80, 0x2d, 0xbc, 0xbd, 0xf6, 0xc0,
    0xe7, 0x3d, 0x49, 0xc2, 0x4f, 0x3e, 0x38, 0x44, 0x08, 0xbe,
    0x2f, 0x9d, 0x11, 0xbc, 0x56, 0x6c, 0xa4, 0xbd, 0xee, 0xcd,
    0x42, 0xbb, 0x86, 0xed, 0xf8, 0xbe, 0x04, 0x3b, 0x02, 0xbf,
    0x79, 0xa1, 0xfc, 0xbe, 0x96, 0x1e, 0x00, 0xbf, 0xed, 0xdd,
    0x12, 0xbf, 0x1a, 0xb3, 0x8a, 0xbc, 0xb6, 0x86, 0x40, 0xbf,
    0x75, 0x7a, 0x52, 0xbe, 0xa5, 0x5d, 0x30, 0xbc, 0x4a, 0xa2,
    0x3d, 0xbe, 0xca, 0xa0, 0x2a, 0x3e, 0x2d, 0x3d, 0x1e, 0x3e,
    0x5d, 0x41, 0xb0, 0xbd, 0xde, 0x53, 0x91, 0x3d, 0x30, 0x3e,
    0x87, 0x3d, 0x90, 0xbc, 0xb8, 0x3d, 0x57, 0x68, 0xdf, 0xbd,
    0x14, 0x40, 0x8d, 0x3d, 0x21, 0x96, 0x9c, 0xb9, 0x42, 0x92,
    0x0f, 0xbf, 0xe7, 0xe6, 0xc8, 0x3d, 0x1b, 0x0c, 0xdc, 0x3d,
    0x4e, 0xc3, 0x84, 0xbd, 0xfb, 0x3b, 0x87, 0xbe, 0x51, 0x13,
    0x25, 0xbd, 0xe8, 0x11, 0xd9, 0xbd, 0xb0, 0x35, 0xe2, 0x3c,
    0xba, 0xfc, 0x6e, 0xbd, 0x34, 0x43, 0x4d, 0x3e, 0xd7, 0xd7,
    0xf6, 0x3d, 0x34, 0x1c, 0x9b, 0x3e, 0xb1, 0x33, 0x17, 0x3d,
    0x22, 0xc0, 0x63, 0xbe, 0xca, 0xac, 0x8f, 0x3d, 0x90, 0xca,
    0xa8, 0x3e, 0x8c, 0xfe, 0xf8, 0xbd, 0x02, 0xf1, 0x03, 0x3b,
    0x76, 0x72, 0x81, 0xbe, 0xc4, 0x60, 0x4d, 0x3d, 0x5e, 0x5c,
    0x17, 0xbd, 0x0a, 0x38, 0x58, 0x3d, 0xa2, 0xfa, 0x1e, 0xbe,
    0x83, 0x10, 0xeb, 0x3d, 0x13, 0x35, 0xed, 0xbe, 0xc4, 0x8f,
    0x8f, 0xbe, 0x3e, 0xc8, 0x15, 0x3e, 0xab, 0x4a, 0x99, 0x3e,
    0x28, 0xc0, 0x72, 0xbd, 0x40, 0x30, 0x9e, 0xbe, 0x6d, 0x23,
    0xd9, 0x3c, 0xd0, 0x72, 0x09, 0x3e, 0xf3, 0x30, 0xbc, 0xbd,
    0xe6, 0xcb, 0x22, 0x3e, 0x4d, 0x67, 0xd3, 0x3e, 0x3d, 0x38,
    0x4c, 0x3e, 0xf6, 0xcf, 0x5b, 0x3e, 0x78, 0x25, 0x54, 0x3d,
    0x34, 0x47, 0x9a, 0xbe, 0x3a, 0x4f, 0x0c, 0x3e, 0x59, 0x0d,
    0x34, 0xbf, 0xa2, 0x8f, 0x10, 0xbe, 0x5a, 0x07, 0x17, 0xbd,
    0x98, 0xcd, 0x9b, 0xbe, 0xc4, 0x9f, 0xe0, 0x3c, 0xbc, 0x61,
    0xca, 0xbe, 0x2b, 0xc7, 0x50, 0x3d, 0xc9, 0x6f, 0x86, 0xbe,
    0xc6, 0xa0, 0x8e, 0xbe, 0x31, 0x82, 0x70, 0x3d, 0x68, 0x2f,
    0x45, 0x3e, 0xd8, 0x0f, 0x49, 0xbe, 0xbe, 0x73, 0x7c, 0x3e,
    0x65, 0xd1, 0xdc, 0x3c, 0x95, 0x2e, 0x97, 0xbd, 0x3d, 0xb6,
    0xe3, 0xbd, 0xe2, 0x2b, 0x58, 0xbe, 0xf5, 0xf0, 0x18, 0xbe,
    0x8c, 0x69, 0x29, 0xbd, 0x17, 0x63, 0xe1, 0xbe, 0xf7, 0xb4,
    0x4e, 0xbc, 0xe0, 0x15, 0x02, 0x3e, 0xbd, 0x98, 0x84, 0xbc,
    0xb1, 0x6e, 0xe8, 0xbe, 0xd2, 0xcc, 0x1d, 0xbe, 0x8e, 0x32,
    0x08, 0xbe, 0xb5, 0x61, 0x7d, 0xbd, 0xd6, 0x27, 0xa8, 0xbe,
    0x4b, 0x78, 0x7e, 0x3e, 0x6c, 0x6e, 0x94, 0xbd, 0x78, 0xd8,
    0xf1, 0xbd, 0x21, 0x1f, 0xa2, 0x3d, 0xb6, 0x2c, 0x34, 0xbe,
    0x0b, 0xd7, 0x46, 0x3e, 0xac, 0x2a, 0x80, 0xbc, 0x73, 0x62,
    0xab, 0xbe, 0x4d, 0x90, 0x4b, 0x3c, 0xd6, 0x80, 0xdb, 0x3c,
    0xa8, 0x84, 0xde, 0xbc, 0xd2, 0xc9, 0x73, 0xbe, 0xb4, 0x9c,
    0x97, 0xbe, 0x58, 0x5e, 0x64, 0xbe, 0x34, 0x93, 0x0c, 0xbf,
    0x2a, 0x03, 0x6e, 0x3c, 0xc9, 0xe4, 0x14, 0x3e, 0x18, 0xb0,
    0xab, 0xbd, 0x89, 0x25, 0x87, 0xbe, 0xde, 0x28, 0x55, 0xbd,
    0x58, 0x25, 0xa1, 0xbd, 0x56, 0x0b, 0x57, 0x3e, 0xd7, 0xed,
    0x91, 0xbc, 0x06, 0xba, 0x0d, 0xbe, 0x9f, 0xbc, 0x1b, 0xbe,
    0x4c, 0x77, 0xfb, 0x3d, 0x60, 0x75, 0x34, 0xbd, 0x11, 0x7e,
    0x62, 0xbe, 0x79, 0x25, 0x02, 0xbe, 0x44, 0x20, 0xbb, 0xbe,
    0x05, 0x70, 0xba, 0xbe, 0xee, 0x24, 0x3a, 0xbe, 0x4a, 0x91,
    0x0c, 0x3e, 0x66, 0x7b, 0xe9, 0xbc, 0x76, 0x3a, 0x7a, 0xbe,
    0x15, 0xea, 0x4a, 0xbd, 0xcb, 0xae, 0xfd, 0xbd, 0x17, 0x0b,
    0xe1, 0x3d, 0x05, 0x47, 0xd6, 0x3d, 0xad, 0xbb, 0x0b, 0xbe,
    0x4b, 0x90, 0x5a, 0xbe, 0x11, 0xe4, 0xa0, 0x3c, 0xde, 0xfa,
    0x8b, 0xbe, 0xc4, 0x4d, 0x92, 0x3d, 0x1b, 0x0e, 0x39, 0xbe,
    0xab, 0x88, 0xed, 0xbe, 0xc5, 0xe4, 0xbf, 0xbe, 0xe8, 0x29,
    0xf6, 0xbd, 0xfd, 0x07, 0x3c, 0xbe, 0x08, 0xd8, 0x6d, 0xbc,
    0x45, 0x43, 0xed, 0x3d, 0xbd, 0x9a, 0x0d, 0x3e, 0x50, 0x79,
    0xe2, 0x3d, 0x34, 0x9b, 0x5e, 0x3e, 0x33, 0xc9, 0xd0, 0x3d,
    0x97, 0xd1, 0xd1, 0x3d, 0x73, 0x1c, 0x9c, 0xbd, 0x76, 0x74,
    0x1c, 0xbe, 0xe9, 0x35, 0xb1, 0x3c, 0x90, 0xaf, 0x24, 0x3e,
    0xaa, 0xbf, 0x44, 0xbe, 0x00, 0xd8, 0xf8, 0xbe, 0xa6, 0x67,
    0xf2, 0xbd, 0x4b, 0xf9, 0xa7, 0xbd, 0x2c, 0xb9, 0x94, 0xbd,
    0xed, 0x41, 0x39, 0x3c, 0x7c, 0x96, 0x6a, 0x3d, 0xbb, 0x36,
    0xa4, 0xbb, 0x47, 0x94, 0x59, 0x3e, 0x51, 0x8f, 0x9e, 0x3d,
    0x75, 0x9a, 0xdf, 0x3d, 0xea, 0xdc, 0x11, 0x3e, 0x0c, 0x0e,
    0x3b, 0xbd, 0x90, 0xef, 0xbd, 0xbe, 0x8f, 0x66, 0x0a, 0x3e,
